{
  "version": "1.0",
  "truncation": null,
  "padding": null,
  "added_tokens": [
    {
      "id": 0,
      "content": "<unk>",
      "single_word": false,
      "lstrip": false,
      "rstrip": false,
      "normalized": false,
      "special": true
    },
    {
      "id": 1,
      "content": "<s>",
      "single_word": false,
      "lstrip": false,
      "rstrip": false,
      "normalized": false,
      "special": true
    },
    {
      "id": 2,
      "content": "</s>",
      "single_word": false,
      "lstrip": false,
      "rstrip": false,
      "normalized": false,
      "special": true
    }
  ],
  "normalizer": {
    "type": "Sequence",
    "normalizers": [
      {
        "type": "NFKC"
      }
    ]
  },
  "pre_tokenizer": {
    "type": "Sequence",
    "pretokenizers": [
      {
        "type": "Split",
        "pattern": {
          "Regex": " "
        },
        "behavior": "MergedWithNext",
        "invert": false
      },
      {
        "type": "Split",
        "pattern": {
          "Regex": " *(\\w+|[^\\w\\s]+)"
        },
        "behavior": "Isolated",
        "invert": false
      },
      {
        "type": "ByteLevel",
        "add_prefix_space": false,
        "trim_offsets": true,
        "use_regex": false
      }
    ]
  },
  "post_processor": null,
  "decoder": {
    "type": "Sequence",
    "decoders": [
      {
        "type": "ByteLevel",
        "add_prefix_space": true,
        "trim_offsets": true,
        "use_regex": true
      }
    ]
  },
  "model": {
    "type": "BPE",
    "dropout": null,
    "unk_token": "<unk>",
    "continuing_subword_prefix": null,
    "end_of_word_suffix": null,
    "fuse_unk": true,
    "byte_fallback": false,
    "vocab": {
      "<unk>": 0,
      "<s>": 1,
      "</s>": 2,
      "!": 3,
      "\"": 4,
      "#": 5,
      "$": 6,
      "%": 7,
      "&": 8,
      "'": 9,
      "(": 10,
      ")": 11,
      "*": 12,
      "+": 13,
      ",": 14,
      "-": 15,
      ".": 16,
      "/": 17,
      "0": 18,
      "1": 19,
      "2": 20,
      "3": 21,
      "4": 22,
      "5": 23,
      "6": 24,
      "7": 25,
      "8": 26,
      "9": 27,
      ":": 28,
      ";": 29,
      "<": 30,
      "=": 31,
      ">": 32,
      "?": 33,
      "@": 34,
      "A": 35,
      "B": 36,
      "C": 37,
      "D": 38,
      "E": 39,
      "F": 40,
      "G": 41,
      "H": 42,
      "I": 43,
      "J": 44,
      "K": 45,
      "L": 46,
      "M": 47,
      "N": 48,
      "O": 49,
      "P": 50,
      "Q": 51,
      "R": 52,
      "S": 53,
      "T": 54,
      "U": 55,
      "V": 56,
      "W": 57,
      "X": 58,
      "Y": 59,
      "Z": 60,
      "[": 61,
      "\\": 62,
      "]": 63,
      "^": 64,
      "_": 65,
      "`": 66,
      "a": 67,
      "b": 68,
      "c": 69,
      "d": 70,
      "e": 71,
      "f": 72,
      "g": 73,
      "h": 74,
      "i": 75,
      "j": 76,
      "k": 77,
      "l": 78,
      "m": 79,
      "n": 80,
      "o": 81,
      "p": 82,
      "q": 83,
      "r": 84,
      "s": 85,
      "t": 86,
      "u": 87,
      "v": 88,
      "w": 89,
      "x": 90,
      "y": 91,
      "z": 92,
      "{": 93,
      "|": 94,
      "}": 95,
      "~": 96,
      "¡": 97,
      "¢": 98,
      "£": 99,
      "¤": 100,
      "¥": 101,
      "¦": 102,
      "§": 103,
      "¨": 104,
      "©": 105,
      "ª": 106,
      "«": 107,
      "¬": 108,
      "®": 109,
      "¯": 110,
      "°": 111,
      "±": 112,
      "²": 113,
      "³": 114,
      "´": 115,
      "µ": 116,
      "¶": 117,
      "·": 118,
      "¸": 119,
      "¹": 120,
      "º": 121,
      "»": 122,
      "¼": 123,
      "½": 124,
      "¾": 125,
      "¿": 126,
      "À": 127,
      "Á": 128,
      "Â": 129,
      "Ã": 130,
      "Ä": 131,
      "Å": 132,
      "Æ": 133,
      "Ç": 134,
      "È": 135,
      "É": 136,
      "Ê": 137,
      "Ë": 138,
      "Ì": 139,
      "Í": 140,
      "Î": 141,
      "Ï": 142,
      "Ð": 143,
      "Ñ": 144,
      "Ò": 145,
      "Ó": 146,
      "Ô": 147,
      "Õ": 148,
      "Ö": 149,
      "×": 150,
      "Ø": 151,
      "Ù": 152,
      "Ú": 153,
      "Û": 154,
      "Ü": 155,
      "Ý": 156,
      "Þ": 157,
      "ß": 158,
      "à": 159,
      "á": 160,
      "â": 161,
      "ã": 162,
      "ä": 163,
      "å": 164,
      "æ": 165,
      "ç": 166,
      "è": 167,
      "é": 168,
      "ê": 169,
      "ë": 170,
      "ì": 171,
      "í": 172,
      "î": 173,
      "ï": 174,
      "ð": 175,
      "ñ": 176,
      "ò": 177,
      "ó": 178,
      "ô": 179,
      "õ": 180,
      "ö": 181,
      "÷": 182,
      "ø": 183,
      "ù": 184,
      "ú": 185,
      "û": 186,
      "ü": 187,
      "ý": 188,
      "þ": 189,
      "ÿ": 190,
      "Ā": 191,
      "ā": 192,
      "Ă": 193,
      "ă": 194,
      "Ą": 195,
      "ą": 196,
      "Ć": 197,
      "ć": 198,
      "Ĉ": 199,
      "ĉ": 200,
      "Ċ": 201,
      "ċ": 202,
      "Č": 203,
      "č": 204,
      "Ď": 205,
      "ď": 206,
      "Đ": 207,
      "đ": 208,
      "Ē": 209,
      "ē": 210,
      "Ĕ": 211,
      "ĕ": 212,
      "Ė": 213,
      "ė": 214,
      "Ę": 215,
      "ę": 216,
      "Ě": 217,
      "ě": 218,
      "Ĝ": 219,
      "ĝ": 220,
      "Ğ": 221,
      "ğ": 222,
      "Ġ": 223,
      "ġ": 224,
      "Ģ": 225,
      "ģ": 226,
      "Ĥ": 227,
      "ĥ": 228,
      "Ħ": 229,
      "ħ": 230,
      "Ĩ": 231,
      "ĩ": 232,
      "Ī": 233,
      "ī": 234,
      "Ĭ": 235,
      "ĭ": 236,
      "Į": 237,
      "į": 238,
      "İ": 239,
      "ı": 240,
      "Ĳ": 241,
      "ĳ": 242,
      "Ĵ": 243,
      "ĵ": 244,
      "Ķ": 245,
      "ķ": 246,
      "ĸ": 247,
      "Ĺ": 248,
      "ĺ": 249,
      "Ļ": 250,
      "ļ": 251,
      "Ľ": 252,
      "ľ": 253,
      "Ŀ": 254,
      "ŀ": 255,
      "Ł": 256,
      "ł": 257,
      "Ń": 258,
      "Ġt": 259,
      "Ġa": 260,
      "in": 261,
      "he": 262,
      "re": 263,
      "on": 264,
      "Ġthe": 265,
      "er": 266,
      "Ġs": 267,
      "Ġw": 268,
      "Ġo": 269,
      "at": 270,
      "nd": 271,
      "Ġc": 272,
      "it": 273,
      "ou": 274,
      "or": 275,
      "es": 276,
      "is": 277,
      "Ġf": 278,
      "en": 279,
      "ing": 280,
      "Ġb": 281,
      "Ġp": 282,
      "an": 283,
      "ed": 284,
      "al": 285,
      "Ġto": 286,
      "Ġm": 287,
      "Ġand": 288,
      "ar": 289,
      "Ġin": 290,
      "Ġof": 291,
      "Ġd": 292,
      "ic": 293,
      "le": 294,
      "om": 295,
      "ion": 296,
      "Ġh": 297,
      "as": 298,
      "Ġth": 299,
      "ll": 300,
      "Ġy": 301,
      "ent": 302,
      "Ġl": 303,
      "ve": 304,
      "Ġe": 305,
      "ro": 306,
      "Ġre": 307,
      "st": 308,
      "Ġn": 309,
      "Ġyou": 310,
      "ct": 311,
      "Ġg": 312,
      "ly": 313,
      "et": 314,
      "ĠI": 315,
      "âĢ": 316,
      "Ġis": 317,
      "ĠT": 318,
      "Ġfor": 319,
      "Ġbe": 320,
      "ut": 321,
      "ot": 322,
      "Ġon": 323,
      "id": 324,
      "ur": 325,
      "ĠS": 326,
      "ow": 327,
      "ay": 328,
      "us": 329,
      "ce": 330,
      "im": 331,
      "ig": 332,
      "ĠC": 333,
      "ra": 334,
      "ch": 335,
      "ĠA": 336,
      "ith": 337,
      "ver": 338,
      "ation": 339,
      "il": 340,
      "Ġthat": 341,
      "Ġst": 342,
      "ol": 343,
      "Ġwith": 344,
      "ad": 345,
      "am": 346,
      "ir": 347,
      "Ġit": 348,
      "se": 349,
      "Ġwe": 350,
      "âĢĻ": 351,
      "ĠM": 352,
      "Ġan": 353,
      "Ġpro": 354,
      "ill": 355,
      "Ġas": 356,
      "ers": 357,
      "Ġare": 358,
      "Ġhe": 359,
      "Ġwh": 360,
      "ĠP": 361,
      "if": 362,
      "un": 363,
      "ĠB": 364,
      "ge": 365,
      "ke": 366,
      "Ġha": 367,
      "Ġcon": 368,
      "ter": 369,
      "Ġor": 370,
      "ul": 371,
      "ess": 372,
      "oo": 373,
      "Ġcom": 374,
      "ĠW": 375,
      "ate": 376,
      "pp": 377,
      "her": 378,
      "ment": 379,
      "est": 380,
      "ab": 381,
      "Ġyour": 382,
      "ld": 383,
      "Ġde": 384,
      "Ġat": 385,
      "ĠThe": 386,
      "Ġse": 387,
      "ck": 388,
      "Ġmo": 389,
      "ri": 390,
      "Ġex": 391,
      "ĠH": 392,
      "ĠD": 393,
      "rom": 394,
      "Ġne": 395,
      "pe": 396,
      "igh": 397,
      "qu": 398,
      "ĠF": 399,
      "ort": 400,
      "ure": 401,
      "ist": 402,
      "Ġv": 403,
      "Ġ1": 404,
      "ity": 405,
      "ant": 406,
      "ĠR": 407,
      "ive": 408,
      "Ġhave": 409,
      "Ġcan": 410,
      "um": 411,
      "art": 412,
      "Ġwas": 413,
      "Ġ2": 414,
      "ust": 415,
      "Ġ(": 416,
      "Ġus": 417,
      "op": 418,
      "Ġfrom": 419,
      "em": 420,
      "ain": 421,
      "Ġthis": 422,
      "ĠL": 423,
      "th": 424,
      "Ġal": 425,
      "Ġr": 426,
      "Ġsh": 427,
      "ĠG": 428,
      "ies": 429,
      "Ġch": 430,
      "el": 431,
      "os": 432,
      "Ġwill": 433,
      "Ġby": 434,
      "Ġsu": 435,
      "ĠE": 436,
      "Ġnot": 437,
      "nt": 438,
      "and": 439,
      "Ġu": 440,
      "res": 441,
      "ĠN": 442,
      "all": 443,
      "ight": 444,
      "ome": 445,
      "Ġle": 446,
      "ard": 447,
      "ud": 448,
      "out": 449,
      "iv": 450,
      "ie": 451,
      "our": 452,
      "Ġab": 453,
      "ial": 454,
      "ĠO": 455,
      "Ġwor": 456,
      "Ġdo": 457,
      "red": 458,
      "ould": 459,
      "Ġall": 460,
      "te": 461,
      "Ġpl": 462,
      "ide": 463,
      "per": 464,
      "rou": 465,
      "gh": 466,
      "ĠâĢ": 467,
      "ine": 468,
      "Ġso": 469,
      "Ġma": 470,
      "Ġcomp": 471,
      "fe": 472,
      "Ġj": 473,
      "age": 474,
      "ice": 475,
      "ast": 476,
      "Ġk": 477,
      "pt": 478,
      "Ġad": 479,
      "ally": 480,
      "ction": 481,
      "ear": 482,
      "Ġhas": 483,
      "00": 484,
      "čĊ": 485,
      "lo": 486,
      "The": 487,
      "Ġwhe": 488,
      "king": 489,
      "ag": 490,
      "able": 491,
      "Ġen": 492,
      "ac": 493,
      "ther": 494,
      "Ġme": 495,
      "so": 496,
      "od": 497,
      "ind": 498,
      "Ġbut": 499,
      "ich": 500,
      "ĠJ": 501,
      "ip": 502,
      "ack": 503,
      "Ġout": 504,
      "Ġour": 505,
      "are": 506,
      "Ġup": 507,
      "ite": 508,
      "very": 509,
      "one": 510,
      "Ġlo": 511,
      "ated": 512,
      "cc": 513,
      "ry": 514,
      "Ġmore": 515,
      "Ġtheir": 516,
      "ime": 517,
      "Ġte": 518,
      "du": 519,
      "ood": 520,
      "Ġim": 521,
      "iz": 522,
      "Ġthey": 523,
      "ong": 524,
      "ĠU": 525,
      "for": 526,
      "ore": 527,
      "ĠTh": 528,
      "ous": 529,
      "Ġmy": 530,
      "Ġone": 531,
      "Ġcont": 532,
      "ks": 533,
      "ans": 534,
      "ance": 535,
      "ib": 536,
      "Ġcl": 537,
      "ions": 538,
      "ign": 539,
      "Ġman": 540,
      "Ġinc": 541,
      "ike": 542,
      "ĠIn": 543,
      "ost": 544,
      "Ġun": 545,
      "Ġfe": 546,
      "Ġres": 547,
      "ru": 548,
      "Ġapp": 549,
      "Ġabout": 550,
      "act": 551,
      "Ġwhich": 552,
      "reat": 553,
      "ire": 554,
      "ult": 555,
      "Ġqu": 556,
      "ase": 557,
      "ail": 558,
      "ace": 559,
      "ations": 560,
      "Ġper": 561,
      "ia": 562,
      "ĠY": 563,
      "og": 564,
      "erv": 565,
      "Ġalso": 566,
      "ree": 567,
      "Ġoff": 568,
      "Ġtime": 569,
      "01": 570,
      "Ġany": 571,
      "..": 572,
      "to": 573,
      "Ġgo": 574,
      "ap": 575,
      "Ġother": 576,
      "Ġwho": 577,
      "ach": 578,
      "ne": 579,
      "ame": 580,
      "ber": 581,
      "ass": 582,
      "form": 583,
      "vel": 584,
      "ĠK": 585,
      "Ġsp": 586,
      "ical": 587,
      "ile": 588,
      "ary": 589,
      "ep": 590,
      "ven": 591,
      "ount": 592,
      "Ġget": 593,
      "ays": 594,
      "Ġdis": 595,
      "Ġyear": 596,
      "Ġpart": 597,
      "ff": 598,
      "ence": 599,
      "ue": 600,
      "Ġsome": 601,
      "Ġlike": 602,
      "ĠIt": 603,
      "ook": 604,
      "ents": 605,
      "Ġnew": 606,
      "own": 607,
      "Ġsa": 608,
      "Ġta": 609,
      "ition": 610,
      "ub": 611,
      "Ġthem": 612,
      "ĠV": 613,
      "Ġtra": 614,
      "Ġneed": 615,
      "ings": 616,
      "pl": 617,
      "ress": 618,
      "ick": 619,
      "âĢĿ": 620,
      "ors": 621,
      "Ġhis": 622,
      "ond": 623,
      "Ġ3": 624,
      "Ġspe": 625,
      "Ġover": 626,
      "ĠSt": 627,
      "Ġar": 628,
      "ark": 629,
      "Ġro": 630,
      "cial": 631,
      "Ġrec": 632,
      "Ġthere": 633,
      "Ġif": 634,
      "Ġwhen": 635,
      "Ġsc": 636,
      "ĠCh": 637,
      "Ġbeen": 638,
      "Ġimp": 639,
      "ĠWe": 640,
      "Ġco": 641,
      "Ġpe": 642,
      "ild": 643,
      "av": 644,
      "Ġ201": 645,
      "Ġwork": 646,
      "Ġpre": 647,
      "Ġkn": 648,
      "ens": 649,
      "Ġag": 650,
      "Ġwhat": 651,
      "Ġacc": 652,
      "Ġwould": 653,
      "Ġthan": 654,
      "ough": 655,
      "Ġdes": 656,
      "int": 657,
      "Ġwere": 658,
      "wn": 659,
      "ish": 660,
      "ater": 661,
      "ound": 662,
      "Ġam": 663,
      "Ġjust": 664,
      "ĠâĢľ": 665,
      "Ġhow": 666,
      "ren": 667,
      "ord": 668,
      "rough": 669,
      "nder": 670,
      "Ġhad": 671,
      "Ġcomm": 672,
      "Ġprov": 673,
      "lp": 674,
      "Ġinto": 675,
      "Ġbec": 676,
      "ak": 677,
      "lud": 678,
      "use": 679,
      "vers": 680,
      "lic": 681,
      "irst": 682,
      "Ġhelp": 683,
      "ĠThis": 684,
      "Ġ\"": 685,
      "ang": 686,
      "ople": 687,
      "Ġserv": 688,
      "ning": 689,
      "Ġmay": 690,
      "ory": 691,
      "Ġmake": 692,
      "Ġits": 693,
      "Ġadd": 694,
      "Ġno": 695,
      "old": 696,
      "Ġuse": 697,
      "Ġbu": 698,
      "fter": 699,
      "Ġpr": 700,
      "ces": 701,
      "ram": 702,
      "Ġ-": 703,
      "rent": 704,
      "Ġem": 705,
      ").": 706,
      "ual": 707,
      "Ġher": 708,
      "ments": 709,
      "itt": 710,
      "we": 711,
      "Ġtr": 712,
      "Ġprodu": 713,
      "Ġmost": 714,
      "Ġpeople": 715,
      "ose": 716,
      "Ġind": 717,
      "ious": 718,
      "Ġknow": 719,
      "ft": 720,
      "Ġinclud": 721,
      "oc": 722,
      "les": 723,
      "ices": 724,
      "Ġthrough": 725,
      "Ġonly": 726,
      "tern": 727,
      "cts": 728,
      "Ġwell": 729,
      "ates": 730,
      "ons": 731,
      "Ġtw": 732,
      "ily": 733,
      "Ġfirst": 734,
      "hed": 735,
      "je": 736,
      "ull": 737,
      "ink": 738,
      "end": 739,
      "Ġbet": 740,
      "Ġevery": 741,
      "ĠHe": 742,
      "round": 743,
      "Ġcons": 744,
      "Ġpo": 745,
      "ise": 746,
      "ating": 747,
      "ian": 748,
      "Ġph": 749,
      "Ġthese": 750,
      "ĠâĢĵ": 751,
      "ities": 752,
      "Ġwant": 753,
      "Ġunder": 754,
      "ause": 755,
      "Ġ4": 756,
      "ific": 757,
      "ade": 758,
      "Ġexper": 759,
      "Ġsupp": 760,
      "Ġsee": 761,
      "bs": 762,
      "Ġback": 763,
      "hen": 764,
      "Ġdif": 765,
      "Ġrep": 766,
      "Ġvery": 767,
      "iness": 768,
      "Ġ5": 769,
      "Ġcol": 770,
      "Ġsy": 771,
      "ĠYou": 772,
      "Th": 773,
      "amp": 774,
      "mer": 775,
      "cess": 776,
      "ph": 777,
      "iew": 778,
      "Ġact": 779,
      "Ġreg": 780,
      "li": 781,
      "oth": 782,
      "ful": 783,
      "lect": 784,
      "ert": 785,
      "ict": 786,
      "xt": 787,
      "ange": 788,
      "Ġmany": 789,
      "Ġra": 790,
      "Ġbus": 791,
      "ced": 792,
      "Ġstud": 793,
      "day": 794,
      "Ġinv": 795,
      "Ġtwo": 796,
      "Ġgood": 797,
      "any": 798,
      "Ġ19": 799,
      "row": 800,
      "ible": 801,
      "urn": 802,
      "uch": 803,
      "Ġke": 804,
      "Ġfl": 805,
      "fore": 806,
      "Ġgreat": 807,
      "ife": 808,
      "fect": 809,
      "Ġway": 810,
      "ures": 811,
      "als": 812,
      "Ġshe": 813,
      "sel": 814,
      "ility": 815,
      "ting": 816,
      "Ġsm": 817,
      "iss": 818,
      "Ġyears": 819,
      "Ġwhere": 820,
      "eth": 821,
      "Ġdec": 822,
      "Ġpos": 823,
      "Ġshould": 824,
      "ving": 825,
      "Ġrem": 826,
      "ys": 827,
      "Ġafter": 828,
      "Ġcould": 829,
      "ased": 830,
      "erson": 831,
      "Ġeven": 832,
      "Ġbest": 833,
      "Ġev": 834,
      "ower": 835,
      "Ġinform": 836,
      "get": 837,
      "Ġent": 838,
      "ience": 839,
      "Ġthen": 840,
      "stem": 841,
      "Ġown": 842,
      "ular": 843,
      "ool": 844,
      "Ġac": 845,
      "Ġinst": 846,
      "ec": 847,
      "ational": 848,
      "ew": 849,
      "ont": 850,
      "Ġset": 851,
      "ved": 852,
      "Ġhigh": 853,
      "Ġfind": 854,
      "olog": 855,
      "Ġloc": 856,
      "ble": 857,
      "velop": 858,
      "aw": 859,
      "Ġfin": 860,
      "oll": 861,
      "erm": 862,
      "Ġstart": 863,
      "ath": 864,
      "Ġins": 865,
      "Ġcar": 866,
      "Ġsuch": 867,
      "rit": 868,
      "uring": 869,
      "Ġnow": 870,
      "Ġrel": 871,
      "Ġsec": 872,
      "Ġrequ": 873,
      "ract": 874,
      "Ġdown": 875,
      "Ġdesign": 876,
      "ts": 877,
      "ward": 878,
      "Ġright": 879,
      "Ġhome": 880,
      "air": 881,
      "ics": 882,
      "ative": 883,
      "Ġbusiness": 884,
      "Ġmuch": 885,
      "line": 886,
      "der": 887,
      "Ġday": 888,
      "hes": 889,
      "Ġplay": 890,
      "Ġgu": 891,
      "its": 892,
      "Ġdiffe": 893,
      "ty": 894,
      "ĠIf": 895,
      "Ġinte": 896,
      "Ġav": 897,
      "),": 898,
      "Ġsaid": 899,
      "Ġatt": 900,
      "oy": 901,
      "gan": 902,
      "Ġdon": 903,
      "ient": 904,
      "Ġtake": 905,
      "pect": 906,
      "ĠAs": 907,
      "Ġexp": 908,
      "hip": 909,
      "ject": 910,
      "arch": 911,
      "ĠUn": 912,
      "Ġlong": 913,
      "Ġinformation": 914,
      "Ġread": 915,
      "ident": 916,
      "ener": 917,
      "Ġbl": 918,
      "Ġmin": 919,
      "Ġtoo": 920,
      "Ġbecause": 921,
      "ĠWh": 922,
      "Ġche": 923,
      "ell": 924,
      "ob": 925,
      "omm": 926,
      "alth": 927,
      "und": 928,
      "Ġdisc": 929,
      "arket": 930,
      "Ġused": 931,
      "ited": 932,
      "Ġsim": 933,
      "up": 934,
      "Ġsystem": 935,
      "Ġperson": 936,
      "Ġdevelop": 937,
      "Ġfam": 938,
      "Ġmon": 939,
      "ĠRe": 940,
      "Ġbr": 941,
      "chn": 942,
      "Ġmade": 943,
      "Ġprovid": 944,
      "ustom": 945,
      "ove": 946,
      "Ġtrans": 947,
      "ality": 948,
      "Ġ6": 949,
      "Ġhere": 950,
      "Ġcre": 951,
      "Ġprog": 952,
      "In": 953,
      "cy": 954,
      "Ġpres": 955,
      "Ġsur": 956,
      "Ġ&": 957,
      "Ġass": 958,
      "Ġvis": 959,
      "other": 960,
      "io": 961,
      "ied": 962,
      "rib": 963,
      "Ġdoes": 964,
      "ash": 965,
      "Ġbefore": 966,
      "Ġdid": 967,
      "Ġbel": 968,
      "Ġshow": 969,
      "chool": 970,
      "Ġthose": 971,
      "ĠPro": 972,
      "Ġcall": 973,
      "Ġbeing": 974,
      "Ġend": 975,
      "ner": 976,
      "ix": 977,
      "com": 978,
      "Ġnum": 979,
      "Ġworld": 980,
      "Ġcomple": 981,
      "Ġdet": 982,
      "ĠAnd": 983,
      "ually": 984,
      "Ġwee": 985,
      "rest": 986,
      "Ġeach": 987,
      "Ġ$": 988,
      "Ġeas": 989,
      "Ġlife": 990,
      "Ġhand": 991,
      "ake": 992,
      "ork": 993,
      "Ġform": 994,
      "ata": 995,
      "Ġsub": 996,
      "Ġmed": 997,
      "ric": 998,
      "Ġbo": 999,
      "Ġmem": 1000,
      "Ġart": 1001,
      "ages": 1002,
      "ues": 1003,
      "This": 1004,
      "Ġsupport": 1005,
      "Ġinter": 1006,
      "Ġlook": 1007,
      "Ġagain": 1008,
      "Ġcur": 1009,
      "ouse": 1010,
      "ĠAn": 1011,
      "led": 1012,
      "Ġop": 1013,
      "way": 1014,
      "arn": 1015,
      "ĠFor": 1016,
      "Ġdifferent": 1017,
      "arm": 1018,
      "We": 1019,
      "az": 1020,
      "ank": 1021,
      "ional": 1022,
      "Ġsk": 1023,
      "kes": 1024,
      "Ġadv": 1025,
      "ize": 1026,
      "Ġcustom": 1027,
      "ci": 1028,
      "de": 1029,
      "ros": 1030,
      "gg": 1031,
      "ple": 1032,
      "Ġprocess": 1033,
      "cept": 1034,
      "ines": 1035,
      "Ġwhile": 1036,
      "...": 1037,
      "Ġaround": 1038,
      "ives": 1039,
      "Ġcle": 1040,
      "land": 1041,
      "Ġstr": 1042,
      "ince": 1043,
      "ason": 1044,
      "olut": 1045,
      "ather": 1046,
      "Ġpost": 1047,
      "Ġmarket": 1048,
      "ctions": 1049,
      "ave": 1050,
      "ng": 1051,
      "Ġ.": 1052,
      "Ġcare": 1053,
      "Ġlead": 1054,
      "Ġprof": 1055,
      "ale": 1056,
      "Ġlove": 1057,
      "Ġavail": 1058,
      "Ġ200": 1059,
      "Ġreally": 1060,
      "ves": 1061,
      "self": 1062,
      "Ġlast": 1063,
      "lease": 1064,
      "Ġcommun": 1065,
      "ollow": 1066,
      "Ġloo": 1067,
      "ever": 1068,
      "Ġret": 1069,
      "Ġaut": 1070,
      "Ġed": 1071,
      "Ġ7": 1072,
      "atch": 1073,
      "Ġgra": 1074,
      "Ġfree": 1075,
      "Ġ8": 1076,
      "Ġchild": 1077,
      "ins": 1078,
      "Ġ10": 1079,
      "Ġprogram": 1080,
      "ene": 1081,
      "Ġplace": 1082,
      "ways": 1083,
      "Ġtechn": 1084,
      "roup": 1085,
      "Ġteam": 1086,
      "Ġser": 1087,
      "ween": 1088,
      "Ġsign": 1089,
      "Ġpur": 1090,
      "Ġlist": 1091,
      "Ġfun": 1092,
      "pr": 1093,
      "read": 1094,
      "Ġpub": 1095,
      "Ġimport": 1096,
      "irect": 1097,
      "Ġcour": 1098,
      "Ġusing": 1099,
      "Ġsom": 1100,
      "Ġcount": 1101,
      "imes": 1102,
      "ness": 1103,
      "Ġhim": 1104,
      "Ġboth": 1105,
      "Ġtop": 1106,
      "ĠAl": 1107,
      "Ġsame": 1108,
      "ets": 1109,
      "Ġext": 1110,
      "Ġthink": 1111,
      "Ġlar": 1112,
      "ĠDe": 1113,
      "Ġfull": 1114,
      "Ġfeel": 1115,
      "Ġfound": 1116,
      "riend": 1117,
      "oun": 1118,
      "ĠSh": 1119,
      "Ġval": 1120,
      "Ġbetween": 1121,
      "ten": 1122,
      "ining": 1123,
      "Ġavailable": 1124,
      "Ġstill": 1125,
      "Ġvar": 1126,
      "ature": 1127,
      "Ġopt": 1128,
      "ized": 1129,
      "Ġservice": 1130,
      "Ġchar": 1131,
      "view": 1132,
      "Ġplan": 1133,
      "ivers": 1134,
      "Ġlot": 1135,
      "Ġthough": 1136,
      "Ġpol": 1137,
      "Ġgoing": 1138,
      "ired": 1139,
      "Ġcompany": 1140,
      "Ġty": 1141,
      "ffect": 1142,
      "iqu": 1143,
      "ĠNew": 1144,
      "Ġide": 1145,
      "Ġfew": 1146,
      "Ġrun": 1147,
      "less": 1148,
      "Ġgener": 1149,
      "ittle": 1150,
      "Ġappro": 1151,
      "ety": 1152,
      "ĠThey": 1153,
      "Ġfollow": 1154,
      "Ġcor": 1155,
      "ars": 1156,
      "ants": 1157,
      "Ġmain": 1158,
      "Ġpoint": 1159,
      "Ġexperience": 1160,
      "ov": 1161,
      "ĠSe": 1162,
      "Ġresult": 1163,
      "Ġkeep": 1164,
      "uc": 1165,
      "ology": 1166,
      "Ġdata": 1167,
      "Ġsl": 1168,
      "Ġposs": 1169,
      "iving": 1170,
      "Ġhealth": 1171,
      "Ġsmall": 1172,
      "Ġbuild": 1173,
      "Ġpat": 1174,
      "Ġwater": 1175,
      "Ġhapp": 1176,
      "ĠAr": 1177,
      "Ġallow": 1178,
      "ĠBut": 1179,
      "ering": 1180,
      "Ġpartic": 1181,
      "Ġreal": 1182,
      "Ġob": 1183,
      "Ġref": 1184,
      "Ġmonth": 1185,
      "Ġorgan": 1186,
      "ital": 1187,
      "Wh": 1188,
      "Ġopen": 1189,
      "Ġalways": 1190,
      "ross": 1191,
      "Ġcent": 1192,
      "Ġservices": 1193,
      "Ġ9": 1194,
      "ah": 1195,
      "ĠSo": 1196,
      "ware": 1197,
      "plo": 1198,
      "Ġincluding": 1199,
      "Ġprovide": 1200,
      "ms": 1201,
      "ĠCl": 1202,
      "000": 1203,
      "stand": 1204,
      "Ġinterest": 1205,
      "Ġsure": 1206,
      "Ġthings": 1207,
      "ĠThere": 1208,
      "Ġpri": 1209,
      "Ġnumber": 1210,
      "orth": 1211,
      "Ġpay": 1212,
      "Ġdri": 1213,
      "erg": 1214,
      "aut": 1215,
      "ural": 1216,
      "bers": 1217,
      "Ġcost": 1218,
      "Ġduring": 1219,
      "ined": 1220,
      "Ġfamily": 1221,
      "Ġrest": 1222,
      "ton": 1223,
      "Ġmust": 1224,
      "thing": 1225,
      "Ġthree": 1226,
      "Ġlittle": 1227,
      "ug": 1228,
      "ically": 1229,
      "Ġwithout": 1230,
      "Ġfil": 1231,
      "Ġstand": 1232,
      "Ġschool": 1233,
      "Ġint": 1234,
      "Ġiss": 1235,
      "Ġresp": 1236,
      "Ġcome": 1237,
      "Ġimportant": 1238,
      "Ġbetter": 1239,
      "ĠAd": 1240,
      "Ġdef": 1241,
      "Ġrece": 1242,
      "ody": 1243,
      "Ġfact": 1244,
      "Ġmod": 1245,
      "Ġperform": 1246,
      "arly": 1247,
      "ĠLe": 1248,
      "Ġspec": 1249,
      "co": 1250,
      "ists": 1251,
      "It": 1252,
      "ield": 1253,
      "Ġdist": 1254,
      "ething": 1255,
      "ute": 1256,
      "Ġfriend": 1257,
      "alk": 1258,
      "Ġve": 1259,
      "Ġconf": 1260,
      "be": 1261,
      "Ġonline": 1262,
      "Ġclass": 1263,
      "ished": 1264,
      "Ġsay": 1265,
      "Ġproper": 1266,
      "Ġquest": 1267,
      "ery": 1268,
      "els": 1269,
      "Ġpass": 1270,
      "Ġconc": 1271,
      "Ġcontin": 1272,
      "Ġstate": 1273,
      "Ġlevel": 1274,
      "Ġable": 1275,
      "man": 1276,
      "Ġtry": 1277,
      "Ġgroup": 1278,
      "Ġarea": 1279,
      "Ġbra": 1280,
      "ling": 1281,
      "Ġproble": 1282,
      "If": 1283,
      "ients": 1284,
      "ĠHow": 1285,
      "ier": 1286,
      "reen": 1287,
      "orts": 1288,
      "Ġincre": 1289,
      "Ġnext": 1290,
      "ploy": 1291,
      "Ġspecial": 1292,
      "con": 1293,
      "Ġwebs": 1294,
      "ention": 1295,
      "ared": 1296,
      "Ġput": 1297,
      "ĠCom": 1298,
      "oney": 1299,
      "Ġlight": 1300,
      "ock": 1301,
      "Ġsomething": 1302,
      "Ġgive": 1303,
      "ĠPl": 1304,
      "au": 1305,
      "ately": 1306,
      "ĠBe": 1307,
      "Ġaccess": 1308,
      "Ġopp": 1309,
      "Ġtri": 1310,
      "ertain": 1311,
      "meric": 1312,
      "Ġwithin": 1313,
      "ien": 1314,
      "uss": 1315,
      "att": 1316,
      "ccess": 1317,
      "Ġmight": 1318,
      "Ġanother": 1319,
      "dition": 1320,
      "me": 1321,
      "ral": 1322,
      "ĠTe": 1323,
      "ames": 1324,
      "Ġblo": 1325,
      "Ġhard": 1326,
      "Ġbig": 1327,
      "Ġmus": 1328,
      "ential": 1329,
      "Ġorder": 1330,
      "Ġquality": 1331,
      "Ġinf": 1332,
      "Ġwr": 1333,
      "Ġsecond": 1334,
      "vern": 1335,
      "Ġlet": 1336,
      "Ġeng": 1337,
      "ps": 1338,
      "Ġgrow": 1339,
      "Ġcurrent": 1340,
      "Ġsince": 1341,
      "Ġi": 1342,
      "ruct": 1343,
      "Ġinvest": 1344,
      "Ġdirect": 1345,
      "ortun": 1346,
      "ards": 1347,
      "oot": 1348,
      "load": 1349,
      "Ġpower": 1350,
      "Ġbook": 1351,
      "ffic": 1352,
      "pend": 1353,
      "Ġrese": 1354,
      "Ġroom": 1355,
      "ior": 1356,
      "Ġhead": 1357,
      "Ġoper": 1358,
      "Ġphot": 1359,
      "rol": 1360,
      "ĠOn": 1361,
      "Ġest": 1362,
      "Ġprofess": 1363,
      "ĠInd": 1364,
      "ĠEx": 1365,
      "Ġaddition": 1366,
      "Ġdi": 1367,
      "Ġcr": 1368,
      "rence": 1369,
      "Ġless": 1370,
      "eng": 1371,
      "joy": 1372,
      "ours": 1373,
      "Ġold": 1374,
      "Ġtest": 1375,
      "Ġequ": 1376,
      "Ġweek": 1377,
      "rist": 1378,
      "Ġoffer": 1379,
      "Ġdays": 1380,
      "Ġgl": 1381,
      "ivid": 1382,
      "ration": 1383,
      "ision": 1384,
      "Ġvisit": 1385,
      "Ġjo": 1386,
      "orn": 1387,
      "Ġworking": 1388,
      "ĠAmeric": 1389,
      "Ġsit": 1390,
      "Ġapplic": 1391,
      "Ġnever": 1392,
      "ĠAll": 1393,
      "Ġview": 1394,
      "Ġbro": 1395,
      "ted": 1396,
      "Ġsite": 1397,
      "ateg": 1398,
      "ĠQ": 1399,
      "ium": 1400,
      "Ġmeet": 1401,
      "Ġgame": 1402,
      "oss": 1403,
      "Ġproducts": 1404,
      "ense": 1405,
      "Ġtoday": 1406,
      "Ġ'": 1407,
      "Ġfood": 1408,
      "iversity": 1409,
      "Ġgot": 1410,
      "here": 1411,
      "ĠSp": 1412,
      "ĠShe": 1413,
      "Ġ20": 1414,
      "gin": 1415,
      "Ġbre": 1416,
      "ote": 1417,
      "Ġpract": 1418,
      "Ġlooking": 1419,
      "Ġpresent": 1420,
      "ases": 1421,
      "iron": 1422,
      "Ġfac": 1423,
      "Ġpublic": 1424,
      "Ġintern": 1425,
      "Ġel": 1426,
      "Ġlocal": 1427,
      "ems": 1428,
      "Ġgr": 1429,
      "ified": 1430,
      "Ġprote": 1431,
      "ĠâĢĺ": 1432,
      "ains": 1433,
      "room": 1434,
      "Ġstudents": 1435,
      "Ġmaking": 1436,
      "Ġ12": 1437,
      "Ġlarge": 1438,
      "!!": 1439,
      "Ġprom": 1440,
      "Ġneeds": 1441,
      "ĠSc": 1442,
      "Ġprev": 1443,
      "agement": 1444,
      "Ġunderstand": 1445,
      "ently": 1446,
      "Ġpop": 1447,
      "Ġwebsite": 1448,
      "ats": 1449,
      "ator": 1450,
      "ĠIs": 1451,
      "ump": 1452,
      "Ġmet": 1453,
      "pping": 1454,
      "Ġindust": 1455,
      "Ġsal": 1456,
      "Ġbuy": 1457,
      "You": 1458,
      "ird": 1459,
      "ability": 1460,
      "cing": 1461,
      "Ġeffect": 1462,
      "Ġcheck": 1463,
      "ieve": 1464,
      "por": 1465,
      "Ġproject": 1466,
      "pos": 1467,
      "Ġcap": 1468,
      "Ġimpro": 1469,
      "ised": 1470,
      "Ġca": 1471,
      "Ġcomplete": 1472,
      "orm": 1473,
      "ER": 1474,
      "lection": 1475,
      "Ġchildren": 1476,
      "Ġwin": 1477,
      "Ġconst": 1478,
      ".\"": 1479,
      "Ġproduct": 1480,
      "Ġfr": 1481,
      "ax": 1482,
      "Ġchange": 1483,
      "inal": 1484,
      "Ġunt": 1485,
      "aterial": 1486,
      "Ġair": 1487,
      "Ġmoney": 1488,
      "ism": 1489,
      "ĠZ": 1490,
      "Ġchang": 1491,
      "ron": 1492,
      "Ġevent": 1493,
      "illion": 1494,
      "Ġeasy": 1495,
      "atter": 1496,
      "Ġactiv": 1497,
      "ĠTo": 1498,
      "ider": 1499,
      "ify": 1500,
      "Ġenjoy": 1501,
      "port": 1502,
      "Ġsuccess": 1503,
      "Ġtru": 1504,
      "ission": 1505,
      "ĠCon": 1506,
      "Ġcreat": 1507,
      "Ġcourse": 1508,
      "Ġbas": 1509,
      "Ġlearn": 1510,
      "ĠPh": 1511,
      "ample": 1512,
      "outh": 1513,
      "Ġcase": 1514,
      "Ġconne": 1515,
      "ills": 1516,
      "cl": 1517,
      "ique": 1518,
      "ope": 1519,
      "Ġdev": 1520,
      "the": 1521,
      "Ġann": 1522,
      "tend": 1523,
      "Ġlaw": 1524,
      "ably": 1525,
      "Ġ18": 1526,
      "ization": 1527,
      ".,": 1528,
      "Ġreport": 1529,
      "50": 1530,
      "ode": 1531,
      "ann": 1532,
      "Ġterm": 1533,
      "ĠFr": 1534,
      "Ġhouse": 1535,
      "Ġturn": 1536,
      "bo": 1537,
      "Ġemploy": 1538,
      "10": 1539,
      "ocus": 1540,
      "tain": 1541,
      "ĠCol": 1542,
      "itions": 1543,
      "of": 1544,
      "ott": 1545,
      "Ġpar": 1546,
      "Ġalong": 1547,
      "Ġaway": 1548,
      "work": 1549,
      "ids": 1550,
      "Ġdem": 1551,
      "ĠUS": 1552,
      "ĠAt": 1553,
      "ret": 1554,
      "ush": 1555,
      "gether": 1556,
      "Ġtogether": 1557,
      "Ġpossible": 1558,
      "Ġbene": 1559,
      "ury": 1560,
      "Ġoften": 1561,
      "ered": 1562,
      "Ġpa": 1563,
      "ĠWith": 1564,
      "Ġtreat": 1565,
      "Ġdetail": 1566,
      "aster": 1567,
      "Ġpain": 1568,
      "Ġleg": 1569,
      "med": 1570,
      "Ġbeaut": 1571,
      "Ġuntil": 1572,
      "utes": 1573,
      "Ġname": 1574,
      "Ġsing": 1575,
      "aring": 1576,
      "pped": 1577,
      "lish": 1578,
      "ries": 1579,
      "Ġaccount": 1580,
      "Ġbased": 1581,
      "icle": 1582,
      "ember": 1583,
      "ern": 1584,
      "let": 1585,
      "Ġindivid": 1586,
      "As": 1587,
      "ows": 1588,
      "ex": 1589,
      "Ġcreate": 1590,
      "Ġmaterial": 1591,
      "Ġhum": 1592,
      "ina": 1593,
      "ogra": 1594,
      "ĠBl": 1595,
      "Ġcontact": 1596,
      "ĠJo": 1597,
      "ream": 1598,
      "Ġhist": 1599,
      "Ġbeh": 1600,
      "ising": 1601,
      "ĠMan": 1602,
      "ories": 1603,
      "part": 1604,
      "Ġpersonal": 1605,
      "Ġdra": 1606,
      "Ġwhy": 1607,
      "Ġvide": 1608,
      "iven": 1609,
      "Ġtimes": 1610,
      "itive": 1611,
      "min": 1612,
      "Ġcommunity": 1613,
      "cent": 1614,
      "Ġpot": 1615,
      "Ġresearch": 1616,
      "ĠRes": 1617,
      "Ġhaving": 1618,
      "Ġinclude": 1619,
      "Ġbenef": 1620,
      "soci": 1621,
      "olution": 1622,
      "Ġperfect": 1623,
      "fer": 1624,
      "ĠChrist": 1625,
      "Ġpast": 1626,
      "viron": 1627,
      "ĠOr": 1628,
      "Ġla": 1629,
      "Ġagainst": 1630,
      "Ġkind": 1631,
      "Ġfour": 1632,
      "Ġask": 1633,
      "ken": 1634,
      "Ġside": 1635,
      "Ġworks": 1636,
      "Ġmar": 1637,
      "Ġwrit": 1638,
      "atures": 1639,
      "yle": 1640,
      "side": 1641,
      "Ġelect": 1642,
      "Ġsoft": 1643,
      "arent": 1644,
      "Ġ0": 1645,
      "ffe": 1646,
      "ĠWhen": 1647,
      "Ġindividual": 1648,
      ",âĢĿ": 1649,
      "ĠThat": 1650,
      "Ġrecord": 1651,
      "Ġfocus": 1652,
      "ĠCent": 1653,
      "ger": 1654,
      "Ġexpect": 1655,
      "ived": 1656,
      "lement": 1657,
      "pecial": 1658,
      "ination": 1659,
      "Ġcontrol": 1660,
      "ding": 1661,
      "Ġrequire": 1662,
      "hor": 1663,
      "Ġbecome": 1664,
      "Ġthing": 1665,
      "ĠComm": 1666,
      "ead": 1667,
      "Ġopportun": 1668,
      "ĠCan": 1669,
      "Ġmove": 1670,
      "Ġline": 1671,
      "ley": 1672,
      "ency": 1673,
      "aking": 1674,
      "ured": 1675,
      "Ġsw": 1676,
      "Ġspecific": 1677,
      "Ġgovern": 1678,
      "Ġmakes": 1679,
      "cu": 1680,
      "Ġdone": 1681,
      "Ġmult": 1682,
      "âĢľ": 1683,
      "Ġsever": 1684,
      "Ġwom": 1685,
      "br": 1686,
      "Ġtem": 1687,
      "ney": 1688,
      "Ġprice": 1689,
      "jor": 1690,
      "Ġmeans": 1691,
      "Ġnight": 1692,
      "Ġclo": 1693,
      "Ġmembers": 1694,
      "Ġdevelopment": 1695,
      "Ġes": 1696,
      "ik": 1697,
      "Ġlim": 1698,
      "ĠGod": 1699,
      "oice": 1700,
      "ĠOur": 1701,
      "uro": 1702,
      "ready": 1703,
      "Ġtre": 1704,
      "uck": 1705,
      "Ġword": 1706,
      "Ġcou": 1707,
      "Ġens": 1708,
      "ands": 1709,
      "Ġshort": 1710,
      "Ġreview": 1711,
      "Ġcertain": 1712,
      "iting": 1713,
      "ane": 1714,
      "Ġpage": 1715,
      "Ġocc": 1716,
      "lling": 1717,
      "Ġnon": 1718,
      "Ġnet": 1719,
      "Ġcomes": 1720,
      "Ġlow": 1721,
      "Ġquick": 1722,
      "Ġothers": 1723,
      "Ġsocial": 1724,
      "ee": 1725,
      "Ġenough": 1726,
      "Ġeduc": 1727,
      "Ġseveral": 1728,
      "Ġclean": 1729,
      "Ġhot": 1730,
      "Ġlive": 1731,
      "Ġbody": 1732,
      "ĠâĢĶ": 1733,
      "uture": 1734,
      "Ġvari": 1735,
      "ĠWhat": 1736,
      "Ġsol": 1737,
      "Ġ15": 1738,
      "Ġjob": 1739,
      "Ġet": 1740,
      "IN": 1741,
      "oring": 1742,
      "ript": 1743,
      "anies": 1744,
      "Ġfund": 1745,
      "ĠCo": 1746,
      "oint": 1747,
      "Ġce": 1748,
      "Ġalready": 1749,
      "Ġfav": 1750,
      "ĠTr": 1751,
      "Ġacross": 1752,
      "Ġleft": 1753,
      "aff": 1754,
      "vironment": 1755,
      "Ġtyp": 1756,
      "ĠUniversity": 1757,
      "Ġspace": 1758,
      "ĠThese": 1759,
      "Ġ30": 1760,
      "ĠEng": 1761,
      "Ġmusic": 1762,
      "20": 1763,
      "by": 1764,
      "Ġvers": 1765,
      "Ġkey": 1766,
      "itc": 1767,
      "Ġpurch": 1768,
      "Ġtool": 1769,
      "Ġever": 1770,
      "ots": 1771,
      "ĠNo": 1772,
      "aim": 1773,
      "Ġgetting": 1774,
      "Ġredu": 1775,
      "conom": 1776,
      "rop": 1777,
      "anks": 1778,
      "Ġpack": 1779,
      "urs": 1780,
      "Ġbit": 1781,
      "Ġhig": 1782,
      "Ġmind": 1783,
      "Ġcountry": 1784,
      "ances": 1785,
      "Ġinstall": 1786,
      "Ġanal": 1787,
      "Ġhold": 1788,
      "ither": 1789,
      "Ġcover": 1790,
      "Ġshare": 1791,
      "Ġmajor": 1792,
      "Ġdeal": 1793,
      "urther": 1794,
      "âĢĶ": 1795,
      "inc": 1796,
      "Ġbelow": 1797,
      "Ġrange": 1798,
      "ides": 1799,
      "Ġparticular": 1800,
      "Ġfore": 1801,
      "urity": 1802,
      "ethod": 1803,
      "alf": 1804,
      "30": 1805,
      "ged": 1806,
      "Ġexample": 1807,
      "Ġfar": 1808,
      "ommend": 1809,
      "Ġoffers": 1810,
      "ording": 1811,
      "ĠMar": 1812,
      "jects": 1813,
      "Ġorig": 1814,
      "Ġfuture": 1815,
      "ully": 1816,
      "Ġexpl": 1817,
      "What": 1818,
      "ift": 1819,
      "Ġdoing": 1820,
      "Ġcompet": 1821,
      "Ġmean": 1822,
      "Ġindustry": 1823,
      "ĠMy": 1824,
      "oose": 1825,
      "Ġcomb": 1826,
      "wards": 1827,
      "iful": 1828,
      "Ġstep": 1829,
      "ribut": 1830,
      "Ġcity": 1831,
      "Ġboo": 1832,
      "Ġdeli": 1833,
      "Ġwind": 1834,
      "For": 1835,
      "Ġinvol": 1836,
      "lf": 1837,
      "Ġbring": 1838,
      "Ġcompanies": 1839,
      "Ġcamp": 1840,
      "ograph": 1841,
      "Ġseason": 1842,
      "Ġvalue": 1843,
      "Ġhours": 1844,
      "Ġleast": 1845,
      "Ġident": 1846,
      "Ġpriv": 1847,
      "par": 1848,
      "Ġstudy": 1849,
      "Ġ11": 1850,
      "Ġstory": 1851,
      "ilities": 1852,
      "atic": 1853,
      "Ġcalled": 1854,
      "ctor": 1855,
      "ilt": 1856,
      "Ġonce": 1857,
      "Ġreturn": 1858,
      "ON": 1859,
      "ĠAm": 1860,
      "Ġactually": 1861,
      "Ġproblem": 1862,
      "err": 1863,
      "Ġbed": 1864,
      "Ġrecommend": 1865,
      "most": 1866,
      "ES": 1867,
      "ĠSu": 1868,
      "ĠDo": 1869,
      "Ġstarted": 1870,
      "rodu": 1871,
      "ai": 1872,
      "aces": 1873,
      "urance": 1874,
      "Ġ2018": 1875,
      "Ġreason": 1876,
      "AT": 1877,
      "He": 1878,
      "Ġcustomers": 1879,
      "ster": 1880,
      "cle": 1881,
      "Ġess": 1882,
      "Ġfeatures": 1883,
      "osed": 1884,
      "Ġamount": 1885,
      "ners": 1886,
      "Ġaddress": 1887,
      "cell": 1888,
      "ĠCar": 1889,
      "Ġbrand": 1890,
      "ape": 1891,
      "Ġpict": 1892,
      "Ġris": 1893,
      "There": 1894,
      "Ġmil": 1895,
      "iod": 1896,
      "Ġfriends": 1897,
      "Ġemail": 1898,
      "Ġcut": 1899,
      "light": 1900,
      "ones": 1901,
      "Ġsum": 1902,
      "ĠApp": 1903,
      "Ġresults": 1904,
      "Ġpie": 1905,
      "Ġminutes": 1906,
      "Ġport": 1907,
      "bal": 1908,
      "ĠHowever": 1909,
      "19": 1910,
      "enn": 1911,
      "Ġfield": 1912,
      "Ġabove": 1913,
      "Ġrespons": 1914,
      "fort": 1915,
      "Ġstrong": 1916,
      "Ġdidn": 1917,
      "Ġchall": 1918,
      "ference": 1919,
      "Ġtechnology": 1920,
      "ancial": 1921,
      "ford": 1922,
      "Ġvol": 1923,
      "resent": 1924,
      "ource": 1925,
      "Ġexc": 1926,
      "go": 1927,
      "Ġmethod": 1928,
      "ĠRo": 1929,
      "Ġclose": 1930,
      "Ġoffic": 1931,
      "Ġsuper": 1932,
      "Ġcharact": 1933,
      "Ġdr": 1934,
      "Ġcontent": 1935,
      "ply": 1936,
      "atural": 1937,
      "Ġprofessional": 1938,
      "Ġbegin": 1939,
      "Ġenvironment": 1940,
      "Ġdiscuss": 1941,
      "Ġvideo": 1942,
      "ĠTra": 1943,
      "Ġwa": 1944,
      "ino": 1945,
      "Ġste": 1946,
      "Ġbuilding": 1947,
      "Ġplease": 1948,
      "ources": 1949,
      "ledge": 1950,
      "ĠIntern": 1951,
      "arning": 1952,
      "Ġz": 1953,
      "Ġdoesn": 1954,
      "app": 1955,
      "sh": 1956,
      "ĠMay": 1957,
      "Ġprovides": 1958,
      "Ġsearch": 1959,
      "not": 1960,
      "fact": 1961,
      "Ġtype": 1962,
      "Ġtax": 1963,
      "hn": 1964,
      "Ġeverything": 1965,
      "ulation": 1966,
      "Ġmonths": 1967,
      "lished": 1968,
      "Ġheart": 1969,
      "AN": 1970,
      "Ġstay": 1971,
      "Ġenc": 1972,
      "AR": 1973,
      "Ġflo": 1974,
      "Ġquestions": 1975,
      "ĠServ": 1976,
      "over": 1977,
      "Ġmom": 1978,
      "Ġtot": 1979,
      "Ġknown": 1980,
      "Ġgiven": 1981,
      "Ġrele": 1982,
      "ĠX": 1983,
      "osp": 1984,
      "ĠComp": 1985,
      "ĠSy": 1986,
      "St": 1987,
      "Ġmen": 1988,
      "Ġsound": 1989,
      "Ġcra": 1990,
      "Ġwon": 1991,
      "sw": 1992,
      "Ġweb": 1993,
      "Ġearly": 1994,
      "Ġyoung": 1995,
      "icy": 1996,
      "ĠWor": 1997,
      "Ġdownload": 1998,
      "idd": 1999,
      "ister": 2000,
      "ergy": 2001,
      "Ġyet": 2002,
      "Ġproperty": 2003,
      "unch": 2004,
      "ĠPr": 2005,
      "ips": 2006,
      "ians": 2007,
      "Ġwond": 2008,
      "ĠInst": 2009,
      "Ġmillion": 2010,
      "crib": 2011,
      "Ġsimple": 2012,
      "cks": 2013,
      "Ġmot": 2014,
      "Ġcred": 2015,
      "Ġtraining": 2016,
      "Ġthought": 2017,
      "Ġmanagement": 2018,
      "ental": 2019,
      "cted": 2020,
      "Ġgovernment": 2021,
      "Ġtravel": 2022,
      "pecially": 2023,
      "Ġey": 2024,
      "Ġcame": 2025,
      "une": 2026,
      "Ġimprove": 2027,
      "ches": 2028,
      "An": 2029,
      "Ġcard": 2030,
      "Ġ199": 2031,
      "hers": 2032,
      "Ġsingle": 2033,
      "Ġeconom": 2034,
      "Ġvarious": 2035,
      "Ġissues": 2036,
      "Ġcal": 2037,
      "ges": 2038,
      ",\"": 2039,
      "Ġareas": 2040,
      "ibility": 2041,
      "Ġ100": 2042,
      "ĠFl": 2043,
      "resh": 2044,
      "Ġappear": 2045,
      "ĠMed": 2046,
      "Ġdue": 2047,
      "Ġrepl": 2048,
      "Ġconsider": 2049,
      "mber": 2050,
      "ring": 2051,
      "uff": 2052,
      "Ġhope": 2053,
      "Ġbar": 2054,
      "Ġbeautiful": 2055,
      "Ġpress": 2056,
      "Ġant": 2057,
      "Ġrequired": 2058,
      "Ġfollowing": 2059,
      "ĠGu": 2060,
      "ww": 2061,
      "ĠEn": 2062,
      "Ġtook": 2063,
      "Ġperiod": 2064,
      "When": 2065,
      "irm": 2066,
      "illed": 2067,
      "Ġcult": 2068,
      "Ġupd": 2069,
      "ensive": 2070,
      "wh": 2071,
      "Ġnews": 2072,
      "Ġcomput": 2073,
      "Ġhappen": 2074,
      "Ġsays": 2075,
      "asing": 2076,
      "ĠOne": 2077,
      "fully": 2078,
      "Ġsize": 2079,
      "rap": 2080,
      "ĠÂ": 2081,
      "How": 2082,
      "Ġwhether": 2083,
      "ĠEuro": 2084,
      "ored": 2085,
      "Ġwhole": 2086,
      "eral": 2087,
      "Ġunique": 2088,
      "iday": 2089,
      "Ġdiff": 2090,
      "omes": 2091,
      "Ġexperien": 2092,
      "tt": 2093,
      "Ġlater": 2094,
      "Ġenergy": 2095,
      "Ġele": 2096,
      "Ġcommon": 2097,
      "ogn": 2098,
      "book": 2099,
      "201": 2100,
      "Ġmess": 2101,
      "Ġtell": 2102,
      "abor": 2103,
      "Ġmanag": 2104,
      "Ġ,": 2105,
      "On": 2106,
      "Ġexam": 2107,
      "augh": 2108,
      "Ġstrateg": 2109,
      "acy": 2110,
      "Ġliving": 2111,
      "ĠCont": 2112,
      "Ġperformance": 2113,
      "idence": 2114,
      "Ġtable": 2115,
      "aps": 2116,
      "Ġtaking": 2117,
      "ony": 2118,
      "Ġidea": 2119,
      "cript": 2120,
      "vert": 2121,
      "ufact": 2122,
      "ĠAmerican": 2123,
      "ume": 2124,
      "Ġfurther": 2125,
      "Ġaud": 2126,
      "ruction": 2127,
      "ung": 2128,
      "Ġtas": 2129,
      "Ġparticip": 2130,
      "ler": 2131,
      "Ġstaff": 2132,
      "Ġmedia": 2133,
      "Ġdig": 2134,
      "Ġselect": 2135,
      "Ġphys": 2136,
      "though": 2137,
      "Ġmeas": 2138,
      "Ġamong": 2139,
      "Ġ16": 2140,
      "Ġprob": 2141,
      "play": 2142,
      "ests": 2143,
      "OR": 2144,
      "Ġrelations": 2145,
      "Ġtal": 2146,
      "Ġpercent": 2147,
      "Ġfront": 2148,
      "Ġassist": 2149,
      "urch": 2150,
      "Ġauthor": 2151,
      "astic": 2152,
      "cer": 2153,
      "xim": 2154,
      "Ġnear": 2155,
      "gr": 2156,
      "Ġhuman": 2157,
      "12": 2158,
      "Ġseen": 2159,
      "Ġeffective": 2160,
      "Ġfre": 2161,
      "ĠSte": 2162,
      "Ġeither": 2163,
      "Ġdesigned": 2164,
      "ched": 2165,
      "Ġsomeone": 2166,
      "mb": 2167,
      "lex": 2168,
      "Ġchoose": 2169,
      "Ġsn": 2170,
      "ĠChe": 2171,
      "icult": 2172,
      "Ġwall": 2173,
      "Ġensure": 2174,
      "reet": 2175,
      "Ġprint": 2176,
      "ites": 2177,
      "Ġage": 2178,
      "Ġpotential": 2179,
      "Ġclaim": 2180,
      "Ġoffice": 2181,
      "Ġnecess": 2182,
      "Ġcustomer": 2183,
      "rict": 2184,
      "Ġwent": 2185,
      "Ġprovided": 2186,
      "lege": 2187,
      "ĠFe": 2188,
      "Ġeff": 2189,
      "irt": 2190,
      "Ġ14": 2191,
      "Ġwomen": 2192,
      "ided": 2193,
      "Ġdocu": 2194,
      "aur": 2195,
      "che": 2196,
      "Ġneeded": 2197,
      "son": 2198,
      "Ġdam": 2199,
      "Ġfive": 2200,
      "Ġentire": 2201,
      "ĠNe": 2202,
      "Ġquite": 2203,
      "Ġach": 2204,
      "selves": 2205,
      "ĠBo": 2206,
      "Ġbelieve": 2207,
      "Ġextra": 2208,
      "Ġcond": 2209,
      "nam": 2210,
      "ĠDes": 2211,
      "Ġtext": 2212,
      "Ġoil": 2213,
      "Ġhost": 2214,
      "Ġincludes": 2215,
      "Ġsignific": 2216,
      "Ġhistory": 2217,
      "ĠRep": 2218,
      "hing": 2219,
      "Ġwide": 2220,
      "ication": 2221,
      "itted": 2222,
      "af": 2223,
      "Ġmag": 2224,
      "Ġoptions": 2225,
      "Ġengine": 2226,
      "Ġfunction": 2227,
      "Ġprep": 2228,
      "Ġsimply": 2229,
      "Ġfinancial": 2230,
      "Ġespecially": 2231,
      "iously": 2232,
      "Ġtour": 2233,
      "come": 2234,
      "ilar": 2235,
      "Ġquestion": 2236,
      "Ġbreak": 2237,
      "ables": 2238,
      "ĠUnited": 2239,
      "ĠYour": 2240,
      "rew": 2241,
      "Ġmach": 2242,
      "Ġsoftware": 2243,
      "ification": 2244,
      "yl": 2245,
      "Ġseries": 2246,
      "pro": 2247,
      "imate": 2248,
      "Ġglo": 2249,
      "Ġsugg": 2250,
      "gle": 2251,
      "ĠEurope": 2252,
      "Ġland": 2253,
      "Ġcomfort": 2254,
      "nov": 2255,
      "Ġyourself": 2256,
      "Ġsystems": 2257,
      "ators": 2258,
      "gs": 2259,
      "ued": 2260,
      "Ġcell": 2261,
      "Ġfavor": 2262,
      "So": 2263,
      "inking": 2264,
      "arr": 2265,
      "Ġ24": 2266,
      "ained": 2267,
      "Ġspend": 2268,
      "aching": 2269,
      "Ġexist": 2270,
      "Ġeveryone": 2271,
      "Ġface": 2272,
      "Ġknowledge": 2273,
      "Ġnatural": 2274,
      "ĠCity": 2275,
      "ires": 2276,
      "Ġwriting": 2277,
      "Ġinit": 2278,
      "ED": 2279,
      "Ġclear": 2280,
      "gest": 2281,
      "Ġsitu": 2282,
      "Ġparent": 2283,
      "Ġ/": 2284,
      "Ġetc": 2285,
      "ili": 2286,
      "Ġdifficult": 2287,
      "Ġ2017": 2288,
      "Ġapplication": 2289,
      "azing": 2290,
      "Ġfall": 2291,
      "ĠCount": 2292,
      "Ġevents": 2293,
      "ises": 2294,
      "Ġproblems": 2295,
      "Ġideas": 2296,
      "Ġways": 2297,
      "Ġmiss": 2298,
      "roll": 2299,
      "Ġgames": 2300,
      "AS": 2301,
      "Ġcir": 2302,
      "Ġanything": 2303,
      "Ġmoder": 2304,
      "ls": 2305,
      "Ġself": 2306,
      "ops": 2307,
      "Ġpopular": 2308,
      "Ġstyle": 2309,
      "Ġrepresent": 2310,
      "Ġhalf": 2311,
      "ĠMe": 2312,
      "Ġcolor": 2313,
      "ĠJohn": 2314,
      "Ġwhite": 2315,
      "Ġdeterm": 2316,
      "Ġalmost": 2317,
      "Ġclients": 2318,
      "itchen": 2319,
      "Ġmodel": 2320,
      "Ġphone": 2321,
      "ĠCal": 2322,
      "Ġlikely": 2323,
      "ille": 2324,
      "ief": 2325,
      "gra": 2326,
      "iver": 2327,
      "Ġadded": 2328,
      "Ġveh": 2329,
      "Ġansw": 2330,
      "ĠAfter": 2331,
      "ze": 2332,
      "Ġdou": 2333,
      "Ġsoon": 2334,
      "back": 2335,
      "âĢĵ": 2336,
      "Ġpaper": 2337,
      "Ġmor": 2338,
      "Ġpan": 2339,
      "Ġhowever": 2340,
      "Ġblack": 2341,
      "face": 2342,
      "Ġhy": 2343,
      "Ġthird": 2344,
      "Ġposition": 2345,
      "Ġabs": 2346,
      "Ġdetails": 2347,
      "angu": 2348,
      "Ġwatch": 2349,
      "11": 2350,
      "ball": 2351,
      "Ġ25": 2352,
      "ĠAust": 2353,
      "Ġregard": 2354,
      "Ġ13": 2355,
      "do": 2356,
      "EN": 2357,
      "ĠSouth": 2358,
      "Ġimpact": 2359,
      "Ġtaken": 2360,
      "ĠMin": 2361,
      "Ġdeb": 2362,
      "Ġseem": 2363,
      "Ġcrit": 2364,
      "ibr": 2365,
      "IS": 2366,
      "ux": 2367,
      "Ġreceive": 2368,
      "pper": 2369,
      "Ġ50": 2370,
      "Ġsignificant": 2371,
      "Ġmanufact": 2372,
      "itch": 2373,
      "olutions": 2374,
      "Ġ17": 2375,
      "Ġpick": 2376,
      "To": 2377,
      "ĠSchool": 2378,
      "anced": 2379,
      "Ġfoot": 2380,
      "Ġsecurity": 2381,
      "Ġthroughout": 2382,
      "Ġsend": 2383,
      "IT": 2384,
      "Ġchanges": 2385,
      "Ġcreated": 2386,
      "vent": 2387,
      "Ġforward": 2388,
      "umb": 2389,
      "Ġred": 2390,
      "Ġroad": 2391,
      "Ġconsum": 2392,
      "oid": 2393,
      "Ġbox": 2394,
      "ees": 2395,
      "Ġagree": 2396,
      "Ġfail": 2397,
      "atur": 2398,
      "Ġrelationship": 2399,
      "Ġincrease": 2400,
      "Ġautom": 2401,
      "Ġlearning": 2402,
      "new": 2403,
      "Ġsho": 2404,
      "Ġinsurance": 2405,
      "Ġfeature": 2406,
      "Ġaccept": 2407,
      "ĠState": 2408,
      "Ġready": 2409,
      ".âĢĿ": 2410,
      "Ġopportunity": 2411,
      "Ġassoci": 2412,
      "Ġ[": 2413,
      "Ġissue": 2414,
      "Ġago": 2415,
      "Ġstruct": 2416,
      "ipment": 2417,
      "Ġcoll": 2418,
      "??": 2419,
      "Ġsafe": 2420,
      "ok": 2421,
      "ĠNorth": 2422,
      "Ġrisk": 2423,
      "Ġfit": 2424,
      "Ġlink": 2425,
      "Ġtreatment": 2426,
      "Ã©": 2427,
      "time": 2428,
      "elt": 2429,
      "Ġwonder": 2430,
      "Ġlay": 2431,
      "Ġtrack": 2432,
      "Ġdepend": 2433,
      "val": 2434,
      "Ġestab": 2435,
      "Ġdefin": 2436,
      "rown": 2437,
      "Ġfast": 2438,
      "etimes": 2439,
      "Ġlocated": 2440,
      "uge": 2441,
      "iple": 2442,
      "Ġstra": 2443,
      "ights": 2444,
      "Ġusers": 2445,
      "where": 2446,
      "Ġuser": 2447,
      "ĠNational": 2448,
      "ison": 2449,
      "Ġrather": 2450,
      "Ġbad": 2451,
      "Ġparty": 2452,
      "verage": 2453,
      "ĠBr": 2454,
      "Ġlat": 2455,
      "ĠGra": 2456,
      "Ġtakes": 2457,
      "Ġtradition": 2458,
      "Ġ2019": 2459,
      "ried": 2460,
      "Our": 2461,
      "AL": 2462,
      "Ġmob": 2463,
      "opy": 2464,
      "Ġtou": 2465,
      "Ġdel": 2466,
      "reme": 2467,
      "Ġsales": 2468,
      "ĠIm": 2469,
      "Ġrate": 2470,
      "Ch": 2471,
      "ĠNot": 2472,
      "Ġtalk": 2473,
      "Ġpret": 2474,
      "Ġusually": 2475,
      "Ġwalk": 2476,
      "Ġmatter": 2477,
      "Ġeducation": 2478,
      "eter": 2479,
      "Ġregular": 2480,
      "Ġskills": 2481,
      "Ġwood": 2482,
      "icro": 2483,
      "Ġcoming": 2484,
      "Ġcontinue": 2485,
      "Ġfire": 2486,
      "Ġsent": 2487,
      "Ġdate": 2488,
      "Ġprobably": 2489,
      "Ġda": 2490,
      "Ġjour": 2491,
      "Ġ2016": 2492,
      "apt": 2493,
      "Ġadditional": 2494,
      "Ġskin": 2495,
      "Ġstore": 2496,
      "Ġelse": 2497,
      "oon": 2498,
      "Ġtrying": 2499,
      "Ġhigher": 2500,
      "Ġoutside": 2501,
      "Ġinsp": 2502,
      "Ġactivities": 2503,
      "arget": 2504,
      "ival": 2505,
      "Ġfilm": 2506,
      "Ġnice": 2507,
      "Ġinfl": 2508,
      "Ġhappy": 2509,
      "ĠGo": 2510,
      "Ġblog": 2511,
      "medi": 2512,
      "ules": 2513,
      "Ġpoints": 2514,
      "Ġpolit": 2515,
      "Ġsimilar": 2516,
      "IC": 2517,
      "istic": 2518,
      "Ġimage": 2519,
      "Ġrecogn": 2520,
      "itut": 2521,
      "Ġut": 2522,
      "Ġitems": 2523,
      "put": 2524,
      "used": 2525,
      "oura": 2526,
      "15": 2527,
      "Ġeasily": 2528,
      "Ġcorre": 2529,
      "atform": 2530,
      "Ġkids": 2531,
      "Ġcurrently": 2532,
      "Ġmember": 2533,
      "Ġcredit": 2534,
      "Ġwanted": 2535,
      "Ġfile": 2536,
      "Ġbott": 2537,
      "era": 2538,
      "Ġrole": 2539,
      "Ġstat": 2540,
      "Ġisn": 2541,
      "Ġattend": 2542,
      "Ġexcell": 2543,
      "Ġversion": 2544,
      "Ġprivate": 2545,
      "Ġcharacter": 2546,
      "Ġsle": 2547,
      "Ġpractice": 2548,
      "Ġoriginal": 2549,
      "inks": 2550,
      "airs": 2551,
      "Ġpretty": 2552,
      "Ġfinal": 2553,
      "AC": 2554,
      "ĠAg": 2555,
      "Ġprojects": 2556,
      "itting": 2557,
      "Ġreceived": 2558,
      "rie": 2559,
      "Ġbuilt": 2560,
      "Ġinside": 2561,
      "ĠYork": 2562,
      "head": 2563,
      "Ġswe": 2564,
      "Ġaction": 2565,
      "dd": 2566,
      "Ġtotal": 2567,
      "Ġvia": 2568,
      "Ġdrive": 2569,
      "Ġcannot": 2570,
      "Ġaccording": 2571,
      "Ġrunning": 2572,
      "ĠSec": 2573,
      "And": 2574,
      "izing": 2575,
      "Ġlonger": 2576,
      "itten": 2577,
      "ĠWorld": 2578,
      "Ġgrowth": 2579,
      "Ġeffic": 2580,
      "Ġchoice": 2581,
      "Ġhol": 2582,
      "minist": 2583,
      "itor": 2584,
      "ĠPart": 2585,
      "action": 2586,
      "idge": 2587,
      "Ġgeneral": 2588,
      "Ġstandard": 2589,
      "ĠQu": 2590,
      "Ġtrue": 2591,
      "Ġvariety": 2592,
      "Ġsuggest": 2593,
      "mit": 2594,
      "Ġexact": 2595,
      "aving": 2596,
      "empt": 2597,
      "ha": 2598,
      "hib": 2599,
      "ĠHis": 2600,
      "ada": 2601,
      "Ġapply": 2602,
      "Ġground": 2603,
      "Ġrespect": 2604,
      "ression": 2605,
      "Ġheld": 2606,
      "Ġcoun": 2607,
      "Ġoption": 2608,
      "ĠInc": 2609,
      "Ġprior": 2610,
      "Ġbase": 2611,
      "oud": 2612,
      "Ġamazing": 2613,
      "Ġallows": 2614,
      "Ġloss": 2615,
      "ĠJan": 2616,
      "ĠPe": 2617,
      "ĠApr": 2618,
      "Ġconcern": 2619,
      "Ġsave": 2620,
      "Ġmarketing": 2621,
      "Ġaf": 2622,
      "Ġcollect": 2623,
      "ĠSm": 2624,
      "Ġanim": 2625,
      "Ġworth": 2626,
      "ĠPer": 2627,
      "Ġshows": 2628,
      "aced": 2629,
      "ĠAf": 2630,
      "Ġsix": 2631,
      "ĠÐ": 2632,
      "Ġdeg": 2633,
      "Ġtold": 2634,
      "Ġleave": 2635,
      "Ġofficial": 2636,
      "Ġdom": 2637,
      "ĠPark": 2638,
      "Ġbehind": 2639,
      "Ġwords": 2640,
      "isc": 2641,
      "Ġmodern": 2642,
      "Ġbal": 2643,
      "Ġrequest": 2644,
      "Ġneg": 2645,
      "Ġtown": 2646,
      "Ġsens": 2647,
      "Ġhon": 2648,
      "Ġupon": 2649,
      "25": 2650,
      "pri": 2651,
      "Ġquickly": 2652,
      "Ġill": 2653,
      "ana": 2654,
      "Ġweeks": 2655,
      "ĠDr": 2656,
      "Ġcomputer": 2657,
      "Ġnetwork": 2658,
      "oogle": 2659,
      "Ġincluded": 2660,
      "Ġcool": 2661,
      "Ġrecent": 2662,
      "Ġmix": 2663,
      "Ġproduction": 2664,
      "RE": 2665,
      "aining": 2666,
      "Ġx": 2667,
      "Ġmaterials": 2668,
      "ground": 2669,
      "ĠTH": 2670,
      "erc": 2671,
      "Ġlocation": 2672,
      "Ġrelated": 2673,
      "Ġstop": 2674,
      "ĠSome": 2675,
      "Ġproviding": 2676,
      "aging": 2677,
      "Ġpatients": 2678,
      "ecut": 2679,
      "Ġrad": 2680,
      "Ġcode": 2681,
      "Ġcosts": 2682,
      "Ġintrodu": 2683,
      "Ġlatest": 2684,
      "Ġarticle": 2685,
      "reg": 2686,
      "Ġsun": 2687,
      "Ġannoun": 2688,
      "Ġreading": 2689,
      "Ġapproach": 2690,
      "ox": 2691,
      "ĠJust": 2692,
      "Ġemb": 2693,
      "ĠStud": 2694,
      "Ġmedical": 2695,
      "ceed": 2696,
      "Ġinde": 2697,
      "....": 2698,
      "wor": 2699,
      "ipe": 2700,
      "na": 2701,
      "ĠStates": 2702,
      "Ġteac": 2703,
      "Al": 2704,
      "Ġnecessary": 2705,
      "ublic": 2706,
      "Ġpurchase": 2707,
      "ming": 2708,
      "Ġshall": 2709,
      "iring": 2710,
      "ĠDep": 2711,
      "icles": 2712,
      "ysis": 2713,
      "Ġlangu": 2714,
      "ĠKe": 2715,
      "With": 2716,
      "ĠPar": 2717,
      "Ġmaintain": 2718,
      "atory": 2719,
      "Ġfram": 2720,
      "Ġbooks": 2721,
      "just": 2722,
      "Ġability": 2723,
      "arth": 2724,
      "Ġcele": 2725,
      "rs": 2726,
      "Ġsell": 2727,
      "Ġsat": 2728,
      "Ġcouple": 2729,
      "based": 2730,
      "18": 2731,
      "But": 2732,
      "Ġconditions": 2733,
      "Ġlit": 2734,
      "Ġprograms": 2735,
      "my": 2736,
      "Ġdisplay": 2737,
      "Ġinternational": 2738,
      "Ġworked": 2739,
      "Ġfeed": 2740,
      "ĠBy": 2741,
      "Ġbi": 2742,
      "Ġlower": 2743,
      "ĠTw": 2744,
      "ĠBar": 2745,
      "Ġplatform": 2746,
      "cil": 2747,
      "Ġstri": 2748,
      "akes": 2749,
      "Ġ2015": 2750,
      "Ġdest": 2751,
      "Ġterms": 2752,
      "Ġclick": 2753,
      "60": 2754,
      "Ġnorm": 2755,
      "Ġlooks": 2756,
      "Ġequipment": 2757,
      "Ġanyone": 2758,
      "Ġsaf": 2759,
      "Ġdraw": 2760,
      "Ġpolicy": 2761,
      "Ġparts": 2762,
      "Ġstock": 2763,
      "urg": 2764,
      "oph": 2765,
      "Ġprim": 2766,
      "ĠPres": 2767,
      "Ġlives": 2768,
      "ively": 2769,
      "Ġscreen": 2770,
      "ĠGe": 2771,
      "ham": 2772,
      "Ġseems": 2773,
      "ening": 2774,
      "ĠReg": 2775,
      "Ġflow": 2776,
      "Ġnothing": 2777,
      "Ġboard": 2778,
      "pose": 2779,
      "Ġ#": 2780,
      "Ġleaders": 2781,
      "Ġbath": 2782,
      "bor": 2783,
      "Ġtarget": 2784,
      "ĠCor": 2785,
      "Ġarri": 2786,
      "Ġsummer": 2787,
      "Ġrecently": 2788,
      "Ġcause": 2789,
      "ray": 2790,
      "ĠCenter": 2791,
      "Ġgen": 2792,
      "Ġtypes": 2793,
      "Ġfig": 2794,
      "erve": 2795,
      "iam": 2796,
      "Ġkitchen": 2797,
      "anc": 2798,
      "Ġcontract": 2799,
      "Ġchalleng": 2800,
      "Ġsolution": 2801,
      "ĠCounty": 2802,
      "adem": 2803,
      "ese": 2804,
      "ĠBra": 2805,
      "Ġbud": 2806,
      "Ġsche": 2807,
      "ĠBu": 2808,
      "Ġsong": 2809,
      "Ġdescrib": 2810,
      "Ġvi": 2811,
      "Ġweight": 2812,
      "orage": 2813,
      "Ġstudent": 2814,
      "Ġple": 2815,
      "Ġmov": 2816,
      "Ġdeep": 2817,
      "ĠHigh": 2818,
      "Ġhair": 2819,
      "Ġplant": 2820,
      "Ġmeeting": 2821,
      "Ġgoal": 2822,
      "Ġsubject": 2823,
      "Ġlevels": 2824,
      "ooking": 2825,
      "Ġfa": 2826,
      "Ġcam": 2827,
      "Ġones": 2828,
      "ĠUK": 2829,
      "ĠApril": 2830,
      "Ġrent": 2831,
      "Ġtools": 2832,
      "nds": 2833,
      "ters": 2834,
      "Ġfresh": 2835,
      "Ġsto": 2836,
      "//": 2837,
      "Ġhighly": 2838,
      "ĠNow": 2839,
      "Ġpers": 2840,
      "ĠWill": 2841,
      "Ġcollection": 2842,
      "Ġexpert": 2843,
      "Ġtit": 2844,
      "ĠPre": 2845,
      "ky": 2846,
      "mas": 2847,
      "Ġcy": 2848,
      "inary": 2849,
      "ĠPlease": 2850,
      "ĠWest": 2851,
      "Ġclos": 2852,
      "Ġsett": 2853,
      "Ġdoor": 2854,
      "ĠAustral": 2855,
      "irit": 2856,
      "Ġexcellent": 2857,
      "icated": 2858,
      "Ġtrust": 2859,
      "Ġcook": 2860,
      "Ġsqu": 2861,
      "Ġmoment": 2862,
      "Ġleading": 2863,
      "ached": 2864,
      "Ġasked": 2865,
      "Ġbenefits": 2866,
      "Ġmobile": 2867,
      "Ġfavorite": 2868,
      "Ġsepar": 2869,
      "nal": 2870,
      "Ġexplo": 2871,
      "Ġdevice": 2872,
      "Ġsale": 2873,
      "Ġsolutions": 2874,
      "sing": 2875,
      "iddle": 2876,
      "ension": 2877,
      "ĠAb": 2878,
      "Ġmass": 2879,
      "Ġcondition": 2880,
      "ĠAir": 2881,
      "Ġsense": 2882,
      "lier": 2883,
      "Ġinj": 2884,
      "Ġdecision": 2885,
      "Ġnational": 2886,
      "ples": 2887,
      "Ġcand": 2888,
      "Ġround": 2889,
      "Ġresources": 2890,
      "Ġinvolved": 2891,
      "iet": 2892,
      "Ġregist": 2893,
      "Ġspeed": 2894,
      "Ġspeak": 2895,
      "reng": 2896,
      "Ġplans": 2897,
      "Ġencoura": 2898,
      "40": 2899,
      "Ġarch": 2900,
      "Ġitself": 2901,
      "ĠMc": 2902,
      "ession": 2903,
      "earch": 2904,
      "aby": 2905,
      "irth": 2906,
      "Ġimmedi": 2907,
      "ĠOff": 2908,
      "Ġmatch": 2909,
      "Ġimplement": 2910,
      "Ġminim": 2911,
      "ĠDon": 2912,
      "Ġcommer": 2913,
      "Ġchance": 2914,
      "year": 2915,
      "Ġdigital": 2916,
      "Ġball": 2917,
      "ma": 2918,
      "Ġcases": 2919,
      "At": 2920,
      "like": 2921,
      "ffects": 2922,
      "ĠJu": 2923,
      "ĠEm": 2924,
      "Ġ198": 2925,
      "Ġrout": 2926,
      "sy": 2927,
      "Ġcountries": 2928,
      "Ġ40": 2929,
      "OT": 2930,
      "uary": 2931,
      "Re": 2932,
      "Ġ2014": 2933,
      "ological": 2934,
      "cription": 2935,
      "Ġinstead": 2936,
      "ivity": 2937,
      "ging": 2938,
      "Ġenter": 2939,
      "Ġsection": 2940,
      "Ġgives": 2941,
      "Ġsafety": 2942,
      "OS": 2943,
      "ĠWhile": 2944,
      "gu": 2945,
      "Ġobs": 2946,
      "Ġcas": 2947,
      "Ġhelps": 2948,
      "ĠMarch": 2949,
      "now": 2950,
      "\".": 2951,
      "ĠOct": 2952,
      "Ġdaily": 2953,
      "Ġgir": 2954,
      "ishing": 2955,
      "ĠWind": 2956,
      "Ġthemselves": 2957,
      "Ġmount": 2958,
      "Ġsmo": 2959,
      "Ġqual": 2960,
      "Ġlate": 2961,
      "Ġwrite": 2962,
      "Ġdirectly": 2963,
      "Ðµ": 2964,
      "ĠFin": 2965,
      "ĠSw": 2966,
      "Ġcareer": 2967,
      "Ġmorning": 2968,
      "My": 2969,
      "Ġhuge": 2970,
      "Ġsource": 2971,
      "itely": 2972,
      "arden": 2973,
      "Ġprotect": 2974,
      "Ġaverage": 2975,
      "Ġessential": 2976,
      "ĠVal": 2977,
      "ĠPol": 2978,
      "onst": 2979,
      "Ġmultiple": 2980,
      "arter": 2981,
      "Ġfix": 2982,
      "Ġimages": 2983,
      "Ġgiving": 2984,
      "Ġwritten": 2985,
      "16": 2986,
      "All": 2987,
      "hold": 2988,
      "Ġglobal": 2989,
      "://": 2990,
      "200": 2991,
      "cast": 2992,
      "Ġpiece": 2993,
      "Ġexcept": 2994,
      "Ġlegal": 2995,
      "Ġprices": 2996,
      "Ġcert": 2997,
      "ĠAct": 2998,
      "hood": 2999,
      "Ġtouch": 3000,
      "ĠArt": 3001,
      "âĢĿ.": 3002,
      "Ġrequirements": 3003,
      "Ġded": 3004,
      "Ġcenter": 3005,
      "Ġdocument": 3006,
      "dule": 3007,
      "Ġattention": 3008,
      "illing": 3009,
      "Ġlif": 3010,
      "Ġfully": 3011,
      "OU": 3012,
      "Ġrestaur": 3013,
      "Ġinnov": 3014,
      "wood": 3015,
      "ĠAut": 3016,
      "Ġsil": 3017,
      "--": 3018,
      "lim": 3019,
      "aign": 3020,
      "ĠEd": 3021,
      "Ġremember": 3022,
      "Ġear": 3023,
      "Ġsaw": 3024,
      "Ġplayers": 3025,
      "Ġhands": 3026,
      "nes": 3027,
      "ĠDay": 3028,
      "Ġplanning": 3029,
      "Ġlic": 3030,
      "Ġdeath": 3031,
      "sc": 3032,
      "asons": 3033,
      "Ġimm": 3034,
      "Ġ...": 3035,
      "Ġfloor": 3036,
      "Ġinteresting": 3037,
      "Ġri": 3038,
      "fl": 3039,
      "erous": 3040,
      "atives": 3041,
      "Ġaw": 3042,
      "bit": 3043,
      "ondon": 3044,
      "Ġfurn": 3045,
      "board": 3046,
      "Ġcommit": 3047,
      "iture": 3048,
      "Ġparents": 3049,
      "Ġmention": 3050,
      "Ġcondu": 3051,
      "iding": 3052,
      "Ġphotos": 3053,
      "Ġcommercial": 3054,
      "edding": 3055,
      "ĠAmerica": 3056,
      "Ġextreme": 3057,
      "Ġdise": 3058,
      "Ġorganization": 3059,
      "Ġgreen": 3060,
      "ĠHealth": 3061,
      "14": 3062,
      "AM": 3063,
      "ãģ": 3064,
      "Ġpath": 3065,
      "hern": 3066,
      "Ġlost": 3067,
      "ude": 3068,
      "Ġcompletely": 3069,
      "Ġgroups": 3070,
      "Ġdep": 3071,
      "Ġstreng": 3072,
      "itation": 3073,
      "ĠPa": 3074,
      "Ð¾": 3075,
      "Ġtraditional": 3076,
      "Ġcomplex": 3077,
      "Ġdecided": 3078,
      "ĠHouse": 3079,
      "Ġachieve": 3080,
      "Ġmyself": 3081,
      "Ġlab": 3082,
      "Ġdeliver": 3083,
      "13": 3084,
      "ĠInt": 3085,
      "ker": 3086,
      "verse": 3087,
      "Ġpositive": 3088,
      "Ġtrip": 3089,
      "Ġprevent": 3090,
      "ĠRec": 3091,
      "itable": 3092,
      "Ġplaying": 3093,
      "avy": 3094,
      "Ġreach": 3095,
      "izes": 3096,
      "ĠGoogle": 3097,
      "Ġsurpr": 3098,
      "Ġanswer": 3099,
      "Ġconcept": 3100,
      "onse": 3101,
      "Ġaffect": 3102,
      "17": 3103,
      "Ġsubst": 3104,
      "idered": 3105,
      "Ġconsult": 3106,
      "ĠInternational": 3107,
      "aged": 3108,
      "Ġgoes": 3109,
      "Ġdeveloped": 3110,
      "Ġsites": 3111,
      "Ġclient": 3112,
      "wise": 3113,
      "hel": 3114,
      "vey": 3115,
      "ences": 3116,
      "ole": 3117,
      "Ġattack": 3118,
      "Ġwarm": 3119,
      "ober": 3120,
      "haps": 3121,
      "gy": 3122,
      "eal": 3123,
      "ĠSept": 3124,
      "Ġpicture": 3125,
      "ressed": 3126,
      "amb": 3127,
      "aves": 3128,
      "enty": 3129,
      "aches": 3130,
      "Ġmachine": 3131,
      "Ġcreating": 3132,
      "su": 3133,
      "uel": 3134,
      "Ġ--": 3135,
      "Ġprem": 3136,
      "Ġcirc": 3137,
      "Ġgradu": 3138,
      "Ġwel": 3139,
      "ĠJune": 3140,
      "Ġglass": 3141,
      "ĠAfric": 3142,
      "ades": 3143,
      "Ġapplications": 3144,
      "Ġaware": 3145,
      "mon": 3146,
      "Ġlimited": 3147,
      "ĠHer": 3148,
      "isions": 3149,
      "iff": 3150,
      "Ġcross": 3151,
      "ought": 3152,
      "Ġblock": 3153,
      "Ġconsist": 3154,
      "org": 3155,
      "arant": 3156,
      "Ġbusinesses": 3157,
      "igation": 3158,
      "ĠEnglish": 3159,
      "Ġinstru": 3160,
      "Ġsuccessful": 3161,
      "iction": 3162,
      "ĠFrom": 3163,
      "ĠAssoci": 3164,
      "ties": 3165,
      "ĠAug": 3166,
      "Ġ2013": 3167,
      "Ġpartners": 3168,
      "Ġcorrect": 3169,
      "Ġgold": 3170,
      "Ġcat": 3171,
      "Ġdry": 3172,
      "Ġinterested": 3173,
      "Ġrelease": 3174,
      "Ġbag": 3175,
      "Ġobtain": 3176,
      "Ġbecame": 3177,
      "ĠMore": 3178,
      "ĠDis": 3179,
      "usion": 3180,
      "Ġ:": 3181,
      "Ġnature": 3182,
      "mission": 3183,
      "One": 3184,
      "ĠOf": 3185,
      "urb": 3186,
      "agn": 3187,
      "uses": 3188,
      "Ġtowards": 3189,
      "Ġlanguage": 3190,
      "ĠEl": 3191,
      "lied": 3192,
      "Ġconnect": 3193,
      "Ġhear": 3194,
      "ilies": 3195,
      "ĠIndia": 3196,
      "ĠAc": 3197,
      "ption": 3198,
      "Ġthinking": 3199,
      "Ġvehicle": 3200,
      "Ġemployees": 3201,
      "Ġdru": 3202,
      "Ġcelebr": 3203,
      "Be": 3204,
      "Ġwal": 3205,
      "idents": 3206,
      "iles": 3207,
      "artment": 3208,
      "hest": 3209,
      "Ġrev": 3210,
      "Ġprofession": 3211,
      "Ġrights": 3212,
      "Ġanalysis": 3213,
      "Ġearn": 3214,
      "Ġfirm": 3215,
      "ĠLondon": 3216,
      "Ġexpected": 3217,
      "Ġpromot": 3218,
      "Ġpred": 3219,
      "Ġstorage": 3220,
      "Ġbegan": 3221,
      "Ġnote": 3222,
      "ama": 3223,
      "Ġbudget": 3224,
      "Ġfair": 3225,
      "Ġsold": 3226,
      "Ġindividuals": 3227,
      "Ġep": 3228,
      "Ġfine": 3229,
      "Ġavoid": 3230,
      "ara": 3231,
      "Ġheat": 3232,
      "Do": 3233,
      "ĠGr": 3234,
      "Ġadvant": 3235,
      "usiness": 3236,
      "yond": 3237,
      "pre": 3238,
      "ĠDirect": 3239,
      "Ġobject": 3240,
      "Ġwish": 3241,
      "Ġattempt": 3242,
      "ĠThen": 3243,
      "Ġhit": 3244,
      "enge": 3245,
      "Ġplaces": 3246,
      "Ġpropos": 3247,
      "Ġoffe": 3248,
      "Ġhous": 3249,
      "ĠTV": 3250,
      "Ġdiv": 3251,
      "Ġcampaign": 3252,
      "Ġphysical": 3253,
      "Ġsometimes": 3254,
      "Ġmat": 3255,
      "Ġwonderful": 3256,
      "cies": 3257,
      "isf": 3258,
      "Ġconstruction": 3259,
      "Ġdepart": 3260,
      "Ġconsidered": 3261,
      "ĠSan": 3262,
      "ica": 3263,
      "Ġsupply": 3264,
      "Ġopportunities": 3265,
      "EC": 3266,
      "rought": 3267,
      "Ġtick": 3268,
      "ĠChina": 3269,
      "ĠDesign": 3270,
      "aly": 3271,
      "ĠAcc": 3272,
      "Ġload": 3273,
      "Ġstarting": 3274,
      "Ġgar": 3275,
      "ville": 3276,
      "Ġcarry": 3277,
      "ĠHere": 3278,
      "Ġaim": 3279,
      "ĠFace": 3280,
      "oming": 3281,
      "ĠHar": 3282,
      "Ġemerg": 3283,
      "ST": 3284,
      "ĠMon": 3285,
      "OM": 3286,
      "Ġcopy": 3287,
      "Ġprec": 3288,
      "ĠGerm": 3289,
      "vant": 3290,
      "Ġformer": 3291,
      "Ġassess": 3292,
      "Ġorganiz": 3293,
      "Ġunderstanding": 3294,
      "rast": 3295,
      "Ġadminist": 3296,
      "Ġwar": 3297,
      "Ġ21": 3298,
      "Ġinvestment": 3299,
      "Ġcourt": 3300,
      "Ġwrong": 3301,
      "Ġhour": 3302,
      "Ġvac": 3303,
      "ĠHome": 3304,
      "Ġ2012": 3305,
      "Ġfab": 3306,
      "uth": 3307,
      "ĠBlack": 3308,
      "ĠFeb": 3309,
      "Ġhealthy": 3310,
      "Ġge": 3311,
      "Ġgrowing": 3312,
      "Ġdefinitely": 3313,
      "ruit": 3314,
      "Ġpattern": 3315,
      "Ġinflu": 3316,
      "ĠChristmas": 3317,
      "ĠBrit": 3318,
      "reci": 3319,
      "After": 3320,
      "chan": 3321,
      "off": 3322,
      "Ġmoving": 3323,
      "ulations": 3324,
      "Ġexactly": 3325,
      "Ġdecor": 3326,
      "ales": 3327,
      "ĠMus": 3328,
      "Ġposted": 3329,
      "Ġblood": 3330,
      "Ġhor": 3331,
      "ications": 3332,
      "Ġphoto": 3333,
      "zy": 3334,
      "ashing": 3335,
      "ibly": 3336,
      "Ġappropri": 3337,
      "24": 3338,
      "gar": 3339,
      "Ġregion": 3340,
      "Ġdream": 3341,
      "alu": 3342,
      "ĠPresident": 3343,
      "Ġaltern": 3344,
      "ĠGroup": 3345,
      "Ġsituation": 3346,
      "Ġmid": 3347,
      "Ġdire": 3348,
      "iforn": 3349,
      "Ġgoals": 3350,
      "Ġactivity": 3351,
      "Ġfarm": 3352,
      "mm": 3353,
      "Ġmother": 3354,
      "ĠCoun": 3355,
      "Ġpurpose": 3356,
      "ĠNet": 3357,
      "apan": 3358,
      "Ġcash": 3359,
      "Ġprevious": 3360,
      "itute": 3361,
      "Ġweeke": 3362,
      "ari": 3363,
      "ĠService": 3364,
      "Ġmessage": 3365,
      "olute": 3366,
      "Ġsleep": 3367,
      "Ġcapt": 3368,
      "ĠDav": 3369,
      "ny": 3370,
      "Ġentry": 3371,
      "ester": 3372,
      "Ġguide": 3373,
      "ek": 3374,
      "Ġli": 3375,
      "Ġtemper": 3376,
      "ength": 3377,
      "ET": 3378,
      "Sh": 3379,
      "Ġtele": 3380,
      "Ġdifference": 3381,
      "Ġeye": 3382,
      "rences": 3383,
      "Ġeffort": 3384,
      "ĠWar": 3385,
      "Ġgets": 3386,
      "ĠJanuary": 3387,
      "ĠGl": 3388,
      "Ġexerc": 3389,
      "Ġdark": 3390,
      "Ġslow": 3391,
      "Ġled": 3392,
      "ĠRed": 3393,
      "Ġacqu": 3394,
      "Ġhotel": 3395,
      "ederal": 3396,
      "Ġpictures": 3397,
      "Ġdamage": 3398,
      "Ġconvers": 3399,
      "Ġpublished": 3400,
      "Ġten": 3401,
      "Ġneigh": 3402,
      "ifornia": 3403,
      "Ġbenefit": 3404,
      "Ġcontain": 3405,
      "Ġwait": 3406,
      "ĠSer": 3407,
      "Ġenh": 3408,
      "aries": 3409,
      "Ġsubs": 3410,
      "ĠBro": 3411,
      "Ġuses": 3412,
      "Ġapart": 3413,
      "Ġoffering": 3414,
      "Ð°": 3415,
      "raft": 3416,
      "ĠAlso": 3417,
      "ĠJuly": 3418,
      "Ġresponse": 3419,
      "Ġanaly": 3420,
      "Ġcateg": 3421,
      "ĠMr": 3422,
      "Ġafford": 3423,
      "Ġbroad": 3424,
      "ĠAN": 3425,
      "Ġ22": 3426,
      "ett": 3427,
      "key": 3428,
      "Ġarr": 3429,
      "Ġbank": 3430,
      "antly": 3431,
      "Ġintegr": 3432,
      "gram": 3433,
      "Ġfrequ": 3434,
      "Ġfelt": 3435,
      "Ġult": 3436,
      "Ġspot": 3437,
      "cember": 3438,
      "ING": 3439,
      "Ġcompon": 3440,
      "ĠSim": 3441,
      "ĠSund": 3442,
      "right": 3443,
      "iling": 3444,
      "Ġaward": 3445,
      "Ġbur": 3446,
      "Ġinternet": 3447,
      "Ġexecut": 3448,
      "ida": 3449,
      "orge": 3450,
      "ĠSeptember": 3451,
      "ĠCons": 3452,
      "ography": 3453,
      "80": 3454,
      "Ġcontribut": 3455,
      "70": 3456,
      "Ġfamilies": 3457,
      "Ġbehav": 3458,
      "pa": 3459,
      "Ġrates": 3460,
      "Ġaccom": 3461,
      "Ġbirth": 3462,
      "AP": 3463,
      "uk": 3464,
      "Ġjud": 3465,
      "ID": 3466,
      "Ġpaid": 3467,
      "Ġeat": 3468,
      "ague": 3469,
      "Ġsus": 3470,
      "ĠOctober": 3471,
      "Ġreplace": 3472,
      "Ġclub": 3473,
      "ĠDepartment": 3474,
      "ovember": 3475,
      "pects": 3476,
      "Ġgas": 3477,
      "tee": 3478,
      "Ġeasier": 3479,
      "mat": 3480,
      "Ġproced": 3481,
      "band": 3482,
      "attle": 3483,
      "ĠFree": 3484,
      "Ġpressure": 3485,
      "Ġsmart": 3486,
      "Ġpages": 3487,
      "ĠJes": 3488,
      "porate": 3489,
      "Ġhistor": 3490,
      "ĠCommun": 3491,
      "Ġpull": 3492,
      "Ġsurround": 3493,
      "Ġdevices": 3494,
      "ses": 3495,
      "Ġpolitical": 3496,
      "rate": 3497,
      "Ġstuff": 3498,
      "Ġhosp": 3499,
      "Ġroll": 3500,
      "ecause": 3501,
      "Ġserve": 3502,
      "ĠFriday": 3503,
      "Ġexperienced": 3504,
      "Ġreduce": 3505,
      "ĠCour": 3506,
      "lin": 3507,
      "EL": 3508,
      "Ġstage": 3509,
      "Ġviol": 3510,
      "ares": 3511,
      "amed": 3512,
      "Ġloved": 3513,
      "Ġeffects": 3514,
      "ams": 3515,
      "Ġstru": 3516,
      "Ġdistribut": 3517,
      "Ġcertainly": 3518,
      "Ġshop": 3519,
      "ĠChar": 3520,
      "rial": 3521,
      "Ġtransfer": 3522,
      "Ġlog": 3523,
      "error": 3524,
      "zz": 3525,
      "Ġschools": 3526,
      "Ġfight": 3527,
      "ĠMost": 3528,
      "ĠServices": 3529,
      "Ġadjust": 3530,
      "Ġbasis": 3531,
      "Ġadult": 3532,
      "ded": 3533,
      "ĠEvery": 3534,
      "Ġfeeling": 3535,
      "Ġoffered": 3536,
      "Ġnut": 3537,
      "ĠGreat": 3538,
      "Ġactive": 3539,
      "Ġcharge": 3540,
      "ronic": 3541,
      "Ġowners": 3542,
      "Ġmark": 3543,
      "icate": 3544,
      "Ġhtt": 3545,
      "ĠFacebook": 3546,
      "sequ": 3547,
      "Ġ60": 3548,
      "ĠTechn": 3549,
      "Ġwasn": 3550,
      "Ġadvice": 3551,
      "ĠLa": 3552,
      "arily": 3553,
      "Ġver": 3554,
      "ĠKing": 3555,
      "Ġpool": 3556,
      "Ġguarant": 3557,
      "ancy": 3558,
      "Ġmaxim": 3559,
      "ĠAre": 3560,
      "Ġunit": 3561,
      "ĠPat": 3562,
      "Ġinitial": 3563,
      "Ġoverall": 3564,
      "Ġspent": 3565,
      "Ġprefer": 3566,
      "Ġreleased": 3567,
      "Ġsurface": 3568,
      "oms": 3569,
      "Ġdelivery": 3570,
      "Ġculture": 3571,
      "urt": 3572,
      "aturday": 3573,
      "Ġgave": 3574,
      "ĠCalifornia": 3575,
      "rench": 3576,
      "ira": 3577,
      "Ġdemand": 3578,
      "Ġcomment": 3579,
      "Ġappreci": 3580,
      "het": 3581,
      "formation": 3582,
      "Ġlots": 3583,
      "Ġtransport": 3584,
      "place": 3585,
      "Ġdefe": 3586,
      "Ġindepend": 3587,
      "IL": 3588,
      "ĠGener": 3589,
      "Ġregarding": 3590,
      "Ġlack": 3591,
      "Ġbasic": 3592,
      "Ġtrade": 3593,
      "Ġdog": 3594,
      "Ġadvert": 3595,
      "word": 3596,
      "Ġimag": 3597,
      "Ġshown": 3598,
      "anch": 3599,
      "Ph": 3600,
      "ressive": 3601,
      "oday": 3602,
      "Ġexisting": 3603,
      "Ġfeet": 3604,
      "Ġuseful": 3605,
      "Ġreported": 3606,
      "Ġoptim": 3607,
      "ils": 3608,
      "Ġtruly": 3609,
      "pite": 3610,
      "ĠIN": 3611,
      "Ġassociated": 3612,
      "ĠThanks": 3613,
      "Ġinterview": 3614,
      "Ġgift": 3615,
      "Ġhomes": 3616,
      "Ġincreasing": 3617,
      "EO": 3618,
      "Ġdegree": 3619,
      "ashion": 3620,
      "ĠDecember": 3621,
      "PS": 3622,
      "Ġ23": 3623,
      "ibrary": 3624,
      "ĠJapan": 3625,
      "Ġoccur": 3626,
      "Ġsetting": 3627,
      "Ġter": 3628,
      "change": 3629,
      "99": 3630,
      "aint": 3631,
      "ĠCompany": 3632,
      "sp": 3633,
      "Ġextend": 3634,
      "ipping": 3635,
      "ĠLet": 3636,
      "ĠSystem": 3637,
      "Ġcab": 3638,
      "Ġappoint": 3639,
      "Ġbeyond": 3640,
      "Ġreve": 3641,
      "Ġaff": 3642,
      "Ġtried": 3643,
      "Ġsatisf": 3644,
      "Ġcomfortable": 3645,
      "Ġeconomic": 3646,
      "unt": 3647,
      "itary": 3648,
      "Ġincreased": 3649,
      "ĠAugust": 3650,
      "22": 3651,
      "Ġstress": 3652,
      "inner": 3653,
      "des": 3654,
      "Ġbeginning": 3655,
      "Ġbrought": 3656,
      "Ġheard": 3657,
      "vis": 3658,
      "wide": 3659,
      "ube": 3660,
      "Ġstories": 3661,
      "Ġwedding": 3662,
      "ĠNovember": 3663,
      "house": 3664,
      "set": 3665,
      "ris": 3666,
      "Ġfiles": 3667,
      "Ġplayed": 3668,
      "asc": 3669,
      "Ġrespond": 3670,
      "Ġing": 3671,
      "Ġmanufacture": 3672,
      "Ġresponsible": 3673,
      "ĠMich": 3674,
      "Ġdy": 3675,
      "Ġrepair": 3676,
      "etic": 3677,
      "Ġpatient": 3678,
      "Ġhighest": 3679,
      "Ex": 3680,
      "Ġeyes": 3681,
      "istry": 3682,
      "Ġjoin": 3683,
      "Ġband": 3684,
      "ffee": 3685,
      "Ġble": 3686,
      "Ġ2011": 3687,
      "Ġcollege": 3688,
      "ĠTrans": 3689,
      "Ġspirit": 3690,
      "useum": 3691,
      "erved": 3692,
      "ĠÂ£": 3693,
      "olf": 3694,
      "iced": 3695,
      "Ġideal": 3696,
      "Ġpayment": 3697,
      "Ġmeaning": 3698,
      "Ġaccur": 3699,
      "lies": 3700,
      "vest": 3701,
      "ĠEven": 3702,
      "sych": 3703,
      "Ġmeasure": 3704,
      "iety": 3705,
      "Ġproduce": 3706,
      "icks": 3707,
      "Ġcompleted": 3708,
      "Ġparticularly": 3709,
      "Ġlargest": 3710,
      "ĠFirst": 3711,
      "idential": 3712,
      "mitted": 3713,
      "Ġstructure": 3714,
      "ulated": 3715,
      "ka": 3716,
      "lock": 3717,
      "Ġdouble": 3718,
      "Ġblue": 3719,
      "itect": 3720,
      "Cl": 3721,
      "Ġfinish": 3722,
      "door": 3723,
      "Ġemot": 3724,
      "ĠEast": 3725,
      "pen": 3726,
      "Ġ2010": 3727,
      "That": 3728,
      "ruary": 3729,
      "aks": 3730,
      "dom": 3731,
      "Ġvot": 3732,
      "Ġweekend": 3733,
      "ĠSunday": 3734,
      "Ġbaby": 3735,
      "Ġimmediately": 3736,
      "ager": 3737,
      "Ġund": 3738,
      "23": 3739,
      "ĠBusiness": 3740,
      "Ġweather": 3741,
      "ĠMod": 3742,
      "Ġpet": 3743,
      "ĠJesus": 3744,
      "Ġappropriate": 3745,
      "ĠCollege": 3746,
      "oke": 3747,
      "Ġplayer": 3748,
      "Ġsoci": 3749,
      "Ġselection": 3750,
      "Ġabsolute": 3751,
      "Ġdead": 3752,
      "ĠEuropean": 3753,
      "Ġcapital": 3754,
      "TM": 3755,
      "Ġcollabor": 3756,
      "Ġborn": 3757,
      "Ġhelping": 3758,
      "rapy": 3759,
      "body": 3760,
      "ĠProf": 3761,
      "Ġthous": 3762,
      "alt": 3763,
      "Ġstraight": 3764,
      "Ġefficient": 3765,
      "Ġannual": 3766,
      "Ġson": 3767,
      "Ġsort": 3768,
      "Pro": 3769,
      "Ġnumbers": 3770,
      "Ġmovie": 3771,
      "ĠSaturday": 3772,
      "ĠWindows": 3773,
      "Ġlines": 3774,
      "Ġdro": 3775,
      "Ġstudies": 3776,
      "Ġnotice": 3777,
      "Ġmodels": 3778,
      "Ġcontinu": 3779,
      "Ġextremely": 3780,
      "hens": 3781,
      "more": 3782,
      "ault": 3783,
      "Ġreasons": 3784,
      "ser": 3785,
      "oly": 3786,
      "Ġnormal": 3787,
      "Ġelectric": 3788,
      "enior": 3789,
      "Ġclin": 3790,
      "Ġstrategy": 3791,
      "nded": 3792,
      "iques": 3793,
      "Ġprotection": 3794,
      "Ġcoffee": 3795,
      "ologies": 3796,
      "Ġru": 3797,
      "Ġdemonst": 3798,
      "Ġcold": 3799,
      "Ġcreative": 3800,
      "istics": 3801,
      "ĠOut": 3802,
      "Is": 3803,
      "Ġrock": 3804,
      "porary": 3805,
      "ĠInternet": 3806,
      "Ġutil": 3807,
      "Ġfinally": 3808,
      "Ġevalu": 3809,
      "Ġstates": 3810,
      "Ġcandid": 3811,
      "Ġbatter": 3812,
      "AD": 3813,
      "Ġfell": 3814,
      "Ġcru": 3815,
      "ĠStreet": 3816,
      "ancing": 3817,
      "Ġbottom": 3818,
      "ously": 3819,
      "Ġthanks": 3820,
      "Ġreli": 3821,
      "aling": 3822,
      "ĠCanada": 3823,
      "iment": 3824,
      "Ġdress": 3825,
      "Ġbrow": 3826,
      "bon": 3827,
      "Ġdat": 3828,
      "Ġchanged": 3829,
      "Ġdisease": 3830,
      "ĠLaw": 3831,
      "Ġbackground": 3832,
      "Ġfat": 3833,
      "Ġfurniture": 3834,
      "field": 3835,
      "Ġwindow": 3836,
      "que": 3837,
      "undred": 3838,
      "Ġprinc": 3839,
      "inated": 3840,
      "ĠPort": 3841,
      "sec": 3842,
      "ened": 3843,
      "itter": 3844,
      "Ġpow": 3845,
      "Ġpen": 3846,
      "ĠCle": 3847,
      "Ġchallenge": 3848,
      "Ġdoll": 3849,
      "Ġsty": 3850,
      "Ġsust": 3851,
      "Ġplus": 3852,
      "Ġrelax": 3853,
      "ooks": 3854,
      "Ġtrain": 3855,
      "Ġthank": 3856,
      "ipped": 3857,
      "estern": 3858,
      "ĠRuss": 3859,
      "oul": 3860,
      "Ġbedroom": 3861,
      "Ġmaybe": 3862,
      "Ġpowerful": 3863,
      "Ġteams": 3864,
      "Ġnation": 3865,
      "Ġfra": 3866,
      "Ġmethods": 3867,
      "Ġfant": 3868,
      "Ġcards": 3869,
      "arc": 3870,
      "Ġbelie": 3871,
      "ĠTHE": 3872,
      "venue": 3873,
      "col": 3874,
      "ĠMany": 3875,
      "__": 3876,
      "atever": 3877,
      "Ġcompared": 3878,
      "Ġknew": 3879,
      "icip": 3880,
      "Ġturned": 3881,
      "ani": 3882,
      "Ġidentify": 3883,
      "Ġincome": 3884,
      "Ġgreater": 3885,
      "umn": 3886,
      "Ġcove": 3887,
      "hol": 3888,
      "Ġitem": 3889,
      "Ġsteps": 3890,
      "These": 3891,
      "Ġchurch": 3892,
      "Ġliter": 3893,
      "Ġnearly": 3894,
      "usive": 3895,
      "roid": 3896,
      "Ġlength": 3897,
      "Ġremain": 3898,
      "Ġ28": 3899,
      "anging": 3900,
      "Ġestate": 3901,
      "Ġinstitut": 3902,
      "Ġcolle": 3903,
      "rel": 3904,
      "bert": 3905,
      "Ġpieces": 3906,
      "ĠGet": 3907,
      "Ġrules": 3908,
      "ĠRem": 3909,
      "tenance": 3910,
      "duc": 3911,
      "Â®": 3912,
      "Ġcho": 3913,
      "Ġserved": 3914,
      "ĠFebruary": 3915,
      "Ġvict": 3916,
      "acity": 3917,
      "Ġsecure": 3918,
      "ned": 3919,
      "Ġscience": 3920,
      "bum": 3921,
      "Ġchem": 3922,
      "Ġestablished": 3923,
      "Ġmechan": 3924,
      "ders": 3925,
      "rated": 3926,
      "OL": 3927,
      "force": 3928,
      "atively": 3929,
      "Ġexhib": 3930,
      "Ġconven": 3931,
      "Ġreports": 3932,
      "inate": 3933,
      "Ġsaying": 3934,
      "iant": 3935,
      "Ġsweet": 3936,
      "ĠMond": 3937,
      "Ġhelped": 3938,
      "Ġjourney": 3939,
      "Ġlarger": 3940,
      "Ġalthough": 3941,
      "iny": 3942,
      "Ġremo": 3943,
      "aughter": 3944,
      "Ġgrand": 3945,
      "Ġlands": 3946,
      "ĠPC": 3947,
      "Ġ26": 3948,
      "Ġbutton": 3949,
      "ĠProgram": 3950,
      "ĠIT": 3951,
      "Ġexpand": 3952,
      "ĠAny": 3953,
      "Ġvill": 3954,
      "Ġrequires": 3955,
      "odes": 3956,
      "Ġallowed": 3957,
      "Com": 3958,
      "Ġscient": 3959,
      "Ġgarden": 3960,
      "Ġsharing": 3961,
      "ĠPal": 3962,
      "ĠCr": 3963,
      "ĠWhe": 3964,
      "ĠSch": 3965,
      "Ġstrength": 3966,
      "Ġ|": 3967,
      "ĠIndian": 3968,
      "Ġalone": 3969,
      "Ġoccas": 3970,
      "ĠAustralia": 3971,
      "Ġwild": 3972,
      "ivil": 3973,
      "Ġahead": 3974,
      "Ġevidence": 3975,
      "ulf": 3976,
      "Ġtraffic": 3977,
      "Ġmanage": 3978,
      "ĠMarket": 3979,
      "ĠCouncil": 3980,
      "Ġpaint": 3981,
      "unte": 3982,
      "term": 3983,
      "Ġconnection": 3984,
      "Ġadvantage": 3985,
      "US": 3986,
      "phone": 3987,
      "icing": 3988,
      "ĠIS": 3989,
      "ĠGold": 3990,
      "Ġmiddle": 3991,
      "inter": 3992,
      "Ġflav": 3993,
      "Ġcraft": 3994,
      "Ġsports": 3995,
      "lands": 3996,
      "ĠWell": 3997,
      "ĠBest": 3998,
      "75": 3999,
      "Ġflex": 4000,
      "Ġincred": 4001,
      "order": 4002,
      "Ġhop": 4003,
      "Ġwants": 4004,
      "Ġattract": 4005,
      "aker": 4006,
      "ĠUp": 4007,
      "eria": 4008,
      "nown": 4009,
      "esome": 4010,
      "see": 4011,
      "ĠJe": 4012,
      "IP": 4013,
      "ION": 4014,
      "Ġpark": 4015,
      "Ġtitle": 4016,
      "ĠDel": 4017,
      "Ġwoman": 4018,
      "ĠAssociation": 4019,
      "Ġmiles": 4020,
      "Ġmis": 4021,
      "Ġwear": 4022,
      "ulate": 4023,
      "ĠEach": 4024,
      "omen": 4025,
      "Ġ+": 4026,
      "overy": 4027,
      "Ġpeace": 4028,
      "Ġrace": 4029,
      "unk": 4030,
      "Ġreviews": 4031,
      "Ġannounced": 4032,
      "atically": 4033,
      "ugh": 4034,
      "Ġgraph": 4035,
      "Ġchann": 4036,
      "itude": 4037,
      "Ġdriving": 4038,
      "Ġcamera": 4039,
      "Ġiniti": 4040,
      "well": 4041,
      "Ġtechnical": 4042,
      "ĠGood": 4043,
      "Ġspread": 4044,
      "ĠBoard": 4045,
      "Ġmoved": 4046,
      "Ġfinished": 4047,
      "Ġfill": 4048,
      "ĠInter": 4049,
      "Ġbathroom": 4050,
      "Ġcommunication": 4051,
      "Ġserious": 4052,
      "agram": 4053,
      "ĠPri": 4054,
      "Ġearlier": 4055,
      "ĠFlor": 4056,
      "Ġefforts": 4057,
      "Ġletter": 4058,
      "eds": 4059,
      "Ġexperts": 4060,
      "Ġviews": 4061,
      "ĠGreen": 4062,
      "Ġorganizations": 4063,
      "Ġmill": 4064,
      "No": 4065,
      "ald": 4066,
      "Ġonto": 4067,
      "ĠHot": 4068,
      "Ġretail": 4069,
      "45": 4070,
      "Ġhundred": 4071,
      "Ġgenerally": 4072,
      "ĠWhite": 4073,
      "cape": 4074,
      "Ġtips": 4075,
      "ĠBel": 4076,
      "Ġtim": 4077,
      "Ġjobs": 4078,
      "Ġlooked": 4079,
      "Ġprofessionals": 4080,
      "coming": 4081,
      "Ġtag": 4082,
      "orrow": 4083,
      "Ġprimary": 4084,
      "Ġtur": 4085,
      "IG": 4086,
      "care": 4087,
      "Ġbow": 4088,
      "Ġdoub": 4089,
      "Ġexperiences": 4090,
      "Ġaren": 4091,
      "While": 4092,
      "Ġmaster": 4093,
      "ĠDist": 4094,
      "ounds": 4095,
      "ĠSpr": 4096,
      "Ġcovered": 4097,
      "Ġpartner": 4098,
      "à¤": 4099,
      "hy": 4100,
      "ĠDec": 4101,
      "ĠWeb": 4102,
      "ĠOnce": 4103,
      "Ġstandards": 4104,
      "Ġfather": 4105,
      "vin": 4106,
      "Ġremove": 4107,
      "EM": 4108,
      "ĠMac": 4109,
      "Ġschedule": 4110,
      "ĠII": 4111,
      "Ġdelic": 4112,
      "Ġtask": 4113,
      "Ġfollowed": 4114,
      "Ġvalues": 4115,
      "reed": 4116,
      "Ġslight": 4117,
      "Ġshoot": 4118,
      "Ġowner": 4119,
      "Now": 4120,
      "Ġdiscount": 4121,
      "Ġguid": 4122,
      "Ġcry": 4123,
      "Ġbillion": 4124,
      "encies": 4125,
      "hips": 4126,
      "Ġentertain": 4127,
      "Ġstrugg": 4128,
      "la": 4129,
      "pm": 4130,
      "Ġactual": 4131,
      "Ġelements": 4132,
      "Ġsand": 4133,
      "Ġchallenges": 4134,
      "Ġresist": 4135,
      "Ġprogress": 4136,
      "Ġcritical": 4137,
      "Ġhandle": 4138,
      "ico": 4139,
      "Ġexplore": 4140,
      "Ġopin": 4141,
      "Ġdetermine": 4142,
      "Ġfriendly": 4143,
      "35": 4144,
      "Ġthreat": 4145,
      "Ġcancer": 4146,
      "ĠMonday": 4147,
      "Ġfinding": 4148,
      "fast": 4149,
      "Ġpolice": 4150,
      "ribute": 4151,
      "Ġcleaning": 4152,
      "ĠMa": 4153,
      "tra": 4154,
      "Ġstream": 4155,
      "rem": 4156,
      "âĢĿ,": 4157,
      "Ġsurv": 4158,
      "Ġsteel": 4159,
      "Ġupdate": 4160,
      "Ġshopping": 4161,
      "ommod": 4162,
      "down": 4163,
      "ĠGovern": 4164,
      "Ġtherefore": 4165,
      "ĠHall": 4166,
      "lying": 4167,
      "ĠOther": 4168,
      "Ġcolors": 4169,
      "Ġperhaps": 4170,
      "ĠAss": 4171,
      "mar": 4172,
      "rig": 4173,
      "Ġdeveloping": 4174,
      "ĠFound": 4175,
      "Ġroof": 4176,
      "Ġshared": 4177,
      "enses": 4178,
      "Ġ27": 4179,
      "overed": 4180,
      "ĠSuper": 4181,
      "Ġwine": 4182,
      "ashington": 4183,
      "Ġholiday": 4184,
      "Ġexcl": 4185,
      "ctors": 4186,
      "Ġrefer": 4187,
      "Ġacadem": 4188,
      "Ġcells": 4189,
      "ĠOffice": 4190,
      "Ġteaching": 4191,
      "ĠDevelop": 4192,
      "Ġloan": 4193,
      "Ġden": 4194,
      "dy": 4195,
      "cel": 4196,
      "Ġmatt": 4197,
      "Ġopening": 4198,
      "pective": 4199,
      "ĠIr": 4200,
      "Ġadvanced": 4201,
      "ael": 4202,
      "De": 4203,
      "Ġsolid": 4204,
      "ĠEduc": 4205,
      "bu": 4206,
      "100": 4207,
      "Ġcontains": 4208,
      "Ġcup": 4209,
      "standing": 4210,
      "Ġharm": 4211,
      "Ġhimself": 4212,
      "Ġincor": 4213,
      "ios": 4214,
      "Ġfear": 4215,
      "Ġparties": 4216,
      "Ġdedicated": 4217,
      "ament": 4218,
      "Ġvirt": 4219,
      "Ġbalance": 4220,
      "Ġpros": 4221,
      "aled": 4222,
      "icking": 4223,
      "Ġserver": 4224,
      "Please": 4225,
      "Ġcit": 4226,
      "Ġadop": 4227,
      "Ġforce": 4228,
      "Ġlimit": 4229,
      "gen": 4230,
      "Ġtalking": 4231,
      "rey": 4232,
      "Ġheavy": 4233,
      "Ġlisted": 4234,
      "Ġsmooth": 4235,
      "estival": 4236,
      "Ġbrain": 4237,
      "Ġshape": 4238,
      "Ġwelcome": 4239,
      "Ġfacilities": 4240,
      "vision": 4241,
      "Ġtrou": 4242,
      "Ġassign": 4243,
      "Ġban": 4244,
      "Ġcast": 4245,
      "Ġalbum": 4246,
      "Ġmovement": 4247,
      "Ġmetal": 4248,
      "Ġpoor": 4249,
      "Ġingred": 4250,
      "ayer": 4251,
      "ĠRead": 4252,
      "Ġwhose": 4253,
      "Ġmission": 4254,
      "Ġsession": 4255,
      "Ġhighlight": 4256,
      "Ġcheap": 4257,
      "Ġdete": 4258,
      "BC": 4259,
      "ãĤ": 4260,
      "iency": 4261,
      "iber": 4262,
      "ĠThank": 4263,
      "iation": 4264,
      "ĠClub": 4265,
      "Ġestablish": 4266,
      "orial": 4267,
      "Ġforms": 4268,
      "ying": 4269,
      "Ġvoice": 4270,
      "ĠMo": 4271,
      "ixt": 4272,
      "Ġwinter": 4273,
      "Ġpassion": 4274,
      "acing": 4275,
      "mp": 4276,
      "ula": 4277,
      "ĠAnt": 4278,
      "Ġproduced": 4279,
      "Ġdiscover": 4280,
      "Ġtend": 4281,
      "enture": 4282,
      "Ġstar": 4283,
      "Ġrooms": 4284,
      "ĠTex": 4285,
      "inese": 4286,
      "Ġhus": 4287,
      "ĠFrench": 4288,
      "Ġprepared": 4289,
      "Ġfactors": 4290,
      "Ġbreat": 4291,
      "Ġstatement": 4292,
      "Ġseeing": 4293,
      "Ġtree": 4294,
      "roud": 4295,
      "Ġmemory": 4296,
      "Ġdrop": 4297,
      "ĠManagement": 4298,
      "semb": 4299,
      "Ġselected": 4300,
      "ĠResearch": 4301,
      "Ġplaced": 4302,
      "IM": 4303,
      "Ġpresented": 4304,
      "Ġtesting": 4305,
      "osing": 4306,
      "Ġcounter": 4307,
      "rote": 4308,
      "ĠSince": 4309,
      "Ġtechniques": 4310,
      "Ġcomments": 4311,
      "ĠChurch": 4312,
      "fit": 4313,
      "lines": 4314,
      "Ġlearned": 4315,
      "Ġrich": 4316,
      "Ġwife": 4317,
      "Ġpopulation": 4318,
      "Ġmaintenance": 4319,
      "ero": 4320,
      "Ġaudience": 4321,
      "Ġrelevant": 4322,
      "Ġquarter": 4323,
      "imb": 4324,
      "ĠCourt": 4325,
      "ĠClass": 4326,
      "Ġcars": 4327,
      "They": 4328,
      "Ġplants": 4329,
      "itors": 4330,
      "CC": 4331,
      "Ġproperties": 4332,
      "Ġmotor": 4333,
      "ĠPost": 4334,
      "Ġfaith": 4335,
      "Ġplenty": 4336,
      "Ġhaven": 4337,
      "Ġfashion": 4338,
      "yn": 4339,
      "inger": 4340,
      "ĠIns": 4341,
      "Ġlinks": 4342,
      "ĠYear": 4343,
      "Ġstation": 4344,
      "):": 4345,
      "Ġwaste": 4346,
      "ĠMicro": 4347,
      "othing": 4348,
      "text": 4349,
      "Ġ2009": 4350,
      "Ġkeeping": 4351,
      "Ġclasses": 4352,
      "ĠSee": 4353,
      "ĠWashington": 4354,
      "raw": 4355,
      "26": 4356,
      "Ġcentury": 4357,
      "ĠBritish": 4358,
      "Ġspring": 4359,
      "ĠProdu": 4360,
      "Ġnamed": 4361,
      "ij": 4362,
      "90": 4363,
      "Ġaccommod": 4364,
      "Ġfunds": 4365,
      "ĠSupp": 4366,
      "Ġcommunities": 4367,
      "Ġevening": 4368,
      "Ġnames": 4369,
      "Ġguests": 4370,
      "Ġshot": 4371,
      "apter": 4372,
      "icine": 4373,
      "lation": 4374,
      "Ġseven": 4375,
      "ĠSpe": 4376,
      "ĠOb": 4377,
      "Ġeight": 4378,
      "isation": 4379,
      "Ġbuying": 4380,
      "inally": 4381,
      "ĠMor": 4382,
      "rupt": 4383,
      "Ġreflect": 4384,
      "Ġfish": 4385,
      "Ġcouldn": 4386,
      "ĠPlan": 4387,
      "rief": 4388,
      "Pl": 4389,
      "hop": 4390,
      "ervation": 4391,
      "Ġcapacity": 4392,
      "pet": 4393,
      "actions": 4394,
      "ĠDavid": 4395,
      "Ġsuff": 4396,
      "Ġkept": 4397,
      "Ġforget": 4398,
      "free": 4399,
      "ĠRoad": 4400,
      "Ġdang": 4401,
      "Ġcentral": 4402,
      "Ġoperations": 4403,
      "ĠRet": 4404,
      "Ġluck": 4405,
      "inding": 4406,
      "Here": 4407,
      "rael": 4408,
      "Ġdirection": 4409,
      "Ġir": 4410,
      "88": 4411,
      "mark": 4412,
      "Ġwire": 4413,
      "ĠBook": 4414,
      "Ġdiet": 4415,
      "Ġadding": 4416,
      "Ġ80": 4417,
      "ago": 4418,
      "Ġstatus": 4419,
      "using": 4420,
      "soft": 4421,
      "ortunately": 4422,
      "osure": 4423,
      "Ġfan": 4424,
      "Ġdriver": 4425,
      "ston": 4426,
      "Ġcalc": 4427,
      "ĠJack": 4428,
      "icon": 4429,
      "Ġpractices": 4430,
      "Ġ2008": 4431,
      "Ġgain": 4432,
      "Ġcompre": 4433,
      "nding": 4434,
      "Ġvisitors": 4435,
      "za": 4436,
      "Ġcompetition": 4437,
      "ĠOver": 4438,
      "ĠDown": 4439,
      "works": 4440,
      "Ġhelpful": 4441,
      "Ġmicro": 4442,
      ".)": 4443,
      "Ġadvance": 4444,
      "azon": 4445,
      "eed": 4446,
      "Ð¸": 4447,
      "Ġice": 4448,
      "Ġsmaller": 4449,
      "!!!": 4450,
      "ught": 4451,
      "Ġgone": 4452,
      "Ġinstallation": 4453,
      "Ġdesigns": 4454,
      "LE": 4455,
      "Ġhom": 4456,
      "Ġfigure": 4457,
      "Ġbiggest": 4458,
      "Ġseparate": 4459,
      "Ġoperating": 4460,
      "ãĥ": 4461,
      "Ġrelig": 4462,
      "Ġfee": 4463,
      "\",": 4464,
      "Ġrepe": 4465,
      "ĠFlorida": 4466,
      "www": 4467,
      "Ġexercise": 4468,
      "ĠWed": 4469,
      "Ġbeach": 4470,
      "box": 4471,
      "amm": 4472,
      "Ġconference": 4473,
      "Ġvisual": 4474,
      "ellow": 4475,
      "rees": 4476,
      "ĠPaul": 4477,
      "Un": 4478,
      "Ġpush": 4479,
      "Ġscen": 4480,
      "Ġscore": 4481,
      "sey": 4482,
      "âĢ¢": 4483,
      "Ġwat": 4484,
      "Ġrestaurant": 4485,
      "Ġinvestig": 4486,
      "Ġmer": 4487,
      "Ġarchitect": 4488,
      "Ġtemperature": 4489,
      "Ġapproxim": 4490,
      "Ġnumerous": 4491,
      "Ġsector": 4492,
      "Ġcloud": 4493,
      "top": 4494,
      "ym": 4495,
      "ado": 4496,
      "ĠMet": 4497,
      "ĠMem": 4498,
      "**": 4499,
      "ĠAP": 4500,
      "Ġvolunte": 4501,
      "Ġflu": 4502,
      "Ġwaiting": 4503,
      "Ġworkers": 4504,
      "Ġdirector": 4505,
      "ĠInstitute": 4506,
      "21": 4507,
      "Ġreality": 4508,
      "Ġcoverage": 4509,
      "Ġbecomes": 4510,
      "Ġhusband": 4511,
      "Ġdur": 4512,
      "Ġeconomy": 4513,
      "ĠRiver": 4514,
      "ss": 4515,
      "Ġsociety": 4516,
      "ĠDem": 4517,
      "Ġfans": 4518,
      "Ġbill": 4519,
      "Ġpassed": 4520,
      "olate": 4521,
      "Ġdecide": 4522,
      "omb": 4523,
      "Ġmedium": 4524,
      "Ġvision": 4525,
      "Ġpackage": 4526,
      "Ġ90": 4527,
      "Ġolder": 4528,
      "Ġ197": 4529,
      "Ġcream": 4530,
      "Ġcombination": 4531,
      "ĠTexas": 4532,
      "Ġlaunch": 4533,
      "MS": 4534,
      "Ġobv": 4535,
      "Ġbright": 4536,
      "Ġsustain": 4537,
      "ech": 4538,
      "Ġdatab": 4539,
      "apers": 4540,
      "65": 4541,
      "ĠAdd": 4542,
      "ĠLake": 4543,
      "Ġformat": 4544,
      "Ġarrange": 4545,
      "Ġessay": 4546,
      "Ġlux": 4547,
      "ursday": 4548,
      "asure": 4549,
      "Ġexpensive": 4550,
      "Ġbeauty": 4551,
      "ĠSub": 4552,
      "Ġclassic": 4553,
      "Ġfamous": 4554,
      "28": 4555,
      "Ġmilitary": 4556,
      "Ġchanging": 4557,
      "Ġproud": 4558,
      "Ġleader": 4559,
      "Ġotherwise": 4560,
      "Ġconnected": 4561,
      "Ġanti": 4562,
      "ĠMake": 4563,
      "ocr": 4564,
      "Ġunf": 4565,
      "Ġcharacters": 4566,
      "Ġmentioned": 4567,
      "ails": 4568,
      "Ġgall": 4569,
      "Ġresidents": 4570,
      "TS": 4571,
      "Ġdrug": 4572,
      "Ġcabin": 4573,
      "abilities": 4574,
      "ternal": 4575,
      "asy": 4576,
      "Ġprocesses": 4577,
      "Ġcore": 4578,
      "Ġran": 4579,
      "Ġrare": 4580,
      "ĠWhy": 4581,
      "ĠAnn": 4582,
      "Ġmap": 4583,
      "Ġtempl": 4584,
      "Ġmist": 4585,
      "Ġrob": 4586,
      "Ġbeg": 4587,
      "ĠBank": 4588,
      "ocal": 4589,
      "Ad": 4590,
      "ĠCare": 4591,
      "ads": 4592,
      "Ġtruth": 4593,
      "Ġrat": 4594,
      "Ġconfig": 4595,
      "Ġvalu": 4596,
      "Ġ29": 4597,
      "Ġoutdoor": 4598,
      "Ġsched": 4599,
      "Ġtaste": 4600,
      "oes": 4601,
      "unning": 4602,
      "ĠMag": 4603,
      "ĠSk": 4604,
      "ĠChinese": 4605,
      "active": 4606,
      "Ġpsych": 4607,
      "27": 4608,
      "ĠBay": 4609,
      "ĠGeneral": 4610,
      "Ġflat": 4611,
      "Ġhappens": 4612,
      "Ġcalls": 4613,
      "ï¿": 4614,
      "Ġgrant": 4615,
      "Ġstick": 4616,
      "ented": 4617,
      "cket": 4618,
      "Ġvideos": 4619,
      "Ġagreement": 4620,
      "Ġmulti": 4621,
      "Ġbecoming": 4622,
      "Ġcolour": 4623,
      "Ġhappened": 4624,
      "UR": 4625,
      "ï¿½": 4626,
      "Ġdecisions": 4627,
      "ĠAfrica": 4628,
      "Ġcontinued": 4629,
      "Your": 4630,
      "500": 4631,
      "Ġmaximum": 4632,
      "ota": 4633,
      "Ġsurg": 4634,
      "Ġfold": 4635,
      "Ġestim": 4636,
      "ĠAv": 4637,
      "Ġdisapp": 4638,
      "ga": 4639,
      "rical": 4640,
      "uesday": 4641,
      "Ġdocuments": 4642,
      "Ġimpl": 4643,
      "Ġcourses": 4644,
      "Ġprocessing": 4645,
      "icies": 4646,
      "Ġartist": 4647,
      "Ġapplied": 4648,
      "Ġtheme": 4649,
      "Ġsources": 4650,
      "Ġthousands": 4651,
      "Ġencourage": 4652,
      "Ġwrote": 4653,
      "ask": 4654,
      "ception": 4655,
      "ĠST": 4656,
      "Ġstreet": 4657,
      "ĠMount": 4658,
      "Ġachie": 4659,
      "ĠWilliam": 4660,
      "ishes": 4661,
      "ĠWater": 4662,
      "Ġearth": 4663,
      "Ġunc": 4664,
      "Ġcasino": 4665,
      "Ġunits": 4666,
      "aming": 4667,
      "Ġthus": 4668,
      "ĠBecause": 4669,
      "ona": 4670,
      "ĠOF": 4671,
      "Ġexcited": 4672,
      "ĠSa": 4673,
      "Ġdescribed": 4674,
      "Ġveget": 4675,
      "Ġfees": 4676,
      "ĠUs": 4677,
      "ĠLord": 4678,
      "Ġindependent": 4679,
      "ĠFore": 4680,
      "ĠIsrael": 4681,
      "Ġfantastic": 4682,
      "Ġ70": 4683,
      "leg": 4684,
      "Ġwhatever": 4685,
      "Ġsnow": 4686,
      "icken": 4687,
      "Ġfem": 4688,
      "Ġsets": 4689,
      "ĠEngine": 4690,
      "Ġmagn": 4691,
      "Ġforeign": 4692,
      "Ġegg": 4693,
      "Ġfocused": 4694,
      "Ġmeant": 4695,
      "Ġdiagn": 4696,
      "ĠMart": 4697,
      "Ġprincip": 4698,
      "ĠJer": 4699,
      "Ġopened": 4700,
      "Ġbird": 4701,
      "ĠDirector": 4702,
      "Ġshowing": 4703,
      "Ġmanager": 4704,
      "Ġrecipe": 4705,
      "Ġremind": 4706,
      "itar": 4707,
      "ĠChristian": 4708,
      "ores": 4709,
      "Ġfederal": 4710,
      "Ġsea": 4711,
      "Ġvalid": 4712,
      "Ġrecip": 4713,
      "Ġdoctor": 4714,
      "Ġoperation": 4715,
      "craft": 4716,
      "Ġtrail": 4717,
      "DA": 4718,
      "Ġspect": 4719,
      "Ġremains": 4720,
      "Ġrecords": 4721,
      "Ġsounds": 4722,
      "ship": 4723,
      "Ġselling": 4724,
      "Ġindic": 4725,
      "OW": 4726,
      "oma": 4727,
      "Ġplastic": 4728,
      "Ġdistance": 4729,
      "arge": 4730,
      "ĠSur": 4731,
      "Ġruns": 4732,
      "Ġdinner": 4733,
      "Ġbul": 4734,
      "ĠPhot": 4735,
      "ĠCam": 4736,
      "Ġdump": 4737,
      "Ġalternative": 4738,
      "Ġrain": 4739,
      "anta": 4740,
      "Ġcaused": 4741,
      "ĠApple": 4742,
      "Ġpair": 4743,
      "ror": 4744,
      "Ġdecl": 4745,
      "gment": 4746,
      "Ġupgra": 4747,
      "ĠUSA": 4748,
      "Ġhttp": 4749,
      "ĠWord": 4750,
      "ĠCheck": 4751,
      "Ġnovel": 4752,
      "Ġswitch": 4753,
      "ĠSing": 4754,
      "33": 4755,
      "ÑĤ": 4756,
      "Ġlock": 4757,
      "Ġlose": 4758,
      "Ġadapt": 4759,
      "Ġwebsites": 4760,
      "Ġexciting": 4761,
      "Ġmarkets": 4762,
      "nesday": 4763,
      "Ġdining": 4764,
      "vere": 4765,
      "Ġframe": 4766,
      "ĠAlthough": 4767,
      "ĠPR": 4768,
      "Ġfabric": 4769,
      "Ġ31": 4770,
      "ĠAnge": 4771,
      "Ġbought": 4772,
      "Ġabsolutely": 4773,
      "Ġdu": 4774,
      "ĠVis": 4775,
      "Ġminimum": 4776,
      "Ġenjoyed": 4777,
      "ĠThursday": 4778,
      "ĠMary": 4779,
      "ĠLife": 4780,
      "Ġperformed": 4781,
      "Ġteachers": 4782,
      "Ġaffordable": 4783,
      "Ġmajority": 4784,
      "Ġexpress": 4785,
      "iration": 4786,
      "Ġminute": 4787,
      "Ġmenu": 4788,
      "Ġtoward": 4789,
      "Ġpresence": 4790,
      "ferences": 4791,
      "issions": 4792,
      "ifts": 4793,
      "ĠArch": 4794,
      "Ġworry": 4795,
      "Ġfacility": 4796,
      "iliar": 4797,
      "ĠEducation": 4798,
      "Ġdim": 4799,
      "ructure": 4800,
      "ĠRock": 4801,
      "usher": 4802,
      "Ġ?": 4803,
      "Ġleadership": 4804,
      "Ġcompar": 4805,
      "ette": 4806,
      "ĠPower": 4807,
      "oe": 4808,
      "Ġproperly": 4809,
      "Ġspending": 4810,
      "ĠCong": 4811,
      "ooper": 4812,
      "29": 4813,
      "Ġsav": 4814,
      "Ġbrother": 4815,
      "ĠSoc": 4816,
      "Ġmort": 4817,
      "NA": 4818,
      "Ġchair": 4819,
      "Ġanimals": 4820,
      "Ġpresident": 4821,
      "Ġcorner": 4822,
      "Ġinstalled": 4823,
      "going": 4824,
      "Ġpanel": 4825,
      "Ġstone": 4826,
      "Ġposts": 4827,
      "Ġassistance": 4828,
      "Ġclaims": 4829,
      "osis": 4830,
      "Ġrecommended": 4831,
      "iled": 4832,
      "Ġextensive": 4833,
      "ĠVe": 4834,
      "oman": 4835,
      "Ġcatch": 4836,
      "ĠSal": 4837,
      "alls": 4838,
      "tion": 4839,
      "Ġsch": 4840,
      "Ġdaughter": 4841,
      "ÑĢ": 4842,
      "Ġconcent": 4843,
      "ĠNews": 4844,
      "uled": 4845,
      "Ġcompl": 4846,
      "Ġcomprehens": 4847,
      "Ġknows": 4848,
      "mail": 4849,
      "icians": 4850,
      "ifying": 4851,
      "Ñģ": 4852,
      "Ġmanaged": 4853,
      "Ġwindows": 4854,
      "Ġsouth": 4855,
      "Ġdesk": 4856,
      "ĠUse": 4857,
      "Ġcontinues": 4858,
      "Ġartists": 4859,
      "Ġbrings": 4860,
      "ĠHy": 4861,
      "Ġpolicies": 4862,
      "Ġrelationships": 4863,
      "bl": 4864,
      "Ġcorporate": 4865,
      "ĠPlay": 4866,
      "Ġsem": 4867,
      "Ġdetailed": 4868,
      "olic": 4869,
      "amily": 4870,
      "emporary": 4871,
      "Ġsuitable": 4872,
      "Ġinjury": 4873,
      "ĠScience": 4874,
      "Ġawesome": 4875,
      "Ġeth": 4876,
      "ĠSun": 4877,
      "inct": 4878,
      "estic": 4879,
      "Ġsym": 4880,
      "Ġguess": 4881,
      "ĠMal": 4882,
      "aj": 4883,
      "gal": 4884,
      "yer": 4885,
      "IV": 4886,
      "ĠTuesday": 4887,
      "Ġteacher": 4888,
      "Ġdebt": 4889,
      "essions": 4890,
      "fficient": 4891,
      "ĠJames": 4892,
      "Ġlocations": 4893,
      "Ġtransform": 4894,
      "uce": 4895,
      "Ġdistrict": 4896,
      "Ġconcerns": 4897,
      "Ġwalking": 4898,
      "arrant": 4899,
      "Ġcomponents": 4900,
      "Ġingredients": 4901,
      "ĠLove": 4902,
      "Ġhospital": 4903,
      "Thanks": 4904,
      "Ġscale": 4905,
      "iers": 4906,
      "Ġsugar": 4907,
      "Ġreference": 4908,
      "Ġdied": 4909,
      "aven": 4910,
      "ĠTy": 4911,
      "Ġwouldn": 4912,
      "Ġallowing": 4913,
      "Ġton": 4914,
      "point": 4915,
      "ĠClick": 4916,
      "Ġtow": 4917,
      "men": 4918,
      "Ġupdated": 4919,
      "Ġenvironmental": 4920,
      "ĠTrump": 4921,
      "Ġstarts": 4922,
      "obile": 4923,
      "Ġleaves": 4924,
      "Ġtopic": 4925,
      "Ġthrow": 4926,
      "PA": 4927,
      "Ġthoughts": 4928,
      "Ġride": 4929,
      "Ġleaving": 4930,
      "ĠRich": 4931,
      "ĠID": 4932,
      "Ġstrategies": 4933,
      "Ġclosed": 4934,
      "rete": 4935,
      "Ġjoint": 4936,
      "Don": 4937,
      "ĠVol": 4938,
      "Ġlovely": 4939,
      "Ġì": 4940,
      "vention": 4941,
      "Ġpreviously": 4942,
      "Ġclearly": 4943,
      "Ġillust": 4944,
      "ĠSl": 4945,
      "ĠIsland": 4946,
      "osition": 4947,
      "Ġstores": 4948,
      "Ġtypically": 4949,
      "Ġhonest": 4950,
      "Ġpal": 4951,
      "Ġvehicles": 4952,
      "44": 4953,
      "Ġ35": 4954,
      "ĠEngland": 4955,
      "Ġ=": 4956,
      "Ġtrees": 4957,
      "outhern": 4958,
      "Ġprovider": 4959,
      "ĠSil": 4960,
      "Ġdepartment": 4961,
      "Ġregistered": 4962,
      "ĠOpen": 4963,
      "ĠPeople": 4964,
      "Ġfol": 4965,
      "bed": 4966,
      "Ġapproximately": 4967,
      "Ġfilled": 4968,
      "ĠChild": 4969,
      "ĠWood": 4970,
      "Ġagency": 4971,
      "den": 4972,
      "Ġ2007": 4973,
      "Ġfuel": 4974,
      "ront": 4975,
      "Ġdram": 4976,
      "Ġsenior": 4977,
      "Ġwww": 4978,
      "ĠCommission": 4979,
      "Ġcitiz": 4980,
      "reek": 4981,
      "Ġfunding": 4982,
      "Ġwilling": 4983,
      "inating": 4984,
      "Ġquant": 4985,
      "ĠSom": 4986,
      "Ġspecies": 4987,
      "Ġeating": 4988,
      "Ġexpertise": 4989,
      "Ġedge": 4990,
      "pid": 4991,
      "ĠCustom": 4992,
      "Ġshowed": 4993,
      "Ġcities": 4994,
      "log": 4995,
      "ĠCur": 4996,
      "ĠRepublic": 4997,
      "ĠCommit": 4998,
      "isco": 4999,
      "ocolate": 5000,
      "ĠLear": 5001,
      "ĠWednesday": 5002,
      "Ġrestrict": 5003,
      "rim": 5004,
      "Ġactions": 5005,
      "ĠPublic": 5006,
      "ampions": 5007,
      "pond": 5008,
      "ĠOnline": 5009,
      "ĠEv": 5010,
      "CH": 5011,
      "bour": 5012,
      "ĠCamp": 5013,
      "igence": 5014,
      "Ġsquare": 5015,
      "Ġinternal": 5016,
      "Ġvan": 5017,
      "Ġbusy": 5018,
      "Ġresponsibility": 5019,
      "hi": 5020,
      "ĠCall": 5021,
      "Ġserving": 5022,
      "Ġgeneration": 5023,
      "rian": 5024,
      "Ġder": 5025,
      "Ġexchange": 5026,
      "Ġdial": 5027,
      "New": 5028,
      "Ġcontroll": 5029,
      "Ġship": 5030,
      "She": 5031,
      "Ġpredict": 5032,
      "Some": 5033,
      "rd": 5034,
      "Ġcentre": 5035,
      "Ġbattery": 5036,
      "Ġslightly": 5037,
      "Ġmanner": 5038,
      "uty": 5039,
      "Ġgirl": 5040,
      "Ġpractical": 5041,
      "how": 5042,
      "ĠTop": 5043,
      "Ġcart": 5044,
      "Ġcombined": 5045,
      "Ġnorth": 5046,
      "ĠDevelopment": 5047,
      "Ġelement": 5048,
      "Ġju": 5049,
      "Ġshipping": 5050,
      "uries": 5051,
      "state": 5052,
      "Ġenhance": 5053,
      "Ġspl": 5054,
      "Ġaspects": 5055,
      "Ġlaun": 5056,
      "Ġdepos": 5057,
      "fol": 5058,
      "night": 5059,
      "paper": 5060,
      "ĠTO": 5061,
      "Ġseat": 5062,
      "Ġbehavior": 5063,
      "life": 5064,
      "ĠJour": 5065,
      "ander": 5066,
      "Ġimportance": 5067,
      "Ġraised": 5068,
      "âĢ²": 5069,
      "Des": 5070,
      "LC": 5071,
      "ĠBig": 5072,
      "rab": 5073,
      "Ġdepending": 5074,
      "Ġcrow": 5075,
      "Ġthick": 5076,
      "Ġseek": 5077,
      "Ġtechnologies": 5078,
      "ĠStar": 5079,
      "Ġsecret": 5080,
      "Ġneighbor": 5081,
      "Ġvote": 5082,
      "Ð½": 5083,
      "Ġdiscussion": 5084,
      "antic": 5085,
      "ĠCap": 5086,
      "Ġappears": 5087,
      "Ġaccompl": 5088,
      "Ġerror": 5089,
      "Ġbon": 5090,
      "ĠAC": 5091,
      "ĠElect": 5092,
      "poses": 5093,
      "Ġlabor": 5094,
      "Ġcategory": 5095,
      "Ġrid": 5096,
      "omet": 5097,
      "ĠFoundation": 5098,
      "unction": 5099,
      "SS": 5100,
      "ĠMill": 5101,
      "Ġcontext": 5102,
      "Ġprepare": 5103,
      "ĠAND": 5104,
      "Ġsurvey": 5105,
      "Ġputting": 5106,
      "tered": 5107,
      "Ġelim": 5108,
      "Ġconduct": 5109,
      "itness": 5110,
      "Ġunless": 5111,
      "hab": 5112,
      "amin": 5113,
      "ĠSum": 5114,
      "ipl": 5115,
      "Ġfavour": 5116,
      "ĠAM": 5117,
      "Ġlaws": 5118,
      "ĠPet": 5119,
      "Ġfootball": 5120,
      "Ġnegative": 5121,
      "Ġcivil": 5122,
      "Ġdynam": 5123,
      "osen": 5124,
      "Ġargu": 5125,
      "Ġleads": 5126,
      "Ġlisten": 5127,
      "Ġtrading": 5128,
      "Ġmental": 5129,
      "Ġspecifically": 5130,
      "ĠSam": 5131,
      "no": 5132,
      "Ġcris": 5133,
      "nel": 5134,
      "Ġdisp": 5135,
      "uman": 5136,
      "Why": 5137,
      "Ġinfo": 5138,
      "ĠOh": 5139,
      "Ġinnovative": 5140,
      "ĠJew": 5141,
      "ivered": 5142,
      "Ġphotograph": 5143,
      "Ġconsid": 5144,
      "Ġmostly": 5145,
      "Ġcircum": 5146,
      "Ġindustrial": 5147,
      "Ġhar": 5148,
      "fin": 5149,
      "ĠHel": 5150,
      "Ġreliable": 5151,
      "ya": 5152,
      "prise": 5153,
      "Ġourselves": 5154,
      "ĠBeach": 5155,
      "ÂŃ": 5156,
      "IA": 5157,
      "known": 5158,
      "mes": 5159,
      "lor": 5160,
      "Ġguys": 5161,
      "From": 5162,
      "Ġinterior": 5163,
      "Ġchemical": 5164,
      "Can": 5165,
      "Ġjournal": 5166,
      "Ġjoined": 5167,
      "azine": 5168,
      "Ġautomatically": 5169,
      "Ġwatching": 5170,
      "Ġfeedback": 5171,
      "oles": 5172,
      "oration": 5173,
      "ĠProfess": 5174,
      "water": 5175,
      "ĠGlo": 5176,
      "IR": 5177,
      "Se": 5178,
      "ĠIts": 5179,
      "Ġparking": 5180,
      "pan": 5181,
      "Ġdrink": 5182,
      "Ar": 5183,
      "ĠHist": 5184,
      "Ġfruit": 5185,
      "aser": 5186,
      "Ġacademic": 5187,
      "Ġhyd": 5188,
      "Ġscene": 5189,
      "Ġchoices": 5190,
      "ĠCD": 5191,
      "Ġ196": 5192,
      "rics": 5193,
      "Ġdoors": 5194,
      "ĠMex": 5195,
      "Ġended": 5196,
      "Ġquot": 5197,
      "illa": 5198,
      "Ġswim": 5199,
      "Ġdelicious": 5200,
      "Ġfunctions": 5201,
      "orthern": 5202,
      "mal": 5203,
      "ĠBre": 5204,
      "outs": 5205,
      "Ġign": 5206,
      "Ġvolume": 5207,
      "Ġpurposes": 5208,
      "ĠTheir": 5209,
      "Ġjump": 5210,
      "ĠLight": 5211,
      "ĠRel": 5212,
      "Ġsport": 5213,
      "Con": 5214,
      "Ġarticles": 5215,
      "Ġprot": 5216,
      "rive": 5217,
      "rier": 5218,
      "ĠTur": 5219,
      "PR": 5220,
      "Ġlunch": 5221,
      "Ġdatabase": 5222,
      "cean": 5223,
      "Ġdeals": 5224,
      "ĠAmazon": 5225,
      "umin": 5226,
      "ĠLo": 5227,
      "ĠGrand": 5228,
      "Ġanc": 5229,
      "Ġteach": 5230,
      "By": 5231,
      "Ġaccident": 5232,
      "Thank": 5233,
      "ĠCentral": 5234,
      "Ġseconds": 5235,
      "Ġinstance": 5236,
      "Ġgoods": 5237,
      "Ġmotiv": 5238,
      "Ġpromote": 5239,
      "ĠPM": 5240,
      "Ġclimate": 5241,
      "ĠPay": 5242,
      "Ġbrands": 5243,
      "rain": 5244,
      "Ġaudio": 5245,
      "Ġnotes": 5246,
      "Ġpoly": 5247,
      "Ġproceed": 5248,
      "with": 5249,
      "32": 5250,
      "ĠMichael": 5251,
      "ĠCommunity": 5252,
      "Ġprofile": 5253,
      "ĠCommittee": 5254,
      "Ġcommitted": 5255,
      "Ġappeal": 5256,
      "Ġrub": 5257,
      "BA": 5258,
      "Ġaccounts": 5259,
      "Ġ500": 5260,
      "ĠÃ": 5261,
      "ĠBen": 5262,
      "ĠBlue": 5263,
      "ilit": 5264,
      "ups": 5265,
      "Ġcultural": 5266,
      "ĠFire": 5267,
      "36": 5268,
      "ĠMad": 5269,
      "ĠWall": 5270,
      "ĠStr": 5271,
      "Ġmeasures": 5272,
      "Ġguarantee": 5273,
      "Ġanywhere": 5274,
      "Ġparticipants": 5275,
      "ograp": 5276,
      "ĠSol": 5277,
      "ĠRoy": 5278,
      "Ne": 5279,
      "eared": 5280,
      "ĠData": 5281,
      "cles": 5282,
      "ĠValley": 5283,
      "ĠMark": 5284,
      "Ġcomprehensive": 5285,
      "Ġgirls": 5286,
      "ae": 5287,
      "Ġattor": 5288,
      "Not": 5289,
      "Ġproviders": 5290,
      "Ġarm": 5291,
      "Ġtickets": 5292,
      "ĠMot": 5293,
      "gn": 5294,
      "Ġsuit": 5295,
      "ĠGovernment": 5296,
      "Ġtea": 5297,
      "ĠBill": 5298,
      "ĠPhil": 5299,
      "CA": 5300,
      "Ġsongs": 5301,
      "55": 5302,
      "ki": 5303,
      "Ġtast": 5304,
      "ĠMusic": 5305,
      "Ġisland": 5306,
      "ini": 5307,
      "Ġsupported": 5308,
      "Ġconfidence": 5309,
      "ĠToday": 5310,
      "Ġkid": 5311,
      "rastructure": 5312,
      "hent": 5313,
      "cohol": 5314,
      "Ġfamiliar": 5315,
      "Ġdelivered": 5316,
      "Ġradio": 5317,
      "Ġopinion": 5318,
      "ĠLou": 5319,
      "itz": 5320,
      "Ġcompetitive": 5321,
      "Ġdie": 5322,
      "ĠMaster": 5323,
      "Ġadults": 5324,
      "Ġrule": 5325,
      "inations": 5326,
      "Ġcoast": 5327,
      "Ġreached": 5328,
      "Ġlibrary": 5329,
      "Ġfaster": 5330,
      "Ġnor": 5331,
      "ĠMer": 5332,
      "DF": 5333,
      "Ġpremium": 5334,
      "BS": 5335,
      "othes": 5336,
      "ĠQue": 5337,
      "Ġinfluence": 5338,
      "cious": 5339,
      "Ġbrief": 5340,
      "Ġplug": 5341,
      "ĠThom": 5342,
      "Ġemp": 5343,
      "ola": 5344,
      "Ġsympt": 5345,
      "Ġboy": 5346,
      "Ġtotally": 5347,
      "win": 5348,
      "ĠBuild": 5349,
      "TH": 5350,
      "Ġshower": 5351,
      "ĠIP": 5352,
      "orough": 5353,
      "ĠAL": 5354,
      "Ġinput": 5355,
      "ĠRob": 5356,
      "Ġwinning": 5357,
      "ĠWork": 5358,
      "oor": 5359,
      "ĠMil": 5360,
      "press": 5361,
      "Ġoccup": 5362,
      "Ġmode": 5363,
      "ĠSociety": 5364,
      "ĠUnder": 5365,
      "ĠMain": 5366,
      "ĠVir": 5367,
      "Ġlad": 5368,
      "ĠSocial": 5369,
      "Ġsequ": 5370,
      "Ġlights": 5371,
      "Ġdecre": 5372,
      "Ġyouth": 5373,
      "but": 5374,
      "never": 5375,
      "Ġenable": 5376,
      "Ġinspired": 5377,
      "Ġdespite": 5378,
      "Ġemergency": 5379,
      "ste": 5380,
      "Ġresource": 5381,
      "Ġhousing": 5382,
      "ipp": 5383,
      "Ġmeal": 5384,
      "ĠSpecial": 5385,
      "Ġpoll": 5386,
      "akers": 5387,
      "Ġmissing": 5388,
      "Ġvaluable": 5389,
      "ĠCas": 5390,
      "Ġemployee": 5391,
      "Ġapproved": 5392,
      "Ġgather": 5393,
      "ĠMicrosoft": 5394,
      "Ġshut": 5395,
      "ĠInformation": 5396,
      "Ġflowers": 5397,
      "td": 5398,
      "ĠHill": 5399,
      "Ġlegis": 5400,
      "Ġgun": 5401,
      "Ġeducational": 5402,
      "umber": 5403,
      "Ġrise": 5404,
      "ĠTor": 5405,
      "Ġflight": 5406,
      "Ġasking": 5407,
      "ĠChic": 5408,
      "Ġven": 5409,
      "Ġrot": 5410,
      "Ġeventually": 5411,
      "Ġtun": 5412,
      "ano": 5413,
      "Ġremoved": 5414,
      "ĠDistrict": 5415,
      "Ġadvertising": 5416,
      "Ġreturned": 5417,
      "apos": 5418,
      "Ġap": 5419,
      "RA": 5420,
      "liance": 5421,
      "Ġreput": 5422,
      "Ġbrown": 5423,
      "Ġoutput": 5424,
      "ario": 5425,
      "Ġconsumers": 5426,
      "Ġchart": 5427,
      "Ġwarrant": 5428,
      "ĠTwitter": 5429,
      "Ġ45": 5430,
      "Ġcovers": 5431,
      "Ġconsumer": 5432,
      "Ġtrial": 5433,
      "Phone": 5434,
      "Ġpossibly": 5435,
      "95": 5436,
      "Le": 5437,
      "met": 5438,
      "34": 5439,
      "cap": 5440,
      "yal": 5441,
      "what": 5442,
      "ĠLike": 5443,
      "Ġsettings": 5444,
      "ĠDuring": 5445,
      "Ġintroduced": 5446,
      "Ġshap": 5447,
      "equ": 5448,
      "olars": 5449,
      "add": 5450,
      "Ġhearing": 5451,
      "ĠTime": 5452,
      "Are": 5453,
      "ĠAcadem": 5454,
      "net": 5455,
      "Ġsam": 5456,
      "Ġobl": 5457,
      "Ġbreakfast": 5458,
      "noon": 5459,
      "Ġbeat": 5460,
      "Ġcoord": 5461,
      "ĠTem": 5462,
      "ĠMiss": 5463,
      "Ġtherapy": 5464,
      "Ġliqu": 5465,
      "ifications": 5466,
      "Ġfixed": 5467,
      "Ġsimpl": 5468,
      "Ġbond": 5469,
      "ĠAndroid": 5470,
      "Ġbuildings": 5471,
      "idden": 5472,
      "Ġregister": 5473,
      "OD": 5474,
      "yc": 5475,
      "Ġupdates": 5476,
      "SA": 5477,
      "which": 5478,
      "Ġvary": 5479,
      "Ġconstruct": 5480,
      "Ġrestaurants": 5481,
      "gging": 5482,
      "ĠNor": 5483,
      "atin": 5484,
      "ĠWhether": 5485,
      "Ġspo": 5486,
      "Ġring": 5487,
      "friend": 5488,
      "list": 5489,
      "ĠFood": 5490,
      "Ġresolution": 5491,
      "Ġeffectively": 5492,
      "Ġmonthly": 5493,
      "Ġimproved": 5494,
      "Ġrapid": 5495,
      "ĠProject": 5496,
      "Ġfactor": 5497,
      "Ġinterests": 5498,
      "Ġepis": 5499,
      "38": 5500,
      "Ġrental": 5501,
      "Ġpump": 5502,
      "Ġsigned": 5503,
      "Ġfeels": 5504,
      "Ġexamples": 5505,
      "Ġlayer": 5506,
      "ĠConst": 5507,
      "reens": 5508,
      "Ġment": 5509,
      "Ġ2000": 5510,
      "Ġstret": 5511,
      "een": 5512,
      "roy": 5513,
      "Ġexplain": 5514,
      "OP": 5515,
      "Ġbound": 5516,
      "Ġboat": 5517,
      "Ġreaders": 5518,
      "cont": 5519,
      "ĠFind": 5520,
      "ĠBet": 5521,
      "ĠSecurity": 5522,
      "Ġsymb": 5523,
      "Ġanimal": 5524,
      "Ġiron": 5525,
      "ĠIde": 5526,
      "ĠSen": 5527,
      "Acc": 5528,
      "Ġthr": 5529,
      "ensions": 5530,
      "Ġintell": 5531,
      "spe": 5532,
      "Ġnav": 5533,
      "Just": 5534,
      "ĠFrance": 5535,
      "aturing": 5536,
      "ĠPress": 5537,
      "Ġtail": 5538,
      "Ġremote": 5539,
      "ĠAlex": 5540,
      "Ġraise": 5541,
      "mosp": 5542,
      "phas": 5543,
      "Ġintended": 5544,
      "Ġamb": 5545,
      "pected": 5546,
      "ENT": 5547,
      "Ġbutter": 5548,
      "Ġfields": 5549,
      "ĠBer": 5550,
      "Ġ2006": 5551,
      "Ġpaying": 5552,
      "eless": 5553,
      "ĠDet": 5554,
      "ricult": 5555,
      "ĠCentre": 5556,
      "Ġsides": 5557,
      "Ġdance": 5558,
      "Ġappreciate": 5559,
      "ums": 5560,
      "ĠUN": 5561,
      "ĠGerman": 5562,
      "Ġweak": 5563,
      "ĠColor": 5564,
      "Ġdesire": 5565,
      "gage": 5566,
      "lets": 5567,
      "ĠHD": 5568,
      "ucle": 5569,
      "Ġseemed": 5570,
      "Ġtests": 5571,
      "Ġapps": 5572,
      "ician": 5573,
      "Ġlighting": 5574,
      "En": 5575,
      "Ġresearc": 5576,
      "ĠDiv": 5577,
      "Ġdogs": 5578,
      "Ġfoods": 5579,
      "Ġremov": 5580,
      "Ġcalling": 5581,
      "Every": 5582,
      "Ġcircumst": 5583,
      "Ġreduced": 5584,
      "gl": 5585,
      "ĠReal": 5586,
      "while": 5587,
      "ĠCard": 5588,
      "olly": 5589,
      "Ġoccasion": 5590,
      "Ġdoubt": 5591,
      "estyle": 5592,
      "ĠTake": 5593,
      "ĠSto": 5594,
      "Ġcommitment": 5595,
      "Ġvisiting": 5596,
      "Ġregularly": 5597,
      "However": 5598,
      "ĠGermany": 5599,
      "Jo": 5600,
      "rome": 5601,
      "Ġannounce": 5602,
      "pon": 5603,
      "iance": 5604,
      "Ġelectronic": 5605,
      "jo": 5606,
      "ĠTeam": 5607,
      "Ġmanufacturing": 5608,
      "37": 5609,
      "Ġpurchased": 5610,
      "Ġrealize": 5611,
      "ius": 5612,
      "Ġconvenient": 5613,
      "Ġsample": 5614,
      "Ġkinds": 5615,
      "Ġefficiency": 5616,
      "Me": 5617,
      "urban": 5618,
      "Ġbringing": 5619,
      "Ġcooking": 5620,
      "Ġagent": 5621,
      "Ġsurgery": 5622,
      "39": 5623,
      "Ġsupplies": 5624,
      "Ġglad": 5625,
      "Ġer": 5626,
      "Ġsitting": 5627,
      "Get": 5628,
      "Ġlicense": 5629,
      "Ġcomplic": 5630,
      "Ġdiam": 5631,
      "ĠDownload": 5632,
      "Ġsigns": 5633,
      "Ġdish": 5634,
      "iest": 5635,
      "Ġmonit": 5636,
      "Ġdiscovered": 5637,
      "Ġvs": 5638,
      "ĠHave": 5639,
      "iner": 5640,
      "ĠTechnology": 5641,
      "Ġassets": 5642,
      "Ġinstructions": 5643,
      "Ġsurrounding": 5644,
      "Ġdrivers": 5645,
      "48": 5646,
      "Ġcutting": 5647,
      "Ġprocedure": 5648,
      "oga": 5649,
      "Ġclinical": 5650,
      "Ġadministration": 5651,
      "Ġseeking": 5652,
      "Ġsizes": 5653,
      "ulty": 5654,
      "Ġauto": 5655,
      "Ġtight": 5656,
      "Ġappearance": 5657,
      "Ġpin": 5658,
      "Ġlaunched": 5659,
      "ĠPan": 5660,
      "Ġuniversity": 5661,
      "Ġtransl": 5662,
      "Ġsalt": 5663,
      "OC": 5664,
      "Ġboost": 5665,
      "ĠMuseum": 5666,
      "Ġdomain": 5667,
      "Ġaccurate": 5668,
      "road": 5669,
      "kin": 5670,
      "odies": 5671,
      "Ġsignificantly": 5672,
      "ĠMatt": 5673,
      "Ġquiet": 5674,
      "ownt": 5675,
      "App": 5676,
      "Ġhundreds": 5677,
      "ĠJournal": 5678,
      "ĠOR": 5679,
      "Ġbike": 5680,
      "iveness": 5681,
      "Ġminor": 5682,
      "Ġsupporting": 5683,
      "Ġsaving": 5684,
      "isher": 5685,
      "Ġchoo": 5686,
      "Ġforg": 5687,
      "ĠAS": 5688,
      "Ġengineering": 5689,
      "Ġgrade": 5690,
      "ulous": 5691,
      "Ġperfectly": 5692,
      "Ġdistribution": 5693,
      "IF": 5694,
      "Ġguest": 5695,
      "Ġholding": 5696,
      "Ġadvis": 5697,
      "upp": 5698,
      "athe": 5699,
      "Ġdetermined": 5700,
      "ĠStand": 5701,
      "Ġaid": 5702,
      "hetic": 5703,
      "Ġconflic": 5704,
      "Ġâ": 5705,
      "Ġgreatest": 5706,
      "prene": 5707,
      "Ġagg": 5708,
      "luding": 5709,
      "riage": 5710,
      "rition": 5711,
      "Ġchosen": 5712,
      "Ġrecovery": 5713,
      "berg": 5714,
      "Ġmanual": 5715,
      "ĠUnion": 5716,
      "rag": 5717,
      "Ġcharges": 5718,
      "ĠTown": 5719,
      "Ġknowing": 5720,
      "Ġincredible": 5721,
      "Ġphil": 5722,
      "Ġwalls": 5723,
      "Ġrevenue": 5724,
      "zen": 5725,
      "Ġappointment": 5726,
      "ĠYes": 5727,
      "ĠNY": 5728,
      "ĠTom": 5729,
      "Ġconfirm": 5730,
      "aught": 5731,
      "Ġcauses": 5732,
      "Ġtopics": 5733,
      "adian": 5734,
      "Ġcarried": 5735,
      "Ġfulf": 5736,
      "ibilities": 5737,
      "Ġafternoon": 5738,
      "ĠBack": 5739,
      "Ġcreation": 5740,
      "alian": 5741,
      "iat": 5742,
      "ĠBoth": 5743,
      "Ġwhom": 5744,
      "Ġmine": 5745,
      "cher": 5746,
      "Ġec": 5747,
      "Ġhouses": 5748,
      "reprene": 5749,
      "anish": 5750,
      "Ġparticipate": 5751,
      "Ġpresentation": 5752,
      "Ġcommand": 5753,
      "Ġwheel": 5754,
      "Ġlived": 5755,
      "ĠMel": 5756,
      "respond": 5757,
      "Once": 5758,
      "ĠiPhone": 5759,
      "Ġtasks": 5760,
      "Ĥ¬": 5761,
      "eper": 5762,
      "Ġfailure": 5763,
      "otic": 5764,
      "Ġfly": 5765,
      "Ġroute": 5766,
      "ĠYOU": 5767,
      "ait": 5768,
      "ĠEarth": 5769,
      "Ġneck": 5770,
      "Ġchocolate": 5771,
      "Ġreplacement": 5772,
      "ĠCarol": 5773,
      "rip": 5774,
      "ĠLim": 5775,
      "Ġnurs": 5776,
      "ĠMass": 5777,
      "orter": 5778,
      "Ð¾Ð": 5779,
      "Ġtables": 5780,
      "Ġchain": 5781,
      "loc": 5782,
      "Ġhire": 5783,
      "Ġforest": 5784,
      "Ġ>": 5785,
      "Ġinfrastructure": 5786,
      "Ġfreed": 5787,
      "Ġperspective": 5788,
      "van": 5789,
      "Ġregistration": 5790,
      "aste": 5791,
      "etime": 5792,
      "Ġportion": 5793,
      "pass": 5794,
      "ĠNOT": 5795,
      "edy": 5796,
      "ĠTwo": 5797,
      "agra": 5798,
      "Ġconsequ": 5799,
      "âĢĻ.": 5800,
      "bre": 5801,
      "Ġprotein": 5802,
      "ĠEnter": 5803,
      "Ġatmosp": 5804,
      "Ġplate": 5805,
      "alog": 5806,
      "ĠRad": 5807,
      "Ġcop": 5808,
      "amic": 5809,
      "ĠParty": 5810,
      "Ġcheese": 5811,
      "ĠIndust": 5812,
      "Ġben": 5813,
      "Ġcontra": 5814,
      "ĠChicago": 5815,
      "Ġburn": 5816,
      "Ġconsidering": 5817,
      "Ġdelight": 5818,
      "Ġuns": 5819,
      "Ġowned": 5820,
      "Ġscript": 5821,
      "Ġremaining": 5822,
      "Ġsolar": 5823,
      "nect": 5824,
      "Ġjoy": 5825,
      "ita": 5826,
      "Ġtruck": 5827,
      "ĠWestern": 5828,
      "Ġassemb": 5829,
      "imately": 5830,
      "gged": 5831,
      "Ġneighborhood": 5832,
      "icial": 5833,
      "ĠHol": 5834,
      "Ġsymptoms": 5835,
      "TA": 5836,
      "Ġdecades": 5837,
      "Ġbattle": 5838,
      "Ġfle": 5839,
      "ĠMont": 5840,
      "Ġconversation": 5841,
      "Ġtrained": 5842,
      "ĠAtl": 5843,
      "Ġvir": 5844,
      "esterday": 5845,
      "ĠFranc": 5846,
      "Ġcoach": 5847,
      "Ġadministr": 5848,
      "Ġdating": 5849,
      "Ġmeat": 5850,
      "arp": 5851,
      "Ġsessions": 5852,
      "burg": 5853,
      "Ġproposed": 5854,
      "Ġassum": 5855,
      "Yes": 5856,
      "Ġchannel": 5857,
      "abled": 5858,
      "Ġteeth": 5859,
      "Ġguy": 5860,
      "Ġinteg": 5861,
      "Ġchicken": 5862,
      "Ġ*": 5863,
      "Sc": 5864,
      "Ġtrend": 5865,
      "ixture": 5866,
      "Ġtough": 5867,
      "Ġbelong": 5868,
      "ria": 5869,
      "Ġshares": 5870,
      "Ġvit": 5871,
      "Ġpure": 5872,
      "OV": 5873,
      "Ġissued": 5874,
      "elines": 5875,
      "Ġexcess": 5876,
      "ĠReview": 5877,
      "Ġidentified": 5878,
      "appy": 5879,
      "Ġmut": 5880,
      "Ġmilk": 5881,
      "Ġsurf": 5882,
      "Ġleather": 5883,
      "Ġpray": 5884,
      "Ġsole": 5885,
      "Ġ2005": 5886,
      "Ġfo": 5887,
      "Ġpayments": 5888,
      "Ġorders": 5889,
      "Cont": 5890,
      "Ġanswers": 5891,
      "ĠKore": 5892,
      "Ġunivers": 5893,
      "Ġprocedures": 5894,
      "Ġexternal": 5895,
      "ĠOld": 5896,
      "Ġperman": 5897,
      "Ġtreated": 5898,
      "Ġbigger": 5899,
      "Ġath": 5900,
      "LA": 5901,
      "Ġpatterns": 5902,
      "ĠCert": 5903,
      "ĠBi": 5904,
      "Ġgear": 5905,
      "uration": 5906,
      "Ġorganic": 5907,
      "Ġmail": 5908,
      "weet": 5909,
      "Ġpainting": 5910,
      "49": 5911,
      "nergy": 5912,
      "Ġemphas": 5913,
      "Ġreb": 5914,
      "Ġdollars": 5915,
      "Ġlicens": 5916,
      "ĠLtd": 5917,
      ");": 5918,
      "ĠPlus": 5919,
      "ĠHotel": 5920,
      "ĠCA": 5921,
      "Ġupload": 5922,
      "poration": 5923,
      "47": 5924,
      "ĠDig": 5925,
      "ushed": 5926,
      "ĠFil": 5927,
      "ially": 5928,
      "Ġplays": 5929,
      "Ġlabel": 5930,
      "ĠOrgan": 5931,
      "ĠMedical": 5932,
      "Ġsheet": 5933,
      "Ġbroken": 5934,
      "Ġbirthday": 5935,
      "Ġyes": 5936,
      "ĠBur": 5937,
      "erves": 5938,
      "Ġhousehold": 5939,
      "uality": 5940,
      "Ġreceiving": 5941,
      "Ġaffected": 5942,
      "????": 5943,
      "Ġcontemporary": 5944,
      "ĠSmith": 5945,
      "Ġmal": 5946,
      "Ġcarefully": 5947,
      "Ġarrived": 5948,
      "Ġreasonable": 5949,
      "Ġsuccessfully": 5950,
      "hus": 5951,
      "anged": 5952,
      "Ġcompr": 5953,
      "Ġbread": 5954,
      "ĠCongress": 5955,
      "Ġmatters": 5956,
      "ef": 5957,
      "Ġinvestors": 5958,
      "hand": 5959,
      "Ġcitizens": 5960,
      "Ġstanding": 5961,
      "Ġmouth": 5962,
      "orry": 5963,
      "Ġspaces": 5964,
      "Ġmachines": 5965,
      "ĠAward": 5966,
      "Ġassessment": 5967,
      "Ġofficials": 5968,
      "ĠFamily": 5969,
      "asp": 5970,
      "ĠLong": 5971,
      "Ġrenew": 5972,
      "Ø§": 5973,
      "ĠDi": 5974,
      "ĠGeorge": 5975,
      "uts": 5976,
      "Ġbegins": 5977,
      "xy": 5978,
      "inder": 5979,
      "oses": 5980,
      "Ġcrim": 5981,
      "Ġwriter": 5982,
      "ĠAfrican": 5983,
      "Ġ@": 5984,
      "Ġcake": 5985,
      "Ġhardware": 5986,
      "rum": 5987,
      "ket": 5988,
      "ĠMach": 5989,
      "dered": 5990,
      "ĠTour": 5991,
      "ĠLead": 5992,
      "Ġvillage": 5993,
      "Ġconstantly": 5994,
      "ĠArts": 5995,
      "Ġluxury": 5996,
      "Ġworldwide": 5997,
      "Ġwid": 5998,
      "iors": 5999,
      "ĠWal": 6000,
      "Ġholds": 6001,
      "Ġ32": 6002,
      "Ġstre": 6003,
      "UT": 6004,
      "ĠFund": 6005,
      "Ġaccepted": 6006,
      "Ġsupports": 6007,
      "Ġprepar": 6008,
      "Ġhistorical": 6009,
      "Ġsauce": 6010,
      "ĠGal": 6011,
      "ĠTre": 6012,
      "ĠShow": 6013,
      "Ġmessages": 6014,
      "Ġcandidates": 6015,
      "ĠExper": 6016,
      "Ġalcohol": 6017,
      "Ġhun": 6018,
      "Ġspr": 6019,
      "oti": 6020,
      "ĠRE": 6021,
      "fa": 6022,
      "Ġsituations": 6023,
      "ĠTest": 6024,
      "Ġped": 6025,
      "Ġimprovement": 6026,
      "Ġregul": 6027,
      "Ġ300": 6028,
      "working": 6029,
      "Ã¡": 6030,
      "atre": 6031,
      "Che": 6032,
      "irms": 6033,
      "Ġtut": 6034,
      "Since": 6035,
      "Ġrelatively": 6036,
      "Ġresidential": 6037,
      "Ġresol": 6038,
      "31": 6039,
      "ĠDa": 6040,
      "Ġscientific": 6041,
      "Ġrow": 6042,
      "Ġ3D": 6043,
      "Ġdefined": 6044,
      "ato": 6045,
      "Ġcrowd": 6046,
      "Ġicon": 6047,
      "ĠSet": 6048,
      "aked": 6049,
      "da": 6050,
      "ĠScott": 6051,
      "ĠVirgin": 6052,
      "Ġupper": 6053,
      "Ġacid": 6054,
      "66": 6055,
      "Any": 6056,
      "Ġbowl": 6057,
      "fection": 6058,
      "ĠAsia": 6059,
      "Ġshoes": 6060,
      "ache": 6061,
      "Ġauthent": 6062,
      "inn": 6063,
      "Ġagencies": 6064,
      "Ġfort": 6065,
      "ĠHosp": 6066,
      "Ġthread": 6067,
      "Ġawareness": 6068,
      "Ġelig": 6069,
      "Ġheight": 6070,
      "MA": 6071,
      "arrow": 6072,
      "ua": 6073,
      "ĠEU": 6074,
      "Ġtheory": 6075,
      "Ġconcerned": 6076,
      "ĠAtt": 6077,
      "Ġmel": 6078,
      "ĠVict": 6079,
      "Ġrecorded": 6080,
      "Ġends": 6081,
      "Ġmarried": 6082,
      "Ġinvolve": 6083,
      "Many": 6084,
      "ĠOnly": 6085,
      "Ġcrew": 6086,
      "ĠJapanese": 6087,
      "Ġkill": 6088,
      "Ġforces": 6089,
      "Ġprivacy": 6090,
      "Ġcro": 6091,
      "Ġplanned": 6092,
      "ĠWho": 6093,
      "Ġcorrespond": 6094,
      "Res": 6095,
      "eries": 6096,
      "ĠHead": 6097,
      "Ġvictim": 6098,
      "Ġur": 6099,
      "ilst": 6100,
      "iter": 6101,
      "lla": 6102,
      "Ġtwice": 6103,
      "Ġgrown": 6104,
      "Ġstated": 6105,
      "Ġstudio": 6106,
      "Ġcycle": 6107,
      "Ġsubmit": 6108,
      "Ġshel": 6109,
      "cuit": 6110,
      "Ġappeared": 6111,
      "hors": 6112,
      "Ġinspiration": 6113,
      "Ġkeeps": 6114,
      "Ġengage": 6115,
      "arsh": 6116,
      "ossible": 6117,
      "Ġexpectations": 6118,
      "erry": 6119,
      "Ġdegrees": 6120,
      "Ġstyles": 6121,
      "istan": 6122,
      "Ġloves": 6123,
      "Ġemployment": 6124,
      "Ġconducted": 6125,
      "Ġdistinct": 6126,
      "Ġparam": 6127,
      "Ġfif": 6128,
      "Ġinvent": 6129,
      "ras": 6130,
      "Ġskill": 6131,
      "Ġconver": 6132,
      "Ġsubstant": 6133,
      "Ġexclusive": 6134,
      "Ġfrequently": 6135,
      "azz": 6136,
      "sm": 6137,
      "Ġfailed": 6138,
      "Ġloans": 6139,
      "ĠON": 6140,
      "ĠBud": 6141,
      "Ġnoted": 6142,
      "Ġsilver": 6143,
      "Ġthorough": 6144,
      "Ġprompt": 6145,
      "Ġcircumstances": 6146,
      "ĠLeague": 6147,
      "Ġfilter": 6148,
      "ighter": 6149,
      "igan": 6150,
      "Ġinstitutions": 6151,
      "ĠBrown": 6152,
      "ificate": 6153,
      "Ġanx": 6154,
      "ĠHam": 6155,
      "ndom": 6156,
      "Ġinterface": 6157,
      "ĠLu": 6158,
      "Ġaccessible": 6159,
      "ĠAccording": 6160,
      "Ġriver": 6161,
      "Ġnom": 6162,
      "Ġsymbol": 6163,
      "Ġfourth": 6164,
      "ĠInvest": 6165,
      "Ġtaught": 6166,
      "SE": 6167,
      "Ġticket": 6168,
      "Ġmeetings": 6169,
      "Ġdeck": 6170,
      "Ġsac": 6171,
      "SP": 6172,
      "ora": 6173,
      "ĠDen": 6174,
      "ĠMedia": 6175,
      "Ġbless": 6176,
      "ĠSand": 6177,
      "Ġroot": 6178,
      "Ġeleg": 6179,
      "dem": 6180,
      "Ġsyn": 6181,
      "Ġgarage": 6182,
      "UN": 6183,
      "Ġlandscape": 6184,
      "Ġintegrated": 6185,
      "ht": 6186,
      "Ġdefault": 6187,
      "Let": 6188,
      "ĠGlobal": 6189,
      "Ġrear": 6190,
      "Ġimpressive": 6191,
      "Ġpublish": 6192,
      "Ġhosting": 6193,
      "ĠContact": 6194,
      "Ġprofit": 6195,
      "acks": 6196,
      "erts": 6197,
      "Ġemotional": 6198,
      "Ġchat": 6199,
      "Ġdiverse": 6200,
      "ĠStart": 6201,
      "Ġmir": 6202,
      "77": 6203,
      "race": 6204,
      "Ġ1st": 6205,
      "Ġchallenging": 6206,
      "Ġsignal": 6207,
      "ĠOffic": 6208,
      "ii": 6209,
      "ĠKeep": 6210,
      "ĠLab": 6211,
      "ĠAddition": 6212,
      "ye": 6213,
      "igned": 6214,
      "Ġfacilit": 6215,
      "Ġalle": 6216,
      "ĠAustralian": 6217,
      "pes": 6218,
      "ĠSoft": 6219,
      "Ġinnovation": 6220,
      "ias": 6221,
      "Ġoutstanding": 6222,
      "ĠManager": 6223,
      "Ġsearching": 6224,
      "osite": 6225,
      "Ġease": 6226,
      "Ġmountain": 6227,
      "Ġspeaking": 6228,
      "Ġtypical": 6229,
      "Ġsevere": 6230,
      "ĠPeter": 6231,
      "Ġeveryday": 6232,
      "anges": 6233,
      "rid": 6234,
      "46": 6235,
      "west": 6236,
      "Ġimagine": 6237,
      "Ġfeatured": 6238,
      "Ġregional": 6239,
      "ĠAud": 6240,
      "ĠCEO": 6241,
      "Ġcompens": 6242,
      "Ġmassive": 6243,
      "Ġflexible": 6244,
      "ĠBas": 6245,
      "Sp": 6246,
      "oop": 6247,
      "lete": 6248,
      "ĠWhere": 6249,
      "Ġqualified": 6250,
      "ĠConference": 6251,
      "related": 6252,
      "Ġelection": 6253,
      "osh": 6254,
      "osoph": 6255,
      "Ġexecutive": 6256,
      "secut": 6257,
      "Ġmini": 6258,
      "Ġdestination": 6259,
      "Ġentr": 6260,
      "Bl": 6261,
      "Ġserves": 6262,
      "cknow": 6263,
      "Ġstunning": 6264,
      "Ġwealth": 6265,
      "Ġpositions": 6266,
      "Ġagreed": 6267,
      "Ġphase": 6268,
      "comes": 6269,
      "Ġentertainment": 6270,
      "Ġvital": 6271,
      "ĠMinister": 6272,
      "ĠPerson": 6273,
      "Ġbrowser": 6274,
      "Ġtransition": 6275,
      "Ġpun": 6276,
      "orable": 6277,
      "Ġcloser": 6278,
      "Ġdescription": 6279,
      "ĠOper": 6280,
      "Ġformed": 6281,
      "Ġmic": 6282,
      "ords": 6283,
      "ĠTherefore": 6284,
      "Ġfro": 6285,
      "Ġextended": 6286,
      "ĠLos": 6287,
      "Ġturns": 6288,
      "Ġfoundation": 6289,
      "Ġobjects": 6290,
      "ensity": 6291,
      "Â°": 6292,
      "onom": 6293,
      "Ġkick": 6294,
      "weight": 6295,
      "Ġang": 6296,
      "Ġcontrast": 6297,
      "Most": 6298,
      "First": 6299,
      "ĠCat": 6300,
      "Ste": 6301,
      "Ġking": 6302,
      "Ġequal": 6303,
      "PC": 6304,
      "igration": 6305,
      "Ġagents": 6306,
      "Ġdrugs": 6307,
      "ena": 6308,
      "you": 6309,
      "can": 6310,
      "elcome": 6311,
      "Ġyellow": 6312,
      "under": 6313,
      "Ġrail": 6314,
      "Another": 6315,
      "Ġtrouble": 6316,
      "Ġincl": 6317,
      "Ġnine": 6318,
      "Ġlifestyle": 6319,
      "Ġtemplate": 6320,
      "According": 6321,
      "Ġoperate": 6322,
      "orgeous": 6323,
      "Ġgolf": 6324,
      "Ġscheduled": 6325,
      "Ġrandom": 6326,
      "Ġcable": 6327,
      "Ġdiss": 6328,
      "Ġchoosing": 6329,
      "ĠProte": 6330,
      "Ġbelief": 6331,
      "Ġdepth": 6332,
      "anda": 6333,
      "ĠGall": 6334,
      "Ġclosely": 6335,
      "Ġsavings": 6336,
      "ework": 6337,
      "bur": 6338,
      "asts": 6339,
      "ĠThrough": 6340,
      "ĠIll": 6341,
      "Ġhealthcare": 6342,
      "Ġpm": 6343,
      "Ġmovies": 6344,
      "Ġtrig": 6345,
      "ĠEqu": 6346,
      "Ġrough": 6347,
      "Ġrisks": 6348,
      "Ġfemale": 6349,
      "Well": 6350,
      "Ġflag": 6351,
      "Ġimplementation": 6352,
      "Ġregulations": 6353,
      "othe": 6354,
      "ĠFlo": 6355,
      "Ġcaught": 6356,
      "ĠSeries": 6357,
      "rency": 6358,
      "Ġrecognized": 6359,
      "Ġvirtual": 6360,
      "Ġidentity": 6361,
      "ĠCy": 6362,
      "ĠAdv": 6363,
      "Ġweap": 6364,
      "Ġroutine": 6365,
      "CT": 6366,
      "Ġupcoming": 6367,
      "Ġentirely": 6368,
      "ĠLand": 6369,
      "Ġprogramme": 6370,
      "ĠFrank": 6371,
      "%.": 6372,
      "fortunately": 6373,
      "Ġinformed": 6374,
      "ĠSqu": 6375,
      "Ġaspect": 6376,
      "Ġrom": 6377,
      "Ġusual": 6378,
      "aren": 6379,
      "Ġmoist": 6380,
      "Ġast": 6381,
      "Ġadventure": 6382,
      "ĠTim": 6383,
      "].": 6384,
      "Ġfreedom": 6385,
      "Ġprotected": 6386,
      "ĠTable": 6387,
      "Ġtab": 6388,
      "Ġconcrete": 6389,
      "Ġtiss": 6390,
      "Ġnearby": 6391,
      "idays": 6392,
      "mond": 6393,
      "Ġmotion": 6394,
      "Ġprop": 6395,
      "Ġpregn": 6396,
      "Ġeditor": 6397,
      "Ġcooper": 6398,
      "Ġgro": 6399,
      "Ġwitness": 6400,
      "Ġapartment": 6401,
      "II": 6402,
      "away": 6403,
      "Ġsou": 6404,
      "Ġjack": 6405,
      "Ġdumpster": 6406,
      "ĠDou": 6407,
      "ĠItalian": 6408,
      "ĠWil": 6409,
      "Ġadvoc": 6410,
      "ĠSpring": 6411,
      "ĠNetwork": 6412,
      "Ġreturns": 6413,
      "Ġmedicine": 6414,
      "Ġhorse": 6415,
      "Ġcreates": 6416,
      "Ġcapable": 6417,
      "Ġfavourite": 6418,
      "ĠList": 6419,
      "Ġairport": 6420,
      "ĠRussian": 6421,
      "ĠMP": 6422,
      "Ġ2004": 6423,
      "Ġincreases": 6424,
      "Ġ36": 6425,
      "SC": 6426,
      "Ġtechnique": 6427,
      "pret": 6428,
      "look": 6429,
      "Ġcarbon": 6430,
      "Ġstars": 6431,
      "ushing": 6432,
      "vi": 6433,
      "Ġpharm": 6434,
      "Ġvend": 6435,
      "Ġfeaturing": 6436,
      "Ġmoments": 6437,
      "ĠGen": 6438,
      "Ġadm": 6439,
      "umps": 6440,
      "EE": 6441,
      "alled": 6442,
      "Ġnative": 6443,
      "Ġmuseum": 6444,
      "Ġliquid": 6445,
      "Ġexpression": 6446,
      "Ġstands": 6447,
      "ĠInstead": 6448,
      "Ġcollected": 6449,
      "Ġoven": 6450,
      "Ġpersonally": 6451,
      "Ġworse": 6452,
      "Ġacknow": 6453,
      "itage": 6454,
      "arian": 6455,
      "Ġgifts": 6456,
      "Ġfacing": 6457,
      "ĠAcademy": 6458,
      "Ġrank": 6459,
      "wo": 6460,
      "Ġpil": 6461,
      "Ġmanufacturer": 6462,
      "Ġbanks": 6463,
      "Ġcommission": 6464,
      "Ġpassword": 6465,
      "ĠLouis": 6466,
      "Ġauthority": 6467,
      "ĠPass": 6468,
      "Ġresearchers": 6469,
      "Ġcomponent": 6470,
      "Pre": 6471,
      "Ġatmosphere": 6472,
      "Ġengagement": 6473,
      "Ġmissed": 6474,
      "Ġapparent": 6475,
      "ĠAdminist": 6476,
      "Ġstopped": 6477,
      "Ġmonitor": 6478,
      "Last": 6479,
      "stone": 6480,
      "ears": 6481,
      "Ġcertified": 6482,
      "Ġveter": 6483,
      "ĠWomen": 6484,
      "intage": 6485,
      "Ġsister": 6486,
      "ĠEconom": 6487,
      "Ġmixed": 6488,
      "Ġmonitoring": 6489,
      "Ġcollaboration": 6490,
      "Ġguidance": 6491,
      "irty": 6492,
      "Ġsupposed": 6493,
      "Ġdraft": 6494,
      "ĠCanadian": 6495,
      "Ġremoval": 6496,
      "Ġodd": 6497,
      "ĠTrust": 6498,
      "Ġorganis": 6499,
      "Ġretire": 6500,
      "liers": 6501,
      "ĠFestival": 6502,
      "Ġcrucial": 6503,
      "Ġnormally": 6504,
      "Ġdomestic": 6505,
      "Ġentreprene": 6506,
      "Ġcolumn": 6507,
      "Ġnetworks": 6508,
      "Ġpartnership": 6509,
      "made": 6510,
      "Ġelectrical": 6511,
      "Ġedition": 6512,
      "Ġreward": 6513,
      "Ġinches": 6514,
      "ĠAD": 6515,
      "umes": 6516,
      "car": 6517,
      "Ġarts": 6518,
      "endar": 6519,
      "Ġvast": 6520,
      "ĠProv": 6521,
      "Ġdental": 6522,
      "Ġkit": 6523,
      "Ġtrends": 6524,
      "Ġsan": 6525,
      "Ġdeploy": 6526,
      "irmed": 6527,
      "Ġkilled": 6528,
      "wing": 6529,
      "ĠDemocr": 6530,
      "ta": 6531,
      "Ġenthus": 6532,
      "Ġobtained": 6533,
      "orders": 6534,
      "Ġpicked": 6535,
      "ĠRoyal": 6536,
      "Ġclimb": 6537,
      "Ġvacation": 6538,
      "Ġconsistent": 6539,
      "Ġclassroom": 6540,
      "Ġexpenses": 6541,
      "ĠParis": 6542,
      "dden": 6543,
      "ansion": 6544,
      "Ġcharged": 6545,
      "pons": 6546,
      "Ġsurprise": 6547,
      "Ġarg": 6548,
      "Ġexceed": 6549,
      "Ġaffili": 6550,
      "Ġgenerate": 6551,
      "Ġhappening": 6552,
      "Ġdangerous": 6553,
      "ints": 6554,
      "Ġwet": 6555,
      "Ġnoticed": 6556,
      "Ġ48": 6557,
      "ala": 6558,
      "Ġmainly": 6559,
      "Ġdates": 6560,
      "Ġcelebrate": 6561,
      "ĠControl": 6562,
      "Ġdefense": 6563,
      "Ġtested": 6564,
      "Ġlessons": 6565,
      "aning": 6566,
      "ĠRussia": 6567,
      "ĠExt": 6568,
      "iked": 6569,
      "Ġages": 6570,
      "Ġdesigner": 6571,
      "Ke": 6572,
      "Ġorganized": 6573,
      "Ġshock": 6574,
      "Ġtelevision": 6575,
      "po": 6576,
      "Ġtom": 6577,
      "ĠRest": 6578,
      "Ġcrusher": 6579,
      "ĠEnergy": 6580,
      "ĠRobert": 6581,
      "edia": 6582,
      "Ġimproving": 6583,
      "Ġobvious": 6584,
      "ĠMA": 6585,
      "kers": 6586,
      "ĠNE": 6587,
      "Ġattached": 6588,
      "vy": 6589,
      "Ġerr": 6590,
      "merce": 6591,
      "Ġrein": 6592,
      "ĠThose": 6593,
      "Ġsky": 6594,
      "Ġunlike": 6595,
      "va": 6596,
      "Ġongoing": 6597,
      "ĠMexico": 6598,
      "Over": 6599,
      "Ġwinner": 6600,
      "ĠHand": 6601,
      "Ġequipped": 6602,
      "Ġsad": 6603,
      "ĠHuman": 6604,
      "uine": 6605,
      "ĠHim": 6606,
      "Ġsoil": 6607,
      "TC": 6608,
      "ĠAmericans": 6609,
      "Ġgrew": 6610,
      "Ġearned": 6611,
      "Ġbooking": 6612,
      "Ġtub": 6613,
      "folio": 6614,
      "ĠPack": 6615,
      "Ġdiscussed": 6616,
      "Ġscholars": 6617,
      "Ġstrategic": 6618,
      "Ġclothes": 6619,
      "Qu": 6620,
      "ĠFull": 6621,
      "han": 6622,
      "Ġmusical": 6623,
      "Ġindex": 6624,
      "Ġscr": 6625,
      "ĠMaybe": 6626,
      "oral": 6627,
      "ingly": 6628,
      "ĠJud": 6629,
      "Ġentered": 6630,
      "Ġwearing": 6631,
      "Ġdelay": 6632,
      "Ġpleased": 6633,
      "date": 6634,
      "ĠFurther": 6635,
      "Ġbonus": 6636,
      "Ġquote": 6637,
      "Ġturning": 6638,
      "aturally": 6639,
      "Ġinstruct": 6640,
      "Ġprecise": 6641,
      "yard": 6642,
      "REE": 6643,
      "Ġtells": 6644,
      "Ġurban": 6645,
      "Today": 6646,
      "Or": 6647,
      "abet": 6648,
      "case": 6649,
      "Ġcampus": 6650,
      "igr": 6651,
      "Ġtalent": 6652,
      "ĠRoom": 6653,
      "Ġresulting": 6654,
      "ĠCO": 6655,
      "ĠLast": 6656,
      "ideo": 6657,
      "front": 6658,
      "Ġsudden": 6659,
      "ĠHaw": 6660,
      "ban": 6661,
      "ĠCup": 6662,
      "Ġunable": 6663,
      "Ġarrest": 6664,
      "vate": 6665,
      "alle": 6666,
      "Ġmanaging": 6667,
      "Ġstain": 6668,
      "Ġconv": 6669,
      "Ġproof": 6670,
      "Ġinstrument": 6671,
      "yan": 6672,
      "ĠJose": 6673,
      "Ġexposure": 6674,
      "Ġ195": 6675,
      "enced": 6676,
      "Ġfishing": 6677,
      "Ġtransportation": 6678,
      "Ġbear": 6679,
      "ĠSecond": 6680,
      "Ġachieved": 6681,
      "Ġnucle": 6682,
      "ĠCode": 6683,
      "ĠWay": 6684,
      "ĠVer": 6685,
      "real": 6686,
      "resents": 6687,
      "kins": 6688,
      "ĠNov": 6689,
      "Ġspiritual": 6690,
      "ĠVictor": 6691,
      "Te": 6692,
      "Ġdesired": 6693,
      "CE": 6694,
      "Ġbes": 6695,
      "Ġancient": 6696,
      "Ġmere": 6697,
      "ĠAccess": 6698,
      "Ġsoul": 6699,
      "Ġgallery": 6700,
      "Ġattra": 6701,
      "ĠPac": 6702,
      "Im": 6703,
      "Ġshops": 6704,
      "Ġcute": 6705,
      "ĠÎ": 6706,
      "ĠUl": 6707,
      "Ġmembership": 6708,
      "Ġflood": 6709,
      "Ġcandidate": 6710,
      "Add": 6711,
      "Ġbeer": 6712,
      "Ġindeed": 6713,
      "Ġarchitecture": 6714,
      "Ġdownt": 6715,
      "Ġsight": 6716,
      "Ġreligious": 6717,
      "Ġtiny": 6718,
      "ĠBed": 6719,
      "ingu": 6720,
      "Ġundert": 6721,
      "rans": 6722,
      "Ġfiled": 6723,
      "Ġnone": 6724,
      "Ġrevealed": 6725,
      "GB": 6726,
      "Ġworkshop": 6727,
      "ĠChair": 6728,
      "Ġspeech": 6729,
      "05": 6730,
      "Ġprinted": 6731,
      "Ġ2003": 6732,
      "Ġwest": 6733,
      "eration": 6734,
      "ĠMiddle": 6735,
      "Ġversions": 6736,
      "Ġ!": 6737,
      "ĠSecret": 6738,
      "Ġdiscip": 6739,
      "ĠCost": 6740,
      "she": 6741,
      "Ġslot": 6742,
      "Ġfitness": 6743,
      "Ġmanufacturers": 6744,
      "ĠFair": 6745,
      "Ġdifferences": 6746,
      "Ġforth": 6747,
      "nament": 6748,
      "Ġsustainable": 6749,
      "Ġnegoti": 6750,
      "Tra": 6751,
      "Ġok": 6752,
      "ĠCH": 6753,
      "Ġyesterday": 6754,
      "Ġpapers": 6755,
      "ca": 6756,
      "Ġreporting": 6757,
      "Ġcapture": 6758,
      "luded": 6759,
      "Ġlinked": 6760,
      "eline": 6761,
      "Ġabsor": 6762,
      "Ġcontribute": 6763,
      "Ġhall": 6764,
      "roph": 6765,
      "ĠAR": 6766,
      "ĠThomas": 6767,
      "Ġpipe": 6768,
      "bi": 6769,
      "Ġcommunications": 6770,
      "rates": 6771,
      "Ġpossibility": 6772,
      "Ġphotograp": 6773,
      "ĠView": 6774,
      "Ġfairly": 6775,
      "Ġhang": 6776,
      "berry": 6777,
      "Ġconfident": 6778,
      "icit": 6779,
      "ãĢ": 6780,
      "Ġgrab": 6781,
      "cers": 6782,
      "Ġforced": 6783,
      "arks": 6784,
      "ĠiP": 6785,
      "Ġdynamic": 6786,
      "Ġphotography": 6787,
      "Ġplatforms": 6788,
      "Ġmur": 6789,
      "ĠBal": 6790,
      "ĠDev": 6791,
      "Ġpasseng": 6792,
      "ĠChildren": 6793,
      "ĠSP": 6794,
      "ĠCab": 6795,
      "Ġperforming": 6796,
      "Ġboys": 6797,
      "ĠAnother": 6798,
      "Ġfilms": 6799,
      "owing": 6800,
      "ĠIre": 6801,
      "tle": 6802,
      "Ġsufficient": 6803,
      "asant": 6804,
      "Ġrecognize": 6805,
      "Ġexplained": 6806,
      "odel": 6807,
      "Ġreputation": 6808,
      "Ġdisappoint": 6809,
      "Ġinvestigation": 6810,
      "Ġformal": 6811,
      "Ġsuggested": 6812,
      "Ġwhenever": 6813,
      "Ġpoker": 6814,
      "Am": 6815,
      "Ã¼": 6816,
      "42": 6817,
      "achel": 6818,
      "ĠSpanish": 6819,
      "ĠCoast": 6820,
      "Ġzone": 6821,
      "Ġletters": 6822,
      "Ġlapt": 6823,
      "cking": 6824,
      "Ġspons": 6825,
      "Ġtelling": 6826,
      "Ġ2nd": 6827,
      "Ġpill": 6828,
      "nic": 6829,
      "oston": 6830,
      "Have": 6831,
      "ĠCe": 6832,
      "ava": 6833,
      "Ġarrive": 6834,
      "ĠRev": 6835,
      "bles": 6836,
      "ĠExecut": 6837,
      "Ġimpossible": 6838,
      "Ġresistance": 6839,
      "Ġcompare": 6840,
      "Ġtall": 6841,
      "otton": 6842,
      "ether": 6843,
      "ĠEr": 6844,
      "Ġcos": 6845,
      "Ġcommittee": 6846,
      "?\"": 6847,
      "Ab": 6848,
      "Ġgraduate": 6849,
      "Ġauthors": 6850,
      "celer": 6851,
      "Ġaccessories": 6852,
      "oty": 6853,
      "ĠAngeles": 6854,
      "profit": 6855,
      "VD": 6856,
      "Ġtaxes": 6857,
      "Ġbags": 6858,
      "Ġstretch": 6859,
      "Ġpreparation": 6860,
      "Ġattorney": 6861,
      "gend": 6862,
      "Ġsolve": 6863,
      "Ġbottle": 6864,
      "Ġmeals": 6865,
      "Ġgrass": 6866,
      "rations": 6867,
      "Ġrepresents": 6868,
      "writ": 6869,
      "Ġstim": 6870,
      "ĠSite": 6871,
      "ĠCond": 6872,
      "ĠUsing": 6873,
      "uction": 6874,
      "ĠWild": 6875,
      "ĠLibrary": 6876,
      "Ġconstant": 6877,
      "ĠInte": 6878,
      "holders": 6879,
      "Also": 6880,
      "Ġtech": 6881,
      "Ġmixture": 6882,
      "ĠAT": 6883,
      "Ġtreatments": 6884,
      "Ġstored": 6885,
      "Ġoriginally": 6886,
      "Dr": 6887,
      "Ġdealing": 6888,
      "ĠGar": 6889,
      "ĠEnd": 6890,
      "Ġvisited": 6891,
      "Ġadds": 6892,
      "Ġtank": 6893,
      "Ġje": 6894,
      "ading": 6895,
      "Ġlistening": 6896,
      "Ġfolks": 6897,
      "Ġmortgage": 6898,
      "Ġproven": 6899,
      "ographic": 6900,
      "pat": 6901,
      "Ġclar": 6902,
      "ppers": 6903,
      "yers": 6904,
      "ĠArab": 6905,
      "85": 6906,
      "Ġofficer": 6907,
      "ĠOpt": 6908,
      "Ġincorpor": 6909,
      "Ġ75": 6910,
      "Ġjudge": 6911,
      "Ġimmediate": 6912,
      "ĠBath": 6913,
      "ĠFarm": 6914,
      "Ġtap": 6915,
      "ĠLog": 6916,
      "ailable": 6917,
      "ĠMid": 6918,
      "ĠCath": 6919,
      "Ġcounsel": 6920,
      "Ġgorgeous": 6921,
      "ĠBefore": 6922,
      "Ġchief": 6923,
      "Ġhero": 6924,
      "Ġrelief": 6925,
      "Ġextension": 6926,
      "ĠSaf": 6927,
      "ĠGame": 6928,
      "Ġoffices": 6929,
      "Ġbasket": 6930,
      "Ġcrisis": 6931,
      "terior": 6932,
      "Ġlogo": 6933,
      "elf": 6934,
      "Ġhur": 6935,
      "ĠDu": 6936,
      "astern": 6937,
      "illy": 6938,
      "stra": 6939,
      "MP": 6940,
      "Ġfasc": 6941,
      "gas": 6942,
      "erning": 6943,
      "ĠMic": 6944,
      "Ġmining": 6945,
      "Ġinch": 6946,
      "ĠItaly": 6947,
      "Ġflavor": 6948,
      "etry": 6949,
      "Click": 6950,
      "ĠHope": 6951,
      "Ġrecording": 6952,
      "Ġther": 6953,
      "Ġdust": 6954,
      "Ġenables": 6955,
      "FL": 6956,
      "ĠMen": 6957,
      "Ġinjuries": 6958,
      "Ġreferred": 6959,
      "Ġthin": 6960,
      "ĠAuthor": 6961,
      "Ġsuc": 6962,
      "Ġstructures": 6963,
      "Ġpod": 6964,
      "mary": 6965,
      "Ġsubsequ": 6966,
      "Ġfirms": 6967,
      "ĠKey": 6968,
      "oh": 6969,
      "Ġteen": 6970,
      "ĠCa": 6971,
      "Ġscan": 6972,
      "Ġreduction": 6973,
      "Ġevol": 6974,
      "Ġhistoric": 6975,
      "ĠFederal": 6976,
      "uzz": 6977,
      "izer": 6978,
      "ifies": 6979,
      "Ġcounty": 6980,
      "ĠBible": 6981,
      "Ind": 6982,
      "More": 6983,
      "asters": 6984,
      "ran": 6985,
      "Ġathlet": 6986,
      "Ġprimarily": 6987,
      "ĠAccount": 6988,
      "Ġanticip": 6989,
      "Ġshift": 6990,
      "ĠMax": 6991,
      "Ġvul": 6992,
      "build": 6993,
      "Ġindustries": 6994,
      "bra": 6995,
      "Ġplanet": 6996,
      "Ġtrave": 6997,
      "jection": 6998,
      "ĠPenn": 6999,
      "Ġfunctional": 7000,
      "Ġprinting": 7001,
      "Ġrice": 7002,
      "Ġspecialist": 7003,
      "ĠJim": 7004,
      "Although": 7005,
      "Ġavailability": 7006,
      "Ġattended": 7007,
      "LY": 7008,
      "itution": 7009,
      "Ġreplaced": 7010,
      "Ġamounts": 7011,
      "Ġfigures": 7012,
      "utch": 7013,
      "ĠTru": 7014,
      "Ġwidely": 7015,
      "Ġhabit": 7016,
      "Ġtransp": 7017,
      "inte": 7018,
      "Ġempt": 7019,
      "Hi": 7020,
      "ĠSar": 7021,
      "Ġfellow": 7022,
      "Ġdevelopers": 7023,
      "Ġfinance": 7024,
      "ĠTimes": 7025,
      "Ġclothing": 7026,
      "ura": 7027,
      "Ġsusp": 7028,
      "ĠCross": 7029,
      "Ġprinciples": 7030,
      "Ġinvited": 7031,
      "df": 7032,
      "ĠTerm": 7033,
      "level": 7034,
      "Ġsmile": 7035,
      "Ġord": 7036,
      "Ġexperiment": 7037,
      "Ġnarrow": 7038,
      "Ġsuperior": 7039,
      "Whe": 7040,
      "Ġlosing": 7041,
      "ĠSystems": 7042,
      "Ġordered": 7043,
      "ĠReport": 7044,
      "ĠApplic": 7045,
      "hem": 7046,
      "Ġyard": 7047,
      "ĠDC": 7048,
      "Ġcodes": 7049,
      "Ġenterprise": 7050,
      "Ġdescribe": 7051,
      "Ġfrust": 7052,
      "Ġweekly": 7053,
      "Ġtack": 7054,
      "agues": 7055,
      "Ġepisode": 7056,
      "Ġgard": 7057,
      "ĠCreat": 7058,
      "Ġrecipes": 7059,
      "agon": 7060,
      "Ġdepends": 7061,
      "quality": 7062,
      "Ġpricing": 7063,
      "ĠChief": 7064,
      "ulating": 7065,
      "Ġapplicable": 7066,
      "Ġhidden": 7067,
      "Ġtrick": 7068,
      "ĠScot": 7069,
      "Ġhotels": 7070,
      "Ġguitar": 7071,
      "quir": 7072,
      "Ġattractive": 7073,
      "class": 7074,
      "ĠVirginia": 7075,
      "ogue": 7076,
      "ĠMS": 7077,
      "isk": 7078,
      "Ġaccord": 7079,
      "Ġprove": 7080,
      "omin": 7081,
      "Ġrealized": 7082,
      "ev": 7083,
      "Ġfounded": 7084,
      "Ġchapter": 7085,
      "Ġhyp": 7086,
      "Ġtransaction": 7087,
      "Ġcommunicate": 7088,
      "ican": 7089,
      "Ġdispos": 7090,
      "ĠPrem": 7091,
      "Ġliked": 7092,
      "lements": 7093,
      "Ġdent": 7094,
      "Ġguard": 7095,
      "âĢĻ,": 7096,
      "Ġborder": 7097,
      "Ġdrawing": 7098,
      "Ġultimately": 7099,
      "plete": 7100,
      "Ġnoise": 7101,
      "ĠDoes": 7102,
      "Ġreducing": 7103,
      "Ġcharm": 7104,
      "Ġcapabilities": 7105,
      "ĠIreland": 7106,
      "Ġofficers": 7107,
      "ĠPlace": 7108,
      "Ġsmell": 7109,
      "ĠSign": 7110,
      "Ġpowder": 7111,
      "Ġcontro": 7112,
      "Ġrig": 7113,
      "Ġwash": 7114,
      "igure": 7115,
      "Ġenforce": 7116,
      "Ġpercentage": 7117,
      "Ġfacts": 7118,
      "iece": 7119,
      "Ġeligible": 7120,
      "iences": 7121,
      "Ġphen": 7122,
      "Ġbodies": 7123,
      "Ġconcl": 7124,
      "Bu": 7125,
      "Ġenem": 7126,
      "Ġinteract": 7127,
      "GE": 7128,
      "Ġdefend": 7129,
      "Ġestimated": 7130,
      "Ġduty": 7131,
      "rating": 7132,
      "Ġpursu": 7133,
      "ĠJul": 7134,
      "hire": 7135,
      "Ġultimate": 7136,
      "Press": 7137,
      "ĠVan": 7138,
      "Ġbrill": 7139,
      "ĠInstagram": 7140,
      "Ġinner": 7141,
      "Ġmuscle": 7142,
      "ĠCir": 7143,
      "?âĢĿ": 7144,
      "Ġseriously": 7145,
      "Ġcompliance": 7146,
      "Ġhandling": 7147,
      "UL": 7148,
      "Ġpassing": 7149,
      "zer": 7150,
      "ĠSpirit": 7151,
      "rich": 7152,
      "Ġsurprised": 7153,
      "Ġawarded": 7154,
      "Ġspin": 7155,
      "Ġillness": 7156,
      "reate": 7157,
      "iano": 7158,
      "Ġwireless": 7159,
      "Ġcriminal": 7160,
      "Ġsubmitted": 7161,
      "ĠMult": 7162,
      "Ġinn": 7163,
      "Ġsatisfaction": 7164,
      "neys": 7165,
      "âĢĭ": 7166,
      "ĠCR": 7167,
      "Ġgenuine": 7168,
      "Ġpermanent": 7169,
      "During": 7170,
      "Ġnutrition": 7171,
      "âĢĺ": 7172,
      "ĠCharl": 7173,
      "Ġsucceed": 7174,
      "Ġsaved": 7175,
      "____": 7176,
      "ĠHospital": 7177,
      "Ġvent": 7178,
      "alse": 7179,
      "HS": 7180,
      "ĠIsl": 7181,
      "ĠZeal": 7182,
      "ĠStep": 7183,
      "Ġmand": 7184,
      "ĠFort": 7185,
      "41": 7186,
      "ĠWebs": 7187,
      "Ġextent": 7188,
      "pel": 7189,
      "oured": 7190,
      "Ġbridge": 7191,
      "ĠDigital": 7192,
      "Ġboxes": 7193,
      "Ġscheme": 7194,
      "gor": 7195,
      "Ġrequests": 7196,
      "Ġgenerated": 7197,
      "Ġsynt": 7198,
      "Ġguidelines": 7199,
      "Ġwra": 7200,
      "inem": 7201,
      "Ġrecommendations": 7202,
      "ĠLED": 7203,
      "Ġapproval": 7204,
      "Ġarms": 7205,
      "ĠSometimes": 7206,
      "Ġseats": 7207,
      "Ġid": 7208,
      "Ġaccomplish": 7209,
      "Ġconsists": 7210,
      "worth": 7211,
      "Ġmagazine": 7212,
      "Ġconsideration": 7213,
      "43": 7214,
      "Ġmarriage": 7215,
      "Ġ..": 7216,
      "Ġdestroy": 7217,
      "Ġportfolio": 7218,
      "Ġsin": 7219,
      "hew": 7220,
      "stream": 7221,
      "Int": 7222,
      "Ġphilosoph": 7223,
      "long": 7224,
      "Ġauthorities": 7225,
      "Ġchose": 7226,
      "Ġinsight": 7227,
      "Ġflower": 7228,
      "Ġchannels": 7229,
      "ÃŃ": 7230,
      "Ġinvolves": 7231,
      "ĠPoint": 7232,
      "ĠBoston": 7233,
      "Ġcategories": 7234,
      "ĠId": 7235,
      "Ġsick": 7236,
      "Ġconnections": 7237,
      "Ġconfirmed": 7238,
      "friendly": 7239,
      "ellect": 7240,
      "78": 7241,
      "ĠEs": 7242,
      "Ġkm": 7243,
      "ĠInsurance": 7244,
      "ĠCarolina": 7245,
      "Ġ150": 7246,
      "ĠMartin": 7247,
      "ĠObama": 7248,
      "Ġhonor": 7249,
      "Ġensuring": 7250,
      "Ġmanagers": 7251,
      "rently": 7252,
      "Ġdiscl": 7253,
      "ĠVill": 7254,
      "site": 7255,
      "Ġproducing": 7256,
      "ĠPA": 7257,
      "Ġmerch": 7258,
      "ĠAssist": 7259,
      "Ġheating": 7260,
      "Ġfestival": 7261,
      "ĠFOR": 7262,
      "ĠHen": 7263,
      "tocol": 7264,
      "Ġdecade": 7265,
      "Ġattacks": 7266,
      "Ġoverw": 7267,
      "Ġjew": 7268,
      "Ġslowly": 7269,
      "Ġregions": 7270,
      "Ġmillions": 7271,
      "ĠGeorg": 7272,
      "Ġterror": 7273,
      "person": 7274,
      "Ġ<": 7275,
      "Ġincreasingly": 7276,
      "Ġsending": 7277,
      "ĠSupport": 7278,
      "Ġrating": 7279,
      "Ġpurchasing": 7280,
      "Ġcontrols": 7281,
      "Ġunex": 7282,
      "ĠLin": 7283,
      "Ġpriority": 7284,
      "Ġsoph": 7285,
      "host": 7286,
      "Ġcomparison": 7287,
      "comm": 7288,
      "Ġgent": 7289,
      "ĠPDF": 7290,
      "Ġpresents": 7291,
      "Ġarray": 7292,
      "ĠPub": 7293,
      "Ġmemories": 7294,
      "Ġcrime": 7295,
      "Ġinterpret": 7296,
      "ĠEngineering": 7297,
      "Ġmold": 7298,
      "Ġroles": 7299,
      "bar": 7300,
      "ĠSmall": 7301,
      "Ġdisplayed": 7302,
      "ĠTri": 7303,
      "Oh": 7304,
      "Ġframework": 7305,
      "ĠZealand": 7306,
      "Ġstatements": 7307,
      "Ġeast": 7308,
      "ventional": 7309,
      "lymp": 7310,
      "ĠExecutive": 7311,
      "ĠNext": 7312,
      "CD": 7313,
      "Ġtooth": 7314,
      "Ġtomorrow": 7315,
      "Ġagricult": 7316,
      "Ġcarpet": 7317,
      "Ġlucky": 7318,
      "Ġmile": 7319,
      "Ġelev": 7320,
      "Ġdeposit": 7321,
      "sters": 7322,
      "Ġ2001": 7323,
      "Ġsamples": 7324,
      "Ġviolence": 7325,
      "Ġbench": 7326,
      "Ġhospit": 7327,
      "Ñĥ": 7328,
      "Ġhttps": 7329,
      "urning": 7330,
      "Ġtip": 7331,
      "Ġwithd": 7332,
      "ĠChampions": 7333,
      "Ġcompat": 7334,
      "Ġhealing": 7335,
      "ĠThus": 7336,
      "Ġreader": 7337,
      "oster": 7338,
      "Ġviewed": 7339,
      "à¸": 7340,
      "stal": 7341,
      "Ġsomewhere": 7342,
      "eters": 7343,
      "Ġ2002": 7344,
      "Ġseed": 7345,
      "Ġstreets": 7346,
      "Ġusage": 7347,
      "ĠLive": 7348,
      "Man": 7349,
      "Ġflour": 7350,
      "ĠHistory": 7351,
      "iments": 7352,
      "Ġcontest": 7353,
      "Ġwriters": 7354,
      "ĠLittle": 7355,
      "Ġbreath": 7356,
      "ĠOk": 7357,
      "ĠNote": 7358,
      "Ġstake": 7359,
      "Ġlikes": 7360,
      "Ġaside": 7361,
      "Ġraw": 7362,
      "aper": 7363,
      "ĠChris": 7364,
      "isters": 7365,
      "ba": 7366,
      "that": 7367,
      "ouch": 7368,
      "Ġenjoying": 7369,
      "Ġconflict": 7370,
      "cture": 7371,
      "Ġrose": 7372,
      "Ġ400": 7373,
      "Ġbelieved": 7374,
      "ĠKitchen": 7375,
      "ĠKen": 7376,
      "Ġyounger": 7377,
      "Ġpotentially": 7378,
      "Ġwhilst": 7379,
      "ĠSky": 7380,
      "ĠStudents": 7381,
      "Ġcommonly": 7382,
      "ĠSU": 7383,
      "Ġentit": 7384,
      "May": 7385,
      "duate": 7386,
      "Ġpromise": 7387,
      "ĠLib": 7388,
      "ĠMike": 7389,
      "ĠColumb": 7390,
      "uls": 7391,
      "Ġincredibly": 7392,
      "Ġrequirement": 7393,
      "Ġvulner": 7394,
      "ĠDisc": 7395,
      "AB": 7396,
      "Ġcontrolled": 7397,
      "Ġconcerning": 7398,
      "Ġbehalf": 7399,
      "Ġmagic": 7400,
      "Ġhoping": 7401,
      "Ġheav": 7402,
      "ĠSanta": 7403,
      "Ġalongside": 7404,
      "Ġawards": 7405,
      "Ġyield": 7406,
      "Ġblend": 7407,
      "Ġvibr": 7408,
      "lder": 7409,
      "Ġengaged": 7410,
      "Ġintroduction": 7411,
      "Ġexception": 7412,
      "inos": 7413,
      "aniel": 7414,
      "Ġdivid": 7415,
      "then": 7416,
      "uling": 7417,
      "EST": 7418,
      "ĠSon": 7419,
      "gers": 7420,
      "ĠComput": 7421,
      "Ġjustice": 7422,
      "Ġshooting": 7423,
      "Ġconcepts": 7424,
      "tics": 7425,
      "Ġsuffering": 7426,
      "ĠSouthern": 7427,
      "Ġ3rd": 7428,
      "Ġnic": 7429,
      "iser": 7430,
      "Ġswimming": 7431,
      "ĠMur": 7432,
      "Ġremark": 7433,
      "Ġbuyers": 7434,
      "ĠBow": 7435,
      "ĠFollow": 7436,
      "Ġintent": 7437,
      "ĠCast": 7438,
      "ocation": 7439,
      "Ġwooden": 7440,
      "ĠOS": 7441,
      "Ġë": 7442,
      "Ġpreferred": 7443,
      "Ġreform": 7444,
      "Ġtracks": 7445,
      "ĠStore": 7446,
      "zing": 7447,
      "Ġfeelings": 7448,
      "Ġmoves": 7449,
      "irts": 7450,
      "ennis": 7451,
      "Ġille": 7452,
      "anes": 7453,
      "vas": 7454,
      "Ġpink": 7455,
      "lessly": 7456,
      "Ġblocks": 7457,
      "ĠAri": 7458,
      "Great": 7459,
      "rick": 7460,
      "ĠIdeas": 7461,
      "Ġprogramming": 7462,
      "Then": 7463,
      "mo": 7464,
      "ATION": 7465,
      "Ġinspe": 7466,
      "Ġlegs": 7467,
      "anger": 7468,
      "ĠDub": 7469,
      "Ġpersons": 7470,
      "ogen": 7471,
      "04": 7472,
      "MC": 7473,
      "Ġperm": 7474,
      "Ġexhibition": 7475,
      "Even": 7476,
      "Ġdefinition": 7477,
      "Ġworst": 7478,
      "Ġcausing": 7479,
      "Ġconsumption": 7480,
      "Ġexceptional": 7481,
      "Per": 7482,
      "ĠDef": 7483,
      "Pe": 7484,
      "AA": 7485,
      "Ġvisible": 7486,
      "Ġbirds": 7487,
      "law": 7488,
      "Ġads": 7489,
      "Ġpleasure": 7490,
      "zil": 7491,
      "Ġkne": 7492,
      "rer": 7493,
      "ĠBob": 7494,
      "iverse": 7495,
      "Ġ800": 7496,
      "Ġsupplement": 7497,
      "Ġfaculty": 7498,
      "Ã¶": 7499,
      "ĠFinancial": 7500,
      "Ġsensitive": 7501,
      "Ġeggs": 7502,
      "ule": 7503,
      "Ġmale": 7504,
      "Ġprison": 7505,
      "Ġmaintaining": 7506,
      "elly": 7507,
      "Ġminimal": 7508,
      "ĠForm": 7509,
      "Ġcritic": 7510,
      "Ġnewly": 7511,
      "Ġsuggestions": 7512,
      "Ġsuggests": 7513,
      "ĠCP": 7514,
      "Ġbasically": 7515,
      "Ġstruggle": 7516,
      "Ġstring": 7517,
      "ĠJeff": 7518,
      "ĠGir": 7519,
      "!\"": 7520,
      "apore": 7521,
      "Tube": 7522,
      "Ġpackages": 7523,
      "Ġjoining": 7524,
      "ĠRoman": 7525,
      "ĠSEO": 7526,
      "ĠJersey": 7527,
      "Ġevaluation": 7528,
      "Ġcrazy": 7529,
      "ocated": 7530,
      "Ġpenal": 7531,
      "Ġregardless": 7532,
      "Ġsetup": 7533,
      "tes": 7534,
      "inent": 7535,
      "ogether": 7536,
      "ati": 7537,
      "essel": 7538,
      "ĠShop": 7539,
      "Ġgraphics": 7540,
      "ĠMobile": 7541,
      "Ġupgrade": 7542,
      "ĠHard": 7543,
      "Ġbars": 7544,
      "Ġhumans": 7545,
      "Ġconsultation": 7546,
      "ĠColl": 7547,
      "Ġoutcomes": 7548,
      "Ġrecognition": 7549,
      "aid": 7550,
      "ĠWin": 7551,
      "Ġerrors": 7552,
      "nda": 7553,
      "ĠBuy": 7554,
      "reement": 7555,
      "stery": 7556,
      "Ġcookies": 7557,
      "Ġresume": 7558,
      "ml": 7559,
      "Ġdishes": 7560,
      "Ġpor": 7561,
      "Ġcontinuing": 7562,
      "Ã¤": 7563,
      "Ġrenov": 7564,
      "live": 7565,
      "unior": 7566,
      "ĠLiving": 7567,
      "ĠEp": 7568,
      "Ġforever": 7569,
      "ĠPacific": 7570,
      "Ġapplying": 7571,
      "Ġmarks": 7572,
      "Ġextract": 7573,
      "ady": 7574,
      "ĠEnvironment": 7575,
      "Ġcareful": 7576,
      "ĠGames": 7577,
      "ulum": 7578,
      "pack": 7579,
      "Ġherself": 7580,
      "Ġdriven": 7581,
      "ĠSea": 7582,
      "iversary": 7583,
      "RS": 7584,
      "Of": 7585,
      "ĠWeek": 7586,
      "Ã³": 7587,
      "ĠLow": 7588,
      "uster": 7589,
      "ystem": 7590,
      "Ġrefund": 7591,
      "olid": 7592,
      "etary": 7593,
      "Ġdreams": 7594,
      "ĠWorks": 7595,
      "64": 7596,
      "bridge": 7597,
      "ĠJoe": 7598,
      "Ġvegetables": 7599,
      "ĠGarden": 7600,
      "ĠMarketing": 7601,
      "Ġlimits": 7602,
      "Ġscored": 7603,
      "atell": 7604,
      "Ġnaturally": 7605,
      "Ġintegration": 7606,
      "born": 7607,
      "including": 7608,
      "98": 7609,
      "Ġsplit": 7610,
      "Ġlists": 7611,
      "phones": 7612,
      "ĠSports": 7613,
      "ags": 7614,
      "Ġblind": 7615,
      "ione": 7616,
      "Ġsomewhat": 7617,
      "cons": 7618,
      "ĠAbout": 7619,
      "zes": 7620,
      "Ġhole": 7621,
      "Ġoverwhel": 7622,
      "300": 7623,
      "Ġintelligence": 7624,
      "Go": 7625,
      "ĠPhys": 7626,
      "amps": 7627,
      "hops": 7628,
      "bration": 7629,
      "Ġdispl": 7630,
      "ĠYoung": 7631,
      "Ġcalendar": 7632,
      "ĠOlymp": 7633,
      "Ġliability": 7634,
      "!)": 7635,
      "Ġrelative": 7636,
      "Ġgate": 7637,
      "cular": 7638,
      "Ġflash": 7639,
      "urse": 7640,
      "Ġunw": 7641,
      "Ġfollows": 7642,
      "Ġresort": 7643,
      "Ġblank": 7644,
      "ounter": 7645,
      "ĠInf": 7646,
      "ĠWatch": 7647,
      "Ġexport": 7648,
      "Ġanxiety": 7649,
      "BI": 7650,
      "itan": 7651,
      "ĠIran": 7652,
      "amber": 7653,
      "Ġfru": 7654,
      "ja": 7655,
      "ĠLee": 7656,
      "Ġdoctors": 7657,
      "Ġincident": 7658,
      "Ġtoile": 7659,
      "Ġunderst": 7660,
      "Ġfactory": 7661,
      "Ġheads": 7662,
      "Next": 7663,
      "ĠBall": 7664,
      "Ġpace": 7665,
      "Ġcovering": 7666,
      "Ġchecking": 7667,
      "Ġholidays": 7668,
      "Ġrely": 7669,
      "ĠDie": 7670,
      "EA": 7671,
      "ĠVery": 7672,
      "ument": 7673,
      "Ġfighting": 7674,
      "ĠGuide": 7675,
      "ĠPrice": 7676,
      "Ð»": 7677,
      "Each": 7678,
      "ĠSC": 7679,
      "ĠHa": 7680,
      "Ġacts": 7681,
      "Ġelegant": 7682,
      "aints": 7683,
      "aded": 7684,
      "ĠMichigan": 7685,
      "bel": 7686,
      "ĠKn": 7687,
      "Ġ55": 7688,
      "ĠArea": 7689,
      "proof": 7690,
      "Ġvictory": 7691,
      "Ġsuppliers": 7692,
      "onto": 7693,
      "Ġobserved": 7694,
      "Ġauthentic": 7695,
      "Ġapproaches": 7696,
      "ĠNorthern": 7697,
      "ansas": 7698,
      "inch": 7699,
      "riers": 7700,
      "See": 7701,
      "TR": 7702,
      "Ġdirected": 7703,
      "Ġmodule": 7704,
      "redit": 7705,
      "haust": 7706,
      "Ġ38": 7707,
      "Ġelectricity": 7708,
      "ĠProper": 7709,
      "Ġbact": 7710,
      "Ġphones": 7711,
      "Ġoutcome": 7712,
      "Ġequival": 7713,
      "ĠSS": 7714,
      "'.": 7715,
      "amental": 7716,
      "igate": 7717,
      "Ġlicensed": 7718,
      "Ġdropped": 7719,
      "Ġbeneficial": 7720,
      "cific": 7721,
      "ĠDisney": 7722,
      "bing": 7723,
      "Ġchances": 7724,
      "DS": 7725,
      "ĠBox": 7726,
      "ulpt": 7727,
      "Note": 7728,
      "Ġstrict": 7729,
      "cribe": 7730,
      "08": 7731,
      "market": 7732,
      "Ġstuck": 7733,
      "Ġexpansion": 7734,
      "ĠWi": 7735,
      "Ġshouldn": 7736,
      "ctive": 7737,
      "Rec": 7738,
      "Ġinsert": 7739,
      "Ġpra": 7740,
      "Ġsections": 7741,
      "Where": 7742,
      "Ġlib": 7743,
      "ĠPract": 7744,
      "Ġtracking": 7745,
      "LS": 7746,
      "Ġpossess": 7747,
      "Fi": 7748,
      "Ġstorm": 7749,
      "ĠUSB": 7750,
      "Ġfib": 7751,
      "ĠHor": 7752,
      "Ġwalked": 7753,
      "eding": 7754,
      "Ġcontainer": 7755,
      "Ġindicate": 7756,
      "making": 7757,
      "ĠLine": 7758,
      "Ġinstant": 7759,
      "Ġbelieves": 7760,
      "ìĿ": 7761,
      "Ġfunctionality": 7762,
      "ĠSmart": 7763,
      "Ġstable": 7764,
      "Ġnarr": 7765,
      "Ġlaugh": 7766,
      "Ġloving": 7767,
      "Ġcrack": 7768,
      "acious": 7769,
      "Ġcombine": 7770,
      "ĠPolice": 7771,
      "ĠKnow": 7772,
      "Ġlisting": 7773,
      "Ġposting": 7774,
      "ĠFREE": 7775,
      "ĠSn": 7776,
      "bury": 7777,
      "Ġdebut": 7778,
      "cover": 7779,
      "Ġamend": 7780,
      "Ġocean": 7781,
      "aken": 7782,
      "Ġsurprising": 7783,
      "Ġchairs": 7784,
      "Wor": 7785,
      "ĠLLC": 7786,
      "htt": 7787,
      "ĠFrancisco": 7788,
      "ĠSuch": 7789,
      "ĠFed": 7790,
      "ĠOhio": 7791,
      "ĠUt": 7792,
      "Ġfunny": 7793,
      "iana": 7794,
      "Ġspoke": 7795,
      "Ġpanels": 7796,
      "Ġshots": 7797,
      "Read": 7798,
      "Ġtor": 7799,
      "lose": 7800,
      "Ġdrinking": 7801,
      "Ġtransactions": 7802,
      "erving": 7803,
      "Ġlawyer": 7804,
      "Ġbare": 7805,
      "Ġkil": 7806,
      "Ġdiseases": 7807,
      "Ġvenue": 7808,
      "96": 7809,
      "Ġabuse": 7810,
      "Ġalumin": 7811,
      "Ġinstruction": 7812,
      "ĠWhich": 7813,
      "Ġacceler": 7814,
      "Ġlets": 7815,
      "Ġvolunteers": 7816,
      "Ġtrim": 7817,
      "Ġcenters": 7818,
      "ipt": 7819,
      "Ġcircuit": 7820,
      "athy": 7821,
      "arters": 7822,
      "Ġwarranty": 7823,
      "ERS": 7824,
      "Ġconvert": 7825,
      "ĠSoftware": 7826,
      "Ġspots": 7827,
      "Ġcolours": 7828,
      "Ġcompensation": 7829,
      "ĠHP": 7830,
      "Ġaircraft": 7831,
      "izza": 7832,
      "Ġcoal": 7833,
      "ĠJohnson": 7834,
      "coin": 7835,
      "ĠCra": 7836,
      "Ġjewel": 7837,
      "Ġcorrectly": 7838,
      "ĠWebsite": 7839,
      "Ġtissue": 7840,
      "Ġmatches": 7841,
      "Ġacquis": 7842,
      "CO": 7843,
      "och": 7844,
      "Ġsubjects": 7845,
      "Ġproposal": 7846,
      "Ġopposite": 7847,
      "gorith": 7848,
      "Ġhat": 7849,
      "aze": 7850,
      "ĠTry": 7851,
      "Ġram": 7852,
      "Ġzero": 7853,
      "Ġbreast": 7854,
      "Ġflexibility": 7855,
      "Ġnecessarily": 7856,
      "Ġcriteria": 7857,
      "ĠNight": 7858,
      "97": 7859,
      "ns": 7860,
      "Ġtraveling": 7861,
      "esh": 7862,
      "Ġobjective": 7863,
      "Ġdiagram": 7864,
      "ĠSearch": 7865,
      "remony": 7866,
      "Ġeverywhere": 7867,
      "Ġceiling": 7868,
      "Ġresponses": 7869,
      "ĠTraining": 7870,
      "ĠAirport": 7871,
      "Ġcharacteristics": 7872,
      "Ġlift": 7873,
      "Ġpolitics": 7874,
      "Ġrecover": 7875,
      "Ġtalks": 7876,
      "Ġempty": 7877,
      "Ġmm": 7878,
      "Ġcontained": 7879,
      "gypt": 7880,
      "Ġtrips": 7881,
      "Ġrequested": 7882,
      "Ġlaptop": 7883,
      "Ġ33": 7884,
      "Ġcontaining": 7885,
      "bits": 7886,
      "sue": 7887,
      "ĠBon": 7888,
      "Ġorganisation": 7889,
      "ĠTax": 7890,
      "ĠRight": 7891,
      "Ġcomplicated": 7892,
      "Ġspray": 7893,
      "Ġhosted": 7894,
      "Ġtill": 7895,
      "abetes": 7896,
      "eras": 7897,
      "Ġskilled": 7898,
      "Ġfits": 7899,
      "Ġenroll": 7900,
      "Ġbell": 7901,
      "Ġlesson": 7902,
      "Ġalt": 7903,
      "Ġnuclear": 7904,
      "Ġforum": 7905,
      "ĠBell": 7906,
      "onym": 7907,
      "pending": 7908,
      "Ġrespectively": 7909,
      "Ġ37": 7910,
      "Ġpermission": 7911,
      "Ġentrance": 7912,
      "Ġlens": 7913,
      "Ġbone": 7914,
      "rible": 7915,
      "sell": 7916,
      "Ġmarked": 7917,
      "Ġexposed": 7918,
      "owers": 7919,
      "eping": 7920,
      "ĠTravel": 7921,
      "Ġanyway": 7922,
      "ĠYouTube": 7923,
      "ugg": 7924,
      "Ġparticipation": 7925,
      "Ġhurt": 7926,
      "Ġsharp": 7927,
      "Ġinvolving": 7928,
      "Ġunus": 7929,
      "Ġlayout": 7930,
      "Ġtomat": 7931,
      "ĠLearn": 7932,
      "Ġspecified": 7933,
      "Ġneighb": 7934,
      "Ġlegislation": 7935,
      "Ġencouraged": 7936,
      "ĠColorado": 7937,
      "Ġemployer": 7938,
      "Ġcertification": 7939,
      "Ġautomatic": 7940,
      "!!!!": 7941,
      "ĠCook": 7942,
      "Ġoblig": 7943,
      "Ġfinest": 7944,
      "ributes": 7945,
      "Ġcouncil": 7946,
      "ĠBeaut": 7947,
      "ĠEnt": 7948,
      "ĠRichard": 7949,
      "Ġdemands": 7950,
      "Ġ65": 7951,
      "Ġcarrying": 7952,
      "Ġinteractive": 7953,
      "Ġexplan": 7954,
      "Ġvert": 7955,
      "Ġretirement": 7956,
      "ĠBuilding": 7957,
      "Ġstages": 7958,
      "ĠJon": 7959,
      "lers": 7960,
      "ĠHoly": 7961,
      "liament": 7962,
      "ĠHon": 7963,
      "Ġyours": 7964,
      "Ġmood": 7965,
      "Ġstaying": 7966,
      "Ġfalse": 7967,
      "Ġpersonality": 7968,
      "page": 7969,
      "Ġliterature": 7970,
      "Ġphr": 7971,
      "Ġimprovements": 7972,
      "Ġpitch": 7973,
      "Ġforecast": 7974,
      "Ġterrit": 7975,
      "inity": 7976,
      "Ġrepairs": 7977,
      "Ġattach": 7978,
      "Ġwave": 7979,
      "ĠMcC": 7980,
      "ĠFun": 7981,
      "ĠDan": 7982,
      "Ġrural": 7983,
      "Ġpul": 7984,
      "GA": 7985,
      "ĠPot": 7986,
      "ĠLook": 7987,
      "uis": 7988,
      "ĠJewish": 7989,
      "Ġfilling": 7990,
      "06": 7991,
      "Ġgreatly": 7992,
      "adow": 7993,
      "Ġemails": 7994,
      "Ġassociation": 7995,
      "Ġadequ": 7996,
      "Ġborrow": 7997,
      "cut": 7998,
      "Ġtagged": 7999,
      "Ġdrinks": 8000,
      "Ġoccurs": 8001,
      "Ġpride": 8002,
      "Ġintellect": 8003,
      "ership": 8004,
      "Ġexpressed": 8005,
      "ds": 8006,
      "anted": 8007,
      "Ġdebate": 8008,
      "Ġtum": 8009,
      "ĠMountain": 8010,
      "Ġunexpected": 8011,
      "ĠKingdom": 8012,
      "FC": 8013,
      "ĠAp": 8014,
      "Ġasset": 8015,
      "iler": 8016,
      "Ġdecent": 8017,
      "Ġbuff": 8018,
      "Ġdamaged": 8019,
      "Ġyards": 8020,
      "Ġdivision": 8021,
      "Check": 8022,
      "Ġfest": 8023,
      "formance": 8024,
      "Ġstir": 8025,
      "Ġpocket": 8026,
      "ĠCasino": 8027,
      "iances": 8028,
      "Ġargument": 8029,
      "Ġreaction": 8030,
      "ĠPage": 8031,
      "ĠFord": 8032,
      "ped": 8033,
      "Ġlake": 8034,
      "ĠHaving": 8035,
      "ĠAsh": 8036,
      "ckets": 8037,
      "Ġcertificate": 8038,
      "ĠSH": 8039,
      "Ġleague": 8040,
      "ĠYet": 8041,
      "eah": 8042,
      "ĠPak": 8043,
      "iti": 8044,
      "Ġaccommodation": 8045,
      "Ġtone": 8046,
      "Ġneut": 8047,
      "Ġliterally": 8048,
      "lyn": 8049,
      "teen": 8050,
      "earing": 8051,
      "Ġmaintained": 8052,
      "Ġdesigners": 8053,
      "ĠBang": 8054,
      "Ġlargely": 8055,
      "02": 8056,
      "Ġroads": 8057,
      "Ġbaking": 8058,
      "Ġhi": 8059,
      "ĠJackson": 8060,
      "ĠClin": 8061,
      "Ġque": 8062,
      "Ġaccordance": 8063,
      "ults": 8064,
      "ĠEnjoy": 8065,
      "ĠDivision": 8066,
      "Ġassume": 8067,
      "ificial": 8068,
      "Ġdelivering": 8069,
      "ali": 8070,
      "Ġcoat": 8071,
      "Ġratio": 8072,
      "Ġfindings": 8073,
      "Ġorigin": 8074,
      "Ġimplemented": 8075,
      "Ġdrawn": 8076,
      "lled": 8077,
      "Ġrecruit": 8078,
      "03": 8079,
      "iki": 8080,
      "ashed": 8081,
      "odge": 8082,
      "igent": 8083,
      "ila": 8084,
      "Rem": 8085,
      "Ġfocuses": 8086,
      "ĠNig": 8087,
      "ĠAuto": 8088,
      "Ġsail": 8089,
      "2018": 8090,
      "Ġera": 8091,
      "estion": 8092,
      "ĠJones": 8093,
      "Ġvessel": 8094,
      "Ġinitiative": 8095,
      "Ġguaranteed": 8096,
      "rect": 8097,
      "ĠØ": 8098,
      "Ġobviously": 8099,
      "BM": 8100,
      "raid": 8101,
      "Ġlies": 8102,
      "Ġscores": 8103,
      "Ġsex": 8104,
      "asting": 8105,
      "Ġpreparing": 8106,
      "Ġtelephone": 8107,
      "Ġfaces": 8108,
      "Ġvintage": 8109,
      "ĠNon": 8110,
      "rage": 8111,
      "ateful": 8112,
      "Ġtox": 8113,
      "Ġlifetime": 8114,
      "ials": 8115,
      "ĠTer": 8116,
      "Ġcomputers": 8117,
      "Ġbull": 8118,
      "Make": 8119,
      "Ġham": 8120,
      "ĠSilver": 8121,
      "Ġbid": 8122,
      "Ġphotographs": 8123,
      "Ġsecondary": 8124,
      "ĠSingapore": 8125,
      "vironments": 8126,
      "Ġgentle": 8127,
      "Ġpublication": 8128,
      "Ġstronger": 8129,
      "quis": 8130,
      "fall": 8131,
      "Ġscientists": 8132,
      "Ġmeets": 8133,
      "ologist": 8134,
      "ĠRose": 8135,
      "Ġbills": 8136,
      "ĠFar": 8137,
      "Ġaims": 8138,
      "ĠAdditionally": 8139,
      "68": 8140,
      "07": 8141,
      "Ġspeaker": 8142,
      "Ġpulled": 8143,
      "Ġspectac": 8144,
      "Ġseeds": 8145,
      "ĠSpace": 8146,
      "Ġtwenty": 8147,
      "Ġexplains": 8148,
      "Ġoccurred": 8149,
      "ugs": 8150,
      "ĠArmy": 8151,
      "Ġconvenience": 8152,
      "ĠPo": 8153,
      "Ġjuice": 8154,
      "itches": 8155,
      "Ġstudying": 8156,
      "being": 8157,
      "ĠSales": 8158,
      "tains": 8159,
      "Ġinteraction": 8160,
      "ĠOil": 8161,
      "Ġmac": 8162,
      "sis": 8163,
      "anna": 8164,
      "Ġaddresses": 8165,
      "Ġexistence": 8166,
      "ĠThough": 8167,
      "Ġspeakers": 8168,
      "una": 8169,
      "Americ": 8170,
      "Ġstead": 8171,
      "Ġgaming": 8172,
      "Ġsatisfied": 8173,
      "omy": 8174,
      "inet": 8175,
      "Ġrepresentative": 8176,
      "Ġspark": 8177,
      "ĠFour": 8178,
      "Ġ1990": 8179,
      "09": 8180,
      "67": 8181,
      "Ġtro": 8182,
      "Ġgym": 8183,
      "Ġgap": 8184,
      "ĠRoll": 8185,
      "ĠAff": 8186,
      "RI": 8187,
      "Ġyoga": 8188,
      "ĠDVD": 8189,
      "ĠSpain": 8190,
      "Ġalarm": 8191,
      "ĠMeet": 8192,
      "Ġobst": 8193,
      "AY": 8194,
      "Ġclock": 8195,
      "Ġdowntown": 8196,
      "Ġconscious": 8197,
      "Ġengaging": 8198,
      "Ġengines": 8199,
      "Ġfinds": 8200,
      "Fe": 8201,
      "ĠWilliams": 8202,
      "Ġfrequency": 8203,
      "rat": 8204,
      "Ġcomplim": 8205,
      "ĠShould": 8206,
      "Ġbrilliant": 8207,
      "Ġlowest": 8208,
      "ruption": 8209,
      "roke": 8210,
      "ESS": 8211,
      "char": 8212,
      "Ġnights": 8213,
      "ĠAgreement": 8214,
      "Ġdiamond": 8215,
      "Ġconfiguration": 8216,
      "Ġrevolution": 8217,
      "AV": 8218,
      "empl": 8219,
      "Use": 8220,
      "ĠHun": 8221,
      "Ġtransmission": 8222,
      "ĠStudies": 8223,
      "isms": 8224,
      "Ġelectron": 8225,
      "oices": 8226,
      "Ġscrew": 8227,
      "ĠBlo": 8228,
      "Ġgained": 8229,
      "Ġforgot": 8230,
      "Ġentering": 8231,
      "Ġclosing": 8232,
      "Ġvolunteer": 8233,
      "Ġbab": 8234,
      "Ġcolleagues": 8235,
      "riculum": 8236,
      "ĠSteve": 8237,
      "Ġfocusing": 8238,
      "ĠSection": 8239,
      "Ġexhaust": 8240,
      "ĠProfessor": 8241,
      "tense": 8242,
      "Ġfundamental": 8243,
      "ĠUnfortunately": 8244,
      "ĠPrint": 8245,
      "Ġacting": 8246,
      "amsung": 8247,
      "ĠBrazil": 8248,
      "Ġsuffe": 8249,
      "PM": 8250,
      "ĠEss": 8251,
      "days": 8252,
      "ĠPen": 8253,
      "Ġrepresented": 8254,
      "Ġhydro": 8255,
      "ĠProfessional": 8256,
      "Ġplot": 8257,
      "ĠGeorgia": 8258,
      "iour": 8259,
      "Ġdurable": 8260,
      "atile": 8261,
      "imal": 8262,
      "Ġvisits": 8263,
      "ĠEgypt": 8264,
      "ĠRam": 8265,
      "otal": 8266,
      "Ġexploring": 8267,
      "Ġindu": 8268,
      "Ġinvestments": 8269,
      "Ðº": 8270,
      "Ġcock": 8271,
      "Ġski": 8272,
      "Ġadvantages": 8273,
      "ilipp": 8274,
      "ĠKar": 8275,
      "Ġorange": 8276,
      "Ġrecyc": 8277,
      "Ġmattress": 8278,
      "ĠQuality": 8279,
      "ĠConf": 8280,
      "Ġrepeated": 8281,
      "Ġcompletion": 8282,
      "Ġfloors": 8283,
      "ĠQueen": 8284,
      "rieved": 8285,
      "Ġintroduce": 8286,
      "ĠMedicine": 8287,
      "Ġchecked": 8288,
      "ĠLocal": 8289,
      "Ġpounds": 8290,
      "uma": 8291,
      "Ġstrongly": 8292,
      "oto": 8293,
      "Ġtalked": 8294,
      "Ġstainless": 8295,
      "Ġconcert": 8296,
      "ucky": 8297,
      "ĠDid": 8298,
      "ĠAsian": 8299,
      "ampion": 8300,
      "Ġgranted": 8301,
      "Ġscope": 8302,
      "ĠNever": 8303,
      "ĠVideo": 8304,
      "ĠOrder": 8305,
      "ĠHeart": 8306,
      "Ġdrain": 8307,
      "arry": 8308,
      "Ġdollar": 8309,
      "Ġlanguages": 8310,
      "Ġfraud": 8311,
      "Ġcabinet": 8312,
      "ools": 8313,
      "ĠFriend": 8314,
      "ollywood": 8315,
      "Ġpacked": 8316,
      "ĠDri": 8317,
      "Ġaccuracy": 8318,
      "Ġadvent": 8319,
      "Ġalive": 8320,
      "Ġcotton": 8321,
      "ĠCharles": 8322,
      "unicip": 8323,
      "rad": 8324,
      "ĠModern": 8325,
      "Ġentitled": 8326,
      "Ġrapidly": 8327,
      "Ġwarn": 8328,
      "ĠSteel": 8329,
      "Ġdeeper": 8330,
      "Ġisol": 8331,
      "Ġflying": 8332,
      "Ġpersonnel": 8333,
      "ĠStat": 8334,
      "ĠTurn": 8335,
      "Ġassigned": 8336,
      "ĠLink": 8337,
      "Ġbroadcast": 8338,
      "Before": 8339,
      "Ġcontribution": 8340,
      "Ġequivalent": 8341,
      "Ġarrival": 8342,
      "ĠAgain": 8343,
      "Ġworkshops": 8344,
      "Ġgod": 8345,
      "Ġstations": 8346,
      "Ġhes": 8347,
      "Ġ34": 8348,
      "Ġcreativity": 8349,
      "onic": 8350,
      "Ġenvironments": 8351,
      "Up": 8352,
      "uing": 8353,
      "Ġrising": 8354,
      "Ġprovision": 8355,
      "Ġremained": 8356,
      "ĠMuslim": 8357,
      "ĠFL": 8358,
      "Ġestimate": 8359,
      "Ġtutorial": 8360,
      "brid": 8361,
      "Ġ1999": 8362,
      "Ġlie": 8363,
      "Ġdemonstrate": 8364,
      "Ġvisitor": 8365,
      "Ġalgorith": 8366,
      "utter": 8367,
      "agen": 8368,
      "ĠSci": 8369,
      "ĠSummer": 8370,
      "Ġtexture": 8371,
      "acc": 8372,
      "Ġmole": 8373,
      "Ġhasn": 8374,
      "Ġreact": 8375,
      "charge": 8376,
      "Ġorient": 8377,
      "ĠCult": 8378,
      "Ġhyper": 8379,
      "Ġlayers": 8380,
      "Ġpad": 8381,
      "Ġattending": 8382,
      "ĠWH": 8383,
      "ĠStation": 8384,
      "Ġalter": 8385,
      "Ġgiant": 8386,
      "Ġtape": 8387,
      "Ġhaz": 8388,
      "Mr": 8389,
      "Ġdism": 8390,
      "Ġrefresh": 8391,
      "Ġopens": 8392,
      "Ġranking": 8393,
      "Ġresidence": 8394,
      "ifully": 8395,
      "TER": 8396,
      "cm": 8397,
      "Ġshell": 8398,
      "Ġfinger": 8399,
      "riger": 8400,
      "ĠAndrew": 8401,
      "RL": 8402,
      "ĠAwards": 8403,
      "ĠRef": 8404,
      "RC": 8405,
      "ĠMachine": 8406,
      "itate": 8407,
      "print": 8408,
      "igen": 8409,
      "Ġsegment": 8410,
      "Who": 8411,
      "Ġstudied": 8412,
      "ĠWalk": 8413,
      "Ġhel": 8414,
      "Ġpackaging": 8415,
      "Ġalign": 8416,
      "Ġintense": 8417,
      "ifting": 8418,
      "wan": 8419,
      "Ġmirror": 8420,
      "Ġtemporary": 8421,
      "800": 8422,
      "Ġprayer": 8423,
      "Take": 8424,
      "Ġceremony": 8425,
      "ĠCB": 8426,
      "ĠVi": 8427,
      "FA": 8428,
      "Ġhook": 8429,
      "ĠMat": 8430,
      "Ġheaded": 8431,
      "Ġprotocol": 8432,
      "Ġstrange": 8433,
      "Ġfalling": 8434,
      "Ġsofa": 8435,
      "Ġresid": 8436,
      "Ġdrag": 8437,
      "Ġtherap": 8438,
      "Ġenthusi": 8439,
      "itis": 8440,
      "Ġwaters": 8441,
      "Ġclicking": 8442,
      "Ġharder": 8443,
      "Ġhoriz": 8444,
      "Ġboot": 8445,
      "Ġdefine": 8446,
      "EP": 8447,
      "Whether": 8448,
      "ĠThree": 8449,
      "Ġcurrency": 8450,
      "Ġmg": 8451,
      "Ġafraid": 8452,
      "Ġreaching": 8453,
      "rooms": 8454,
      "osc": 8455,
      "Ġreprodu": 8456,
      "criptions": 8457,
      "ĠCatholic": 8458,
      "step": 8459,
      "Ġcush": 8460,
      "lections": 8461,
      "Ġservers": 8462,
      "Ġloyal": 8463,
      "ping": 8464,
      "Ġflooring": 8465,
      "ĠRights": 8466,
      "Ġtemperatures": 8467,
      "uous": 8468,
      "Ġinitially": 8469,
      "Ġstatistics": 8470,
      "ĠGuys": 8471,
      "ĠFre": 8472,
      "Ġfaced": 8473,
      "Ġloose": 8474,
      "stall": 8475,
      "Ġkeyword": 8476,
      "Ġcomprom": 8477,
      "mble": 8478,
      "anned": 8479,
      "ĠMah": 8480,
      "sts": 8481,
      "ĠDrive": 8482,
      "Mar": 8483,
      "Ġanymore": 8484,
      "Ġgene": 8485,
      "ĠSale": 8486,
      "Ġunderstood": 8487,
      "hyd": 8488,
      "ĠStone": 8489,
      "Ġhomeown": 8490,
      "Ġcelebration": 8491,
      "Ġinventory": 8492,
      "Ġbranch": 8493,
      "ĠEll": 8494,
      "Ġsurve": 8495,
      "2019": 8496,
      "Ġscreens": 8497,
      "Ġacquired": 8498,
      "ubs": 8499,
      "Ġheading": 8500,
      "Gu": 8501,
      "Ġdad": 8502,
      "ĠJac": 8503,
      "%,": 8504,
      "Ġobjectives": 8505,
      "ĠLy": 8506,
      "ĠProcess": 8507,
      "heast": 8508,
      "ĠPolicy": 8509,
      "Ġaccounting": 8510,
      "ĠKorea": 8511,
      "Ġunknown": 8512,
      "Col": 8513,
      "Ġdual": 8514,
      "Sm": 8515,
      "ĠSM": 8516,
      "Ġtact": 8517,
      "Love": 8518,
      "ĠSafety": 8519,
      "lude": 8520,
      "wall": 8521,
      "ĠAdministration": 8522,
      "Ġpromotion": 8523,
      "mers": 8524,
      "ĠCru": 8525,
      "Ġsensor": 8526,
      "Ġappointed": 8527,
      "ĠTele": 8528,
      "Will": 8529,
      "Ġcontracts": 8530,
      "Ġprize": 8531,
      "cal": 8532,
      "ĠEst": 8533,
      "Ġmaps": 8534,
      "isa": 8535,
      "Ġthemes": 8536,
      "Ġquotes": 8537,
      "Ġlaid": 8538,
      "Ġdiversity": 8539,
      "ĠProm": 8540,
      "Ġassembly": 8541,
      "ĠPS": 8542,
      "ĠCountry": 8543,
      "DP": 8544,
      "Ġequally": 8545,
      "Ġmit": 8546,
      "cue": 8547,
      "EG": 8548,
      "adium": 8549,
      "Ġriding": 8550,
      "ĠBritain": 8551,
      "Ġfarmers": 8552,
      "foot": 8553,
      "dney": 8554,
      "Ġinitiatives": 8555,
      "Ġpeak": 8556,
      "ĠCON": 8557,
      "ervations": 8558,
      "ensus": 8559,
      "Ġsuffer": 8560,
      "ĠPersonal": 8561,
      "Ġboards": 8562,
      "Ġpainted": 8563,
      "Ġsubstantial": 8564,
      "Find": 8565,
      "zed": 8566,
      "Ġpubl": 8567,
      "ĠFather": 8568,
      "Ġwithdraw": 8569,
      "Ġperiods": 8570,
      "Sim": 8571,
      "Ġensures": 8572,
      "Ġcontinuous": 8573,
      "isdom": 8574,
      "inyl": 8575,
      "Ġhits": 8576,
      "otive": 8577,
      "ĠCorporation": 8578,
      "Good": 8579,
      "ĠDI": 8580,
      "ĠSher": 8581,
      "low": 8582,
      "chester": 8583,
      "ounded": 8584,
      "Ġhoney": 8585,
      "Ġhate": 8586,
      "Ġconsent": 8587,
      "annel": 8588,
      "ĠWrit": 8589,
      "Ġconsequences": 8590,
      "ĠCloud": 8591,
      "flow": 8592,
      "Ġdepression": 8593,
      "Ġviewing": 8594,
      "ĠPop": 8595,
      "Ġbrush": 8596,
      "ĠBit": 8597,
      "Ġadopted": 8598,
      "Ġpig": 8599,
      "ih": 8600,
      "icket": 8601,
      "69": 8602,
      "Ġneither": 8603,
      "ĠBa": 8604,
      "bell": 8605,
      "Ġinsights": 8606,
      "Ġending": 8607,
      "Ġflights": 8608,
      "andon": 8609,
      "Ġtired": 8610,
      "ĠKent": 8611,
      "Ġwanting": 8612,
      "books": 8613,
      "Ġbreaking": 8614,
      "vo": 8615,
      "looking": 8616,
      "Ġreturning": 8617,
      "Ġdocumentation": 8618,
      "Ġfing": 8619,
      "Ġcasual": 8620,
      "gi": 8621,
      "ashes": 8622,
      "aylor": 8623,
      "Ġconventional": 8624,
      "ĠGallery": 8625,
      "Ġbedrooms": 8626,
      "Ġlaser": 8627,
      "ĠLimited": 8628,
      "Ġpatio": 8629,
      "Ġdisplays": 8630,
      "Ġutilize": 8631,
      "Pr": 8632,
      "Ġ4th": 8633,
      "star": 8634,
      "Ġorganisations": 8635,
      "Ġparticipating": 8636,
      "ceived": 8637,
      "aters": 8638,
      "Ġchronic": 8639,
      "Ġwise": 8640,
      "ĠSav": 8641,
      "Ġcameras": 8642,
      "letter": 8643,
      "ĠSus": 8644,
      "ĠRen": 8645,
      "ĠSup": 8646,
      "ĠRun": 8647,
      "ĠLearning": 8648,
      "Ġcontributions": 8649,
      "Ġpp": 8650,
      "ludes": 8651,
      "encing": 8652,
      "Ġsignature": 8653,
      "Ġoperated": 8654,
      "ĠWordPress": 8655,
      "athered": 8656,
      "Ġclaimed": 8657,
      "Ġplane": 8658,
      "Ġstylish": 8659,
      "ĠSwed": 8660,
      "Ġhopes": 8661,
      "icious": 8662,
      "Ġdeeply": 8663,
      "Welcome": 8664,
      "Ġtons": 8665,
      "ulator": 8666,
      "Ġinstitution": 8667,
      "Ġchildhood": 8668,
      "ĠSecretary": 8669,
      "ĠAgency": 8670,
      "rite": 8671,
      "Other": 8672,
      "Ġdirections": 8673,
      "Ġescape": 8674,
      "Ġkeys": 8675,
      "Lear": 8676,
      "ĠLeg": 8677,
      "eties": 8678,
      "iac": 8679,
      "ĠExam": 8680,
      "Ġchampions": 8681,
      "Ġexists": 8682,
      "Ġstability": 8683,
      "Ġdesktop": 8684,
      "Ġphenomen": 8685,
      "Ġcalm": 8686,
      "oof": 8687,
      "ĠFinally": 8688,
      "Ġillegal": 8689,
      "eto": 8690,
      "ervice": 8691,
      "ĠCustomer": 8692,
      "VER": 8693,
      "57": 8694,
      "ĠStock": 8695,
      "Ġproductivity": 8696,
      "ĠHou": 8697,
      "tical": 8698,
      "uct": 8699,
      "Ġtrusted": 8700,
      "zona": 8701,
      "Ġsculpt": 8702,
      "Ġindicated": 8703,
      "Reg": 8704,
      "Ġplain": 8705,
      "Ġinvite": 8706,
      "ĠConc": 8707,
      "Ġbunch": 8708,
      "Ġmedication": 8709,
      "Ġacquire": 8710,
      "Ġintention": 8711,
      "Ġseam": 8712,
      "Ġsought": 8713,
      "Ġwatched": 8714,
      "Ġlatter": 8715,
      "run": 8716,
      "alysis": 8717,
      "Ġconversion": 8718,
      "Stud": 8719,
      "ĠKim": 8720,
      "Ġsouthern": 8721,
      "ĠIrish": 8722,
      "Ġgrace": 8723,
      "TP": 8724,
      "ĠPrime": 8725,
      "400": 8726,
      "Ġmountains": 8727,
      "Ġimportantly": 8728,
      "ĠLA": 8729,
      "Ġcul": 8730,
      "ĠLabor": 8731,
      "Ġcod": 8732,
      "CS": 8733,
      "ko": 8734,
      "sole": 8735,
      "Su": 8736,
      "ĠIra": 8737,
      "Ġreveal": 8738,
      "Ġvolt": 8739,
      "Ġ42": 8740,
      "Ġdeveloper": 8741,
      "Ġpromoting": 8742,
      "ĠGreek": 8743,
      "ĠFact": 8744,
      "ĠKh": 8745,
      "Co": 8746,
      "ĠCreek": 8747,
      "Ġindoor": 8748,
      "Ġhiring": 8749,
      "ĠDO": 8750,
      "Ġtournament": 8751,
      "ador": 8752,
      "fits": 8753,
      "Ġperformances": 8754,
      "ĠFac": 8755,
      "Ġadj": 8756,
      "inois": 8757,
      "Ġamen": 8758,
      "rif": 8759,
      "ĠJoseph": 8760,
      "ĠBrand": 8761,
      "UM": 8762,
      "tery": 8763,
      "sen": 8764,
      "Ġknock": 8765,
      "ĠConnect": 8766,
      "Ġutility": 8767,
      "Ġsafely": 8768,
      "ormal": 8769,
      "war": 8770,
      "Ġtie": 8771,
      "Ġownership": 8772,
      "Ġcuts": 8773,
      "ĠRay": 8774,
      "Ġinjured": 8775,
      "Because": 8776,
      "Ġhanging": 8777,
      "atellite": 8778,
      "Ġwondering": 8779,
      "Ġpassionate": 8780,
      "ĠDog": 8781,
      "Ġemotions": 8782,
      "limited": 8783,
      "produ": 8784,
      "ĠBan": 8785,
      "HA": 8786,
      "ĠPut": 8787,
      "Ġdetect": 8788,
      "urious": 8789,
      "Ġphilosophy": 8790,
      "Ġax": 8791,
      "ĠAutom": 8792,
      "Ġattitude": 8793,
      "Part": 8794,
      "tail": 8795,
      "ĠOx": 8796,
      "Ġasp": 8797,
      "Ġtile": 8798,
      "Ġholes": 8799,
      "ĠCapital": 8800,
      "Ġgraphic": 8801,
      "Ġevolution": 8802,
      "Ġspecialists": 8803,
      "Ġsemi": 8804,
      "Ġgram": 8805,
      "ĠMembers": 8806,
      "Ġsink": 8807,
      "Ġdistributed": 8808,
      "Ġprofessor": 8809,
      "ĠVegas": 8810,
      "Ġoverse": 8811,
      "ĠToronto": 8812,
      "Ġpollut": 8813,
      "Ġemployers": 8814,
      "ĠDar": 8815,
      "Ġemployed": 8816,
      "ĠViet": 8817,
      "mercial": 8818,
      "Ġrelation": 8819,
      "59": 8820,
      "Ġconvey": 8821,
      "racy": 8822,
      "ĠForest": 8823,
      "Ġweren": 8824,
      "ĠField": 8825,
      "Ġdil": 8826,
      "Ġrubber": 8827,
      "PN": 8828,
      "itu": 8829,
      "Ġspa": 8830,
      "Ġdecrease": 8831,
      "Home": 8832,
      "âĢ²âĢ²": 8833,
      "ĠAvenue": 8834,
      "86": 8835,
      "ĠPerhaps": 8836,
      "Ġlip": 8837,
      "Ġrelating": 8838,
      "Ġworkplace": 8839,
      "Ġsubsid": 8840,
      "QL": 8841,
      "Ġvoc": 8842,
      "Ġraising": 8843,
      "uten": 8844,
      "Ġ01": 8845,
      "Ġportable": 8846,
      "ĠOak": 8847,
      "Ġmistakes": 8848,
      "Ġamongst": 8849,
      "Ġtemplates": 8850,
      "Ġinspection": 8851,
      "oted": 8852,
      "onder": 8853,
      "Ġedit": 8854,
      "Ġsees": 8855,
      "Ġabilities": 8856,
      "ji": 8857,
      "ĠEastern": 8858,
      "iary": 8859,
      "Ġcrypt": 8860,
      "Ġreception": 8861,
      "ĠRs": 8862,
      "Ġcatalog": 8863,
      "ĠProducts": 8864,
      "Post": 8865,
      "gments": 8866,
      "orous": 8867,
      "ĠSenate": 8868,
      "aka": 8869,
      "Ġsuite": 8870,
      "Ġemerging": 8871,
      "Ġreligion": 8872,
      "Ġracing": 8873,
      "Ġpepper": 8874,
      "Ġfalls": 8875,
      "adel": 8876,
      "ĠLas": 8877,
      "ĠStill": 8878,
      "anwhile": 8879,
      "ĠDNA": 8880,
      "izz": 8881,
      "Ġenforcement": 8882,
      "Ġcampaigns": 8883,
      "sized": 8884,
      "Ġpermit": 8885,
      "ĠRa": 8886,
      "Ġsmartphone": 8887,
      "Ġaccommodate": 8888,
      "onso": 8889,
      "Ġintellectual": 8890,
      "ĠSenior": 8891,
      "Ġrespective": 8892,
      "Ġtrib": 8893,
      "Ġencounter": 8894,
      "ĠStudio": 8895,
      "cor": 8896,
      "ĠHold": 8897,
      "from": 8898,
      "Ġshirt": 8899,
      "Ġevaluate": 8900,
      "Looking": 8901,
      "Ã¢": 8902,
      "Ġbeds": 8903,
      "Ġwheels": 8904,
      "ĠIce": 8905,
      "Ġantib": 8906,
      "ĠMade": 8907,
      "AND": 8908,
      "bro": 8909,
      "ĠEX": 8910,
      "Sec": 8911,
      "acon": 8912,
      "Ġmath": 8913,
      "ĠMD": 8914,
      "umer": 8915,
      "ĠJustice": 8916,
      "ĠForce": 8917,
      "Ġeliminate": 8918,
      "Ġventure": 8919,
      "Ġ1000": 8920,
      "Ġaer": 8921,
      "ipes": 8922,
      "ĠModel": 8923,
      "Ġweapons": 8924,
      "Ġranging": 8925,
      "Ġ1998": 8926,
      "Ġbat": 8927,
      "vals": 8928,
      "Ġsubm": 8929,
      "Ġtalented": 8930,
      "Ġheaven": 8931,
      "Ġsmoke": 8932,
      "Ġinvesting": 8933,
      "abil": 8934,
      "aska": 8935,
      "Ġgolden": 8936,
      "TV": 8937,
      "Ġmild": 8938,
      "ĠBeing": 8939,
      "Ġcontents": 8940,
      "Ġputs": 8941,
      "Ġinstruments": 8942,
      "Ġmeasured": 8943,
      "ĠOrig": 8944,
      "Ġgrateful": 8945,
      "Ġtitles": 8946,
      "ĠFoot": 8947,
      "Ġunusual": 8948,
      "CL": 8949,
      "Ġcoaching": 8950,
      "Ġcoloring": 8951,
      "ĠDaniel": 8952,
      "urities": 8953,
      "cribed": 8954,
      "Ġimper": 8955,
      "Ġformula": 8956,
      "Ġalleged": 8957,
      "ĠBE": 8958,
      "Car": 8959,
      "Ġconsistently": 8960,
      "lace": 8961,
      "sa": 8962,
      "Ġdamages": 8963,
      "Ġcompact": 8964,
      "olis": 8965,
      "Ġcorn": 8966,
      "burgh": 8967,
      "wear": 8968,
      "Ġ64": 8969,
      "umbing": 8970,
      "Ġtrash": 8971,
      "employ": 8972,
      "power": 8973,
      "Ġequity": 8974,
      "Ġmerely": 8975,
      "Ġ250": 8976,
      "ĠCS": 8977,
      "Ġnetworking": 8978,
      "swe": 8979,
      "ho": 8980,
      "Ġpossibilities": 8981,
      "Ġessentially": 8982,
      "Ġregulatory": 8983,
      "vania": 8984,
      "ifier": 8985,
      "organ": 8986,
      "wich": 8987,
      "aya": 8988,
      "Ed": 8989,
      "Ġleaf": 8990,
      "Ġapplies": 8991,
      "Ġcopyright": 8992,
      "Ġfabulous": 8993,
      "ĠAnnual": 8994,
      "Ġdirectory": 8995,
      "ĠTal": 8996,
      "Ġ39": 8997,
      "Ġbuyer": 8998,
      "Ġsupplier": 8999,
      "Ġappl": 9000,
      "Spe": 9001,
      "Ġcontractors": 9002,
      "Ġwarning": 9003,
      "ĠCro": 9004,
      "Ġhack": 9005,
      "Ġcomplement": 9006,
      "theless": 9007,
      "Ġhung": 9008,
      "ĠSquare": 9009,
      "awa": 9010,
      "hour": 9011,
      "ĠUr": 9012,
      "Ġouts": 9013,
      "Ġabroad": 9014,
      "pany": 9015,
      "ĠMinistry": 9016,
      "inery": 9017,
      "Ġwins": 9018,
      "Ġshoulder": 9019,
      "Ġdesigning": 9020,
      "bow": 9021,
      "gent": 9022,
      "ambling": 9023,
      "Ġstack": 9024,
      "Ġcm": 9025,
      "Ġshed": 9026,
      "Ġoral": 9027,
      "Ġreject": 9028,
      "Ġgran": 9029,
      "Ġmistake": 9030,
      "Ġanniversary": 9031,
      "ĠNatural": 9032,
      "stein": 9033,
      "ĠDun": 9034,
      "ĠCommon": 9035,
      "Ġrepresentatives": 9036,
      "Ġtargeted": 9037,
      "ĠConsult": 9038,
      "Ġthousand": 9039,
      "rape": 9040,
      "Ġreserved": 9041,
      "Ġabund": 9042,
      "CP": 9043,
      "Ġsen": 9044,
      "Ġcann": 9045,
      "Ġwestern": 9046,
      "ffective": 9047,
      "kel": 9048,
      "ĠBase": 9049,
      "etch": 9050,
      "Ġstayed": 9051,
      "Ġresolve": 9052,
      "makers": 9053,
      "abeth": 9054,
      "Ġseasons": 9055,
      "Ġlocks": 9056,
      "ĠWould": 9057,
      "56": 9058,
      "ĠWithout": 9059,
      "Ġtu": 9060,
      "Ġdivor": 9061,
      "Ġlegend": 9062,
      "Ġhighlights": 9063,
      "Ġreserve": 9064,
      "Ġinfection": 9065,
      "Ġcomposition": 9066,
      "Ġprime": 9067,
      "Ġmechanism": 9068,
      "inton": 9069,
      "Ġsour": 9070,
      "Ġcheaper": 9071,
      "Ġelected": 9072,
      "Ġbold": 9073,
      "axy": 9074,
      "erman": 9075,
      "ĠBridge": 9076,
      "Ġlosses": 9077,
      "Ġ120": 9078,
      "Ġsolo": 9079,
      "Ġparameters": 9080,
      "pled": 9081,
      "ĠEvent": 9082,
      "ĠVillage": 9083,
      "Ġcher": 9084,
      "Ġgender": 9085,
      "alo": 9086,
      "Ġexpanded": 9087,
      "Ġuncertain": 9088,
      "Ġshapes": 9089,
      "style": 9090,
      "Ġtwist": 9091,
      "Ġfranch": 9092,
      "Ġnursing": 9093,
      "Ġspectacular": 9094,
      "ĠSD": 9095,
      "Ġjur": 9096,
      "ĠLi": 9097,
      "Ġconvin": 9098,
      "ĠIraq": 9099,
      "Ġscenes": 9100,
      "ĠCN": 9101,
      "ĠGive": 9102,
      "Ġmatching": 9103,
      "Ġcharity": 9104,
      "ĠProduct": 9105,
      "Ġjewelry": 9106,
      "Ġprivile": 9107,
      "rug": 9108,
      "ðŁ": 9109,
      "ilton": 9110,
      "Ġstrike": 9111,
      "Ġdrives": 9112,
      "Ġconstructed": 9113,
      "Two": 9114,
      "Ġ':": 9115,
      "Ġsuffered": 9116,
      "isticated": 9117,
      "Ġexclus": 9118,
      "Ġexamination": 9119,
      "Ġhell": 9120,
      "Ġ1980": 9121,
      "ĠSydney": 9122,
      "enny": 9123,
      "bourne": 9124,
      "ĠEN": 9125,
      "Like": 9126,
      "Ġextraord": 9127,
      "Ġcooked": 9128,
      "58": 9129,
      "ĠRemember": 9130,
      "iform": 9131,
      "ĠRos": 9132,
      "ĠKong": 9133,
      "Ġhen": 9134,
      "Ġft": 9135,
      "Ġsed": 9136,
      "iami": 9137,
      "Ġchest": 9138,
      "ĠSelect": 9139,
      "Ġaest": 9140,
      "this": 9141,
      "Ġangle": 9142,
      "olar": 9143,
      "Ġmuscles": 9144,
      "OK": 9145,
      "hr": 9146,
      "ounge": 9147,
      "Ġcater": 9148,
      "Ġbanking": 9149,
      "Ġresident": 9150,
      "Ġrecre": 9151,
      "Ġtoilet": 9152,
      "Ġgrey": 9153,
      "Ġcurriculum": 9154,
      "Ġlob": 9155,
      "Ġnutri": 9156,
      "stract": 9157,
      "ĠEmploy": 9158,
      "esides": 9159,
      "tons": 9160,
      "Ġvacc": 9161,
      "Ġprohib": 9162,
      "Ġfulfill": 9163,
      "ĠOfficer": 9164,
      "Ġdies": 9165,
      "ĠLind": 9166,
      "Ġroots": 9167,
      "Ġstrengthen": 9168,
      "Ġhors": 9169,
      "Ġadmin": 9170,
      "ello": 9171,
      "âĤ¬": 9172,
      "Ġcopies": 9173,
      "Ġediting": 9174,
      "Ġstamp": 9175,
      "regon": 9176,
      "Ġvine": 9177,
      "Ġlegit": 9178,
      "Ġchips": 9179,
      "ĠiPad": 9180,
      "Ġfiber": 9181,
      "ccer": 9182,
      "ller": 9183,
      "ĠHappy": 9184,
      "ouses": 9185,
      "rix": 9186,
      "ĠArizona": 9187,
      "Ġdiscussions": 9188,
      "Ġoperational": 9189,
      "Ġsorry": 9190,
      "aza": 9191,
      "Ġadvertise": 9192,
      "Ġbroke": 9193,
      "Ġmargin": 9194,
      "ĠMother": 9195,
      "ĠStan": 9196,
      "uties": 9197,
      "olt": 9198,
      "athan": 9199,
      "ĠOnt": 9200,
      "Ġexterior": 9201,
      "Ġcompatible": 9202,
      "Ġimpression": 9203,
      "ĠUk": 9204,
      "Ġprocessed": 9205,
      "Ġhearts": 9206,
      "ordan": 9207,
      "oir": 9208,
      "Ġlandscap": 9209,
      "Ġtargets": 9210,
      "Ġoppon": 9211,
      "Ġmechanical": 9212,
      "ĠSolutions": 9213,
      "Ġopinions": 9214,
      "Ġsheets": 9215,
      "ÙĦ": 9216,
      "Ġcollections": 9217,
      "Ġconclusion": 9218,
      "ĠRadio": 9219,
      "Ġdiabetes": 9220,
      "ĠNeed": 9221,
      "Ġspir": 9222,
      "iffe": 9223,
      "ĠFall": 9224,
      "Ġworship": 9225,
      "ĠEstate": 9226,
      "ĠIllinois": 9227,
      "giving": 9228,
      "Ġnorthern": 9229,
      "Ġquantity": 9230,
      "ylvania": 9231,
      "Ġrarely": 9232,
      "Ġsituated": 9233,
      "Ġlegisl": 9234,
      "Ġlocally": 9235,
      "Ġsuddenly": 9236,
      "bage": 9237,
      "ĠStrateg": 9238,
      "Ġuniversities": 9239,
      "Ġrust": 9240,
      "Ġfluid": 9241,
      "Ġaddressed": 9242,
      "Ġproport": 9243,
      "lined": 9244,
      "Ġfolder": 9245,
      "ĠBroad": 9246,
      "Ġexamine": 9247,
      "Ġhandy": 9248,
      "ERE": 9249,
      "acher": 9250,
      ".;": 9251,
      "Ġpowers": 9252,
      "ĠScotland": 9253,
      "Ġbehaviour": 9254,
      "itched": 9255,
      "Ġfounder": 9256,
      "Ġattempts": 9257,
      "ĠHelp": 9258,
      "Ġtube": 9259,
      "bered": 9260,
      "Ġwake": 9261,
[...]
