{
  "version": "1.0",
  "truncation": null,
  "padding": null,
  "added_tokens": [
    {
      "id": 0,
      "content": "[UNK]",
      "single_word": false,
      "lstrip": false,
      "rstrip": false,
      "normalized": false,
      "special": true
    },
    {
      "id": 1,
      "content": "[PAD]",
      "single_word": false,
      "lstrip": false,
      "rstrip": false,
      "normalized": false,
      "special": true
    },
    {
      "id": 2,
      "content": "[MASK]",
      "single_word": false,
      "lstrip": false,
      "rstrip": false,
      "normalized": false,
      "special": true
    },
    {
      "id": 3,
      "content": "<s>",
      "single_word": false,
      "lstrip": false,
      "rstrip": false,
      "normalized": false,
      "special": true
    },
    {
      "id": 4,
      "content": "</s>",
      "single_word": false,
      "lstrip": false,
      "rstrip": false,
      "normalized": false,
      "special": true
    }
  ],
  "normalizer": {
    "type": "Sequence",
    "normalizers": [
      {
        "type": "NFKC"
      }
    ]
  },
  "pre_tokenizer": {
    "type": "Sequence",
    "pretokenizers": [
      {
        "type": "Split",
        "pattern": {
          "Regex": " "
        },
        "behavior": "MergedWithNext",
        "invert": false
      },
      {
        "type": "Split",
        "pattern": {
          "Regex": " *(\\w+|[^\\w\\s]+)"
        },
        "behavior": "Isolated",
        "invert": false
      },
      {
        "type": "ByteLevel",
        "add_prefix_space": false,
        "trim_offsets": true,
        "use_regex": false
      }
    ]
  },
  "post_processor": null,
  "decoder": {
    "type": "Sequence",
    "decoders": [
      {
        "type": "ByteLevel",
        "add_prefix_space": true,
        "trim_offsets": true,
        "use_regex": true
      }
    ]
  },
  "model": {
    "type": "WordPiece",
    "unk_token": "[UNK]",
    "continuing_subword_prefix": "##",
    "max_input_chars_per_word": 100,
    "vocab": {
      "[UNK]": 0,
      "[PAD]": 1,
      "[MASK]": 2,
      "<s>": 3,
      "</s>": 4,
      "!": 5,
      "\"": 6,
      "#": 7,
      "$": 8,
      "%": 9,
      "&": 10,
      "'": 11,
      "(": 12,
      ")": 13,
      "*": 14,
      "+": 15,
      ",": 16,
      "-": 17,
      ".": 18,
      "/": 19,
      "0": 20,
      "1": 21,
      "2": 22,
      "3": 23,
      "4": 24,
      "5": 25,
      "6": 26,
      "7": 27,
      "8": 28,
      "9": 29,
      ":": 30,
      ";": 31,
      "<": 32,
      "=": 33,
      ">": 34,
      "?": 35,
      "@": 36,
      "A": 37,
      "B": 38,
      "C": 39,
      "D": 40,
      "E": 41,
      "F": 42,
      "G": 43,
      "H": 44,
      "I": 45,
      "J": 46,
      "K": 47,
      "L": 48,
      "M": 49,
      "N": 50,
      "O": 51,
      "P": 52,
      "Q": 53,
      "R": 54,
      "S": 55,
      "T": 56,
      "U": 57,
      "V": 58,
      "W": 59,
      "X": 60,
      "Y": 61,
      "Z": 62,
      "[": 63,
      "\\": 64,
      "]": 65,
      "^": 66,
      "_": 67,
      "`": 68,
      "a": 69,
      "b": 70,
      "c": 71,
      "d": 72,
      "e": 73,
      "f": 74,
      "g": 75,
      "h": 76,
      "i": 77,
      "j": 78,
      "k": 79,
      "l": 80,
      "m": 81,
      "n": 82,
      "o": 83,
      "p": 84,
      "q": 85,
      "r": 86,
      "s": 87,
      "t": 88,
      "u": 89,
      "v": 90,
      "w": 91,
      "x": 92,
      "y": 93,
      "z": 94,
      "{": 95,
      "|": 96,
      "}": 97,
      "~": 98,
      "¡": 99,
      "¢": 100,
      "£": 101,
      "¤": 102,
      "¥": 103,
      "¦": 104,
      "§": 105,
      "¨": 106,
      "©": 107,
      "ª": 108,
      "«": 109,
      "¬": 110,
      "®": 111,
      "¯": 112,
      "°": 113,
      "±": 114,
      "²": 115,
      "³": 116,
      "´": 117,
      "µ": 118,
      "¶": 119,
      "·": 120,
      "¸": 121,
      "¹": 122,
      "º": 123,
      "»": 124,
      "¼": 125,
      "½": 126,
      "¾": 127,
      "¿": 128,
      "À": 129,
      "Á": 130,
      "Â": 131,
      "Ã": 132,
      "Ä": 133,
      "Å": 134,
      "Æ": 135,
      "Ç": 136,
      "È": 137,
      "É": 138,
      "Ê": 139,
      "Ë": 140,
      "Ì": 141,
      "Í": 142,
      "Î": 143,
      "Ï": 144,
      "Ð": 145,
      "Ñ": 146,
      "Ò": 147,
      "Ó": 148,
      "Ô": 149,
      "Õ": 150,
      "Ö": 151,
      "×": 152,
      "Ø": 153,
      "Ù": 154,
      "Ú": 155,
      "Û": 156,
      "Ü": 157,
      "Ý": 158,
      "Þ": 159,
      "ß": 160,
      "à": 161,
      "á": 162,
      "â": 163,
      "ã": 164,
      "ä": 165,
      "å": 166,
      "æ": 167,
      "ç": 168,
      "è": 169,
      "é": 170,
      "ê": 171,
      "ë": 172,
      "ì": 173,
      "í": 174,
      "î": 175,
      "ï": 176,
      "ð": 177,
      "ñ": 178,
      "ò": 179,
      "ó": 180,
      "ô": 181,
      "õ": 182,
      "ö": 183,
      "÷": 184,
      "ø": 185,
      "ù": 186,
      "ú": 187,
      "û": 188,
      "ü": 189,
      "ý": 190,
      "þ": 191,
      "ÿ": 192,
      "Ā": 193,
      "ā": 194,
      "Ă": 195,
      "ă": 196,
      "Ą": 197,
      "ą": 198,
      "Ć": 199,
      "ć": 200,
      "Ĉ": 201,
      "ĉ": 202,
      "Ċ": 203,
      "ċ": 204,
      "Č": 205,
      "č": 206,
      "Ď": 207,
      "ď": 208,
      "Đ": 209,
      "đ": 210,
      "Ē": 211,
      "ē": 212,
      "Ĕ": 213,
      "ĕ": 214,
      "Ė": 215,
      "ė": 216,
      "Ę": 217,
      "ę": 218,
      "Ě": 219,
      "ě": 220,
      "Ĝ": 221,
      "ĝ": 222,
      "Ğ": 223,
      "ğ": 224,
      "Ġ": 225,
      "ġ": 226,
      "Ģ": 227,
      "ģ": 228,
      "Ĥ": 229,
      "ĥ": 230,
      "Ħ": 231,
      "ħ": 232,
      "Ĩ": 233,
      "ĩ": 234,
      "Ī": 235,
      "ī": 236,
      "Ĭ": 237,
      "ĭ": 238,
      "Į": 239,
      "į": 240,
      "İ": 241,
      "ı": 242,
      "Ĳ": 243,
      "ĳ": 244,
      "Ĵ": 245,
      "ĵ": 246,
      "Ķ": 247,
      "ķ": 248,
      "ĸ": 249,
      "Ĺ": 250,
      "ĺ": 251,
      "Ļ": 252,
      "ļ": 253,
      "Ľ": 254,
      "ľ": 255,
      "Ŀ": 256,
      "ŀ": 257,
      "Ł": 258,
      "ł": 259,
      "Ń": 260,
      "##P": 261,
      "##i": 262,
      "##n": 263,
      "##o": 264,
      "##t": 265,
      "##N": 266,
      "##R": 267,
      "##C": 268,
      "##6": 269,
      "##A": 270,
      "##f": 271,
      "##c": 272,
      "##u": 273,
      "##p": 274,
      "##l": 275,
      "##e": 276,
      "##h": 277,
      "##d": 278,
      "##a": 279,
      "##s": 280,
      "##k": 281,
      "##M": 282,
      "##r": 283,
      "##w": 284,
      "##S": 285,
      "##g": 286,
      "##L": 287,
      "##x": 288,
      "##y": 289,
      "##m": 290,
      "##z": 291,
      "##1": 292,
      "##D": 293,
      "##b": 294,
      "##4": 295,
      "##2": 296,
      "##3": 297,
      "##I": 298,
      "##7": 299,
      "##G": 300,
      "##E": 301,
      "##º": 302,
      "##½": 303,
      "##ë": 304,
      "##ĭ": 305,
      "##¤": 306,
      "##W": 307,
      "##F": 308,
      "##0": 309,
      "##T": 310,
      "##H": 311,
      "##B": 312,
      "##v": 313,
      "##5": 314,
      "##8": 315,
      "##Ã": 316,
      "##¢": 317,
      "##Ð": 318,
      "##¥": 319,
      "##Ñ": 320,
      "##Ģ": 321,
      "##¸": 322,
      "##ģ": 323,
      "##Ĥ": 324,
      "##°": 325,
      "##ĵ": 326,
      "##ã": 327,
      "##®": 328,
      "##µ": 329,
      "##ĥ": 330,
      "##Ī": 331,
      "##«": 332,
      "##Ħ": 333,
      "##¦": 334,
      "##à": 335,
      "##±": 336,
      "##¡": 337,
      "##į": 338,
      "##q": 339,
      "##Å": 340,
      "##Ö": 341,
      "##ħ": 342,
      "##9": 343,
      "##Q": 344,
      "##V": 345,
      "##J": 346,
      "##\"": 347,
      "##K": 348,
      "##U": 349,
      "##Y": 350,
      "##O": 351,
      "##Î": 352,
      "##Ï": 353,
      "##¼": 354,
      "##¿": 355,
      "##·": 356,
      "##¯": 357,
      "##X": 358,
      "##§": 359,
      "##£": 360,
      "##_": 361,
      "##É": 362,
      "##¨": 363,
      "##²": 364,
      "##ª": 365,
      "##Ļ": 366,
      "##¹": 367,
      "##ĩ": 368,
      "##ŀ": 369,
      "##Ń": 370,
      "##Į": 371,
      "##ķ": 372,
      "##´": 373,
      "##ļ": 374,
      "##ĺ": 375,
      "##¶": 376,
      "##Ĭ": 377,
      "##ī": 378,
      "##Ĺ": 379,
      "##Ķ": 380,
      "##j": 381,
      "##+": 382,
      "##Â": 383,
      "##©": 384,
      "##³": 385,
      "##å": 386,
      "##ĳ": 387,
      "##è": 388,
      "##ı": 389,
      "##ä": 390,
      "##æ": 391,
      "##Ľ": 392,
      "##ç": 393,
      "##İ": 394,
      "##×": 395,
      "##ľ": 396,
      "##Ł": 397,
      "##ł": 398,
      "##»": 399,
      "##ĸ": 400,
      "##¬": 401,
      "##Ĩ": 402,
      "##Ä": 403,
      "##Ĳ": 404,
      "##ì": 405,
      "##Ŀ": 406,
      "##Z": 407,
      "##/": 408,
      "##[": 409,
      "##í": 410,
      "##ê": 411,
      "##Ĵ": 412,
      "##¾": 413,
      "##â": 414,
      "##)": 415,
      "##.": 416,
      "##Ø": 417,
      "##Ù": 418,
      "##'": 419,
      "##!": 420,
      "##(": 421,
      "##é": 422,
      "##ð": 423,
      "##Õ": 424,
      "##]": 425,
      "##,": 426,
      "##Ë": 427,
      "##Ê": 428,
      "##Û": 429,
      "##Æ": 430,
      "##:": 431,
      "##$": 432,
      "##-": 433,
      "##?": 434,
      "##;": 435,
      "##<": 436,
      "##>": 437,
      "##á": 438,
      "##*": 439,
      "##%": 440,
      "###": 441,
      "##Ú": 442,
      "##`": 443,
      "##ß": 444,
      "##Ç": 445,
      "##È": 446,
      "##^": 447,
      "##Ì": 448,
      "##Ā": 449,
      "##Ą": 450,
      "##Í": 451,
      "##@": 452,
      "##|": 453,
      "##ï": 454,
      "##\\": 455,
      "##=": 456,
      "##Ü": 457,
      "##Ó": 458,
      "##&": 459,
      "##Ô": 460,
      "##î": 461,
      "##~": 462,
      "##ć": 463,
      "##Ò": 464,
      "##ą": 465,
      "##Ć": 466,
      "##Ĉ": 467,
      "##ā": 468,
      "##}": 469,
      "##ô": 470,
      "##Ď": 471,
      "##ă": 472,
      "##Ē": 473,
      "##Ė": 474,
      "##Þ": 475,
      "##ď": 476,
      "##ĕ": 477,
      "##Ę": 478,
      "##Ĕ": 479,
      "##Ă": 480,
      "##Đ": 481,
      "##ė": 482,
      "##ě": 483,
      "##đ": 484,
      "##ĉ": 485,
      "##ę": 486,
      "##ġ": 487,
      "##Ě": 488,
      "##ó": 489,
      "##ğ": 490,
      "##ē": 491,
      "##Ý": 492,
      "##Ċ": 493,
      "##{": 494,
      "Ġt": 495,
      "Ġa": 496,
      "##in": 497,
      "##he": 498,
      "##re": 499,
      "##on": 500,
      "Ġthe": 501,
      "##er": 502,
      "Ġs": 503,
      "Ġw": 504,
      "Ġo": 505,
      "##at": 506,
      "##nd": 507,
      "Ġc": 508,
      "##it": 509,
      "##ou": 510,
      "##es": 511,
      "##or": 512,
      "##is": 513,
      "Ġf": 514,
      "##en": 515,
      "##ing": 516,
      "Ġb": 517,
      "Ġp": 518,
      "##an": 519,
      "##ed": 520,
      "Ġto": 521,
      "##al": 522,
      "Ġm": 523,
      "Ġand": 524,
      "##ar": 525,
      "Ġin": 526,
      "Ġof": 527,
      "Ġd": 528,
      "##ic": 529,
      "##le": 530,
      "##om": 531,
      "##ion": 532,
      "Ġh": 533,
      "##as": 534,
      "Ġth": 535,
      "##il": 536,
      "Ġy": 537,
      "##ent": 538,
      "Ġl": 539,
      "Ġe": 540,
      "##ro": 541,
      "Ġre": 542,
      "##ve": 543,
      "##st": 544,
      "Ġn": 545,
      "Ġyou": 546,
      "##ct": 547,
      "Ġg": 548,
      "##et": 549,
      "ĠI": 550,
      "##ly": 551,
      "Ġis": 552,
      "ĠT": 553,
      "Ġfor": 554,
      "Ġbe": 555,
      "##ut": 556,
      "##ot": 557,
      "Ġon": 558,
      "##id": 559,
      "##ur": 560,
      "ĠS": 561,
      "##ow": 562,
      "##ay": 563,
      "##us": 564,
      "##ce": 565,
      "##im": 566,
      "##ol": 567,
      "##ig": 568,
      "ĠC": 569,
      "##ra": 570,
      "ĠA": 571,
      "##ith": 572,
      "##ch": 573,
      "##ver": 574,
      "##el": 575,
      "##ation": 576,
      "âĢ": 577,
      "Ġthat": 578,
      "Ġst": 579,
      "Ġwith": 580,
      "##ad": 581,
      "##am": 582,
      "##ir": 583,
      "Ġit": 584,
      "âĢĻ": 585,
      "Ġal": 586,
      "ĠM": 587,
      "Ġan": 588,
      "Ġpro": 589,
      "##ul": 590,
      "##ill": 591,
      "Ġas": 592,
      "##ers": 593,
      "Ġare": 594,
      "Ġhe": 595,
      "Ġwh": 596,
      "ĠP": 597,
      "##if": 598,
      "##un": 599,
      "##se": 600,
      "ĠB": 601,
      "Ġha": 602,
      "Ġwe": 603,
      "##ke": 604,
      "##ge": 605,
      "Ġcon": 606,
      "Ġor": 607,
      "##ter": 608,
      "##ess": 609,
      "##oo": 610,
      "Ġcom": 611,
      "ĠW": 612,
      "##pp": 613,
      "##ate": 614,
      "##her": 615,
      "##ment": 616,
      "##est": 617,
      "Ġyour": 618,
      "##ab": 619,
      "Ġat": 620,
      "ĠThe": 621,
      "##ck": 622,
      "Ġmo": 623,
      "##ri": 624,
      "Ġex": 625,
      "ĠH": 626,
      "ĠD": 627,
      "##rom": 628,
      "Ġne": 629,
      "##ld": 630,
      "##igh": 631,
      "Ġse": 632,
      "ĠF": 633,
      "##qu": 634,
      "Ġde": 635,
      "##ort": 636,
      "##ure": 637,
      "##ist": 638,
      "##pe": 639,
      "Ġv": 640,
      "Ġ1": 641,
      "##ity": 642,
      "##ant": 643,
      "ĠR": 644,
      "##ive": 645,
      "Ġhave": 646,
      "Ġcan": 647,
      "##um": 648,
      "Ġwas": 649,
      "##art": 650,
      "Ġ2": 651,
      "##ust": 652,
      "Ġ(": 653,
      "Ġus": 654,
      "Ġfrom": 655,
      "##ain": 656,
      "Ġthis": 657,
      "##op": 658,
      "##em": 659,
      "ĠL": 660,
      "Ġr": 661,
      "Ġsh": 662,
      "ĠG": 663,
      "##ies": 664,
      "Ġch": 665,
      "##th": 666,
      "##os": 667,
      "Ġwill": 668,
      "Ġby": 669,
      "##nt": 670,
      "Ġsu": 671,
      "ĠE": 672,
      "Ġnot": 673,
      "##âĢ": 674,
      "Ġu": 675,
      "ĠN": 676,
      "##res": 677,
      "##ight": 678,
      "##ome": 679,
      "##all": 680,
      "##and": 681,
      "Ġle": 682,
      "##ard": 683,
      "##ud": 684,
      "##iv": 685,
      "##out": 686,
      "Ġab": 687,
      "##ial": 688,
      "ĠO": 689,
      "Ġwor": 690,
      "##our": 691,
      "##red": 692,
      "##ould": 693,
      "Ġall": 694,
      "Ġpl": 695,
      "##ide": 696,
      "##ect": 697,
      "Ġdo": 698,
      "##per": 699,
      "##rou": 700,
      "##gh": 701,
      "ĠâĢ": 702,
      "##ine": 703,
      "##ast": 704,
      "Ġso": 705,
      "Ġcomp": 706,
      "Ġma": 707,
      "Ġj": 708,
      "##ell": 709,
      "##age": 710,
      "##ice": 711,
      "##ie": 712,
      "Ġk": 713,
      "##pt": 714,
      "Ġad": 715,
      "##ear": 716,
      "##ally": 717,
      "Ġhas": 718,
      "čĊ": 719,
      "##lo": 720,
      "Ġwhe": 721,
      "##king": 722,
      "The": 723,
      "##able": 724,
      "##ag": 725,
      "##te": 726,
      "##ions": 727,
      "##ff": 728,
      "Ġen": 729,
      "##ther": 730,
      "##ac": 731,
      "Ġme": 732,
      "##od": 733,
      "##ip": 734,
      "Ġbut": 735,
      "##ich": 736,
      "##so": 737,
      "##ind": 738,
      "ĠJ": 739,
      "##ack": 740,
      "Ġout": 741,
      "Ġour": 742,
      "Ġup": 743,
      "##are": 744,
      "##very": 745,
      "##cc": 746,
      "##ated": 747,
      "Ġlo": 748,
      "##ry": 749,
      "Ġ20": 750,
      "##one": 751,
      "Ġmore": 752,
      "Ġtheir": 753,
      "##ite": 754,
      "##ime": 755,
      "##du": 756,
      "##ood": 757,
      "Ġim": 758,
      "##iz": 759,
      "Ġthey": 760,
      "##ong": 761,
      "ĠU": 762,
      "##ore": 763,
      "##orm": 764,
      "ĠTh": 765,
      "##ous": 766,
      "##act": 767,
      "Ġmy": 768,
      "Ġone": 769,
      "Ġcont": 770,
      "##ks": 771,
      "##ans": 772,
      "##ance": 773,
      "##ib": 774,
      "##ail": 775,
      "Ġte": 776,
      "Ġcl": 777,
      "Ġman": 778,
      "##ign": 779,
      "Ġinc": 780,
      "ĠIn": 781,
      "##ost": 782,
      "##ike": 783,
      "Ġun": 784,
      "Ġres": 785,
      "Ġapp": 786,
      "##ru": 787,
      "Ġabout": 788,
      "Ġwhich": 789,
      "##reat": 790,
      "##ire": 791,
      "##ult": 792,
      "Ġqu": 793,
      "Ġfe": 794,
      "##ase": 795,
      "Ġoff": 796,
      "##ace": 797,
      "##ations": 798,
      "##ia": 799,
      "Ġper": 800,
      "##og": 801,
      "ĠY": 802,
      "##erv": 803,
      "Ġalso": 804,
      "##ree": 805,
      "Ġtime": 806,
      "Ġint": 807,
      "Ġany": 808,
      "Ġgo": 809,
      "Ġother": 810,
      "##vel": 811,
      "Ġwho": 812,
      "##ach": 813,
      "##ame": 814,
      "Ġsp": 815,
      "##ber": 816,
      "##ass": 817,
      "##ap": 818,
      "##form": 819,
      "ĠK": 820,
      "##ical": 821,
      "##ile": 822,
      "##ep": 823,
      "##ary": 824,
      "##ven": 825,
      "##ount": 826,
      "Ġget": 827,
      "##ays": 828,
      "Ġdis": 829,
      "Ġyear": 830,
      "Ġpart": 831,
      "##ence": 832,
      "##ue": 833,
      "Ġsome": 834,
      "##ction": 835,
      "ĠIt": 836,
      "Ġlike": 837,
      "##00": 838,
      "##ook": 839,
      "##ents": 840,
      "Ġnew": 841,
      "Ġsa": 842,
      "Ġta": 843,
      "##ition": 844,
      "##own": 845,
      "##ub": 846,
      "Ġthem": 847,
      "ĠV": 848,
      "Ġtra": 849,
      "ĠSt": 850,
      "Ġneed": 851,
      "##ick": 852,
      "##ings": 853,
      "##ress": 854,
      "Ġkn": 855,
      "##ors": 856,
      "Ġimp": 857,
      "Ġhis": 858,
      "##ond": 859,
      "Ġwhen": 860,
      "Ġ3": 861,
      "##ord": 862,
      "Ġover": 863,
      "##ere": 864,
      "Ġar": 865,
      "##ark": 866,
      "Ġro": 867,
      "##cial": 868,
      "Ġrec": 869,
      "Ġthere": 870,
      "Ġif": 871,
      "Ġspe": 872,
      "Ġsc": 873,
      "ĠCh": 874,
      "Ġbeen": 875,
      "Ġpe": 876,
      "##ild": 877,
      "Ġ201": 878,
      "##av": 879,
      "Ġwork": 880,
      "Ġpre": 881,
      "##ens": 882,
      "Ġag": 883,
      "##pl": 884,
      "Ġwhat": 885,
      "##ll": 886,
      "##wn": 887,
      "Ġacc": 888,
      "##ough": 889,
      "Ġwould": 890,
      "Ġthan": 891,
      "Ġdes": 892,
      "ĠWe": 893,
      "Ġwere": 894,
      "##ound": 895,
      "##int": 896,
      "##ish": 897,
      "##ater": 898,
      "Ġam": 899,
      "Ġits": 900,
      "Ġjust": 901,
      "ĠâĢľ": 902,
      "Ġhow": 903,
      "##low": 904,
      "##rough": 905,
      "##nder": 906,
      "Ġhad": 907,
      "Ġco": 908,
      "Ġcomm": 909,
      "Ġprov": 910,
      "Ġhel": 911,
      "Ġinto": 912,
      "Ġbec": 913,
      "##ak": 914,
      "##lud": 915,
      "##irst": 916,
      "##vers": 917,
      "##ang": 918,
      "Ġcol": 919,
      "Ġhelp": 920,
      "##use": 921,
      "ĠThis": 922,
      "Ġ\"": 923,
      "##ople": 924,
      "Ġserv": 925,
      "##ning": 926,
      "Ġmay": 927,
      "##ory": 928,
      "Ġmake": 929,
      "Ġadd": 930,
      "Ġno": 931,
      "##ual": 932,
      "Ġuse": 933,
      "##fter": 934,
      "##lic": 935,
      "##ne": 936,
      "Ġpr": 937,
      "##ces": 938,
      "##ram": 939,
      "Ġ-": 940,
      "Ġem": 941,
      "##ful": 942,
      "##oc": 943,
      "Ġbu": 944,
      "##..": 945,
      "Ġher": 946,
      "##ments": 947,
      "##itt": 948,
      "##iff": 949,
      "Ġtr": 950,
      "Ġprodu": 951,
      "Ġmost": 952,
      "Ġpeople": 953,
      "Ġtw": 954,
      "Ġind": 955,
      "##ose": 956,
      "##ious": 957,
      "##ft": 958,
      "Ġknow": 959,
      "Ġinclud": 960,
      "##end": 961,
      "##ices": 962,
      "Ġthrough": 963,
      "##tern": 964,
      "Ġonly": 965,
      "Ġwell": 966,
      "##ates": 967,
      "##ons": 968,
      "Ġfirst": 969,
      "##hed": 970,
      "##ink": 971,
      "##les": 972,
      "Ġbet": 973,
      ").": 974,
      "Ġevery": 975,
      "Ġact": 976,
      "##lect": 977,
      "Ġcons": 978,
      "##ject": 979,
      "##round": 980,
      "##old": 981,
      "##ating": 982,
      "Ġph": 983,
      "##ise": 984,
      "##ian": 985,
      "Ġthese": 986,
      "ĠâĢĵ": 987,
      "##ities": 988,
      "Ġwant": 989,
      "##ause": 990,
      "Ġunder": 991,
      "Ġ4": 992,
      "##ific": 993,
      "##bs": 994,
      "##ade": 995,
      "Ġexper": 996,
      "âĢĿ": 997,
      "Ġsupp": 998,
      "Ġsee": 999,
      "Ġback": 1000,
      "##hen": 1001,
      "Ġrep": 1002,
      "Ġdiff": 1003,
      "Ġvery": 1004,
      "##ew": 1005,
      "Ġpo": 1006,
      "##iness": 1007,
      "Ġ5": 1008,
      "Ġsy": 1009,
      "ĠYou": 1010,
      "##ert": 1011,
      "##amp": 1012,
      "##iew": 1013,
      "Th": 1014,
      "##cess": 1015,
      "Ġreg": 1016,
      "##oth": 1017,
      "##mer": 1018,
      "##ph": 1019,
      "##ict": 1020,
      "##xt": 1021,
      "Ġmany": 1022,
      "Ġra": 1023,
      "Ġbus": 1024,
      "##ced": 1025,
      "##ange": 1026,
      "Ġstud": 1027,
      "##ily": 1028,
      "##we": 1029,
      "Ġinv": 1030,
      "ĠHe": 1031,
      "Ġtwo": 1032,
      "Ġgood": 1033,
      "Ġ19": 1034,
      "##ible": 1035,
      "##urn": 1036,
      "##uch": 1037,
      "##any": 1038,
      "##row": 1039,
      "Ġrel": 1040,
      "Ġke": 1041,
      "Ġgreat": 1042,
      "##fore": 1043,
      "Ġway": 1044,
      "##ife": 1045,
      "##ures": 1046,
      "Ġshe": 1047,
      "##als": 1048,
      "##erm": 1049,
      "##ility": 1050,
      "##ting": 1051,
      "##ract": 1052,
      "##ec": 1053,
      "Ġsm": 1054,
      "Ġyears": 1055,
      "##iss": 1056,
      "Ġwhere": 1057,
      "Ġdec": 1058,
      "Ġpos": 1059,
      "##eth": 1060,
      "Ġshould": 1061,
      "##ving": 1062,
      "##ys": 1063,
      "##ont": 1064,
      "Ġrem": 1065,
      "re": 1066,
      "Ġafter": 1067,
      "Ġcould": 1068,
      "##ased": 1069,
      "##day": 1070,
      "##pect": 1071,
      "##erson": 1072,
      "Ġeven": 1073,
      "Ġbest": 1074,
      "Ġev": 1075,
      "##ool": 1076,
      "##ng": 1077,
      "Ġinform": 1078,
      "Ġent": 1079,
      "##ience": 1080,
      "Ġthen": 1081,
      "Ġown": 1082,
      "##stem": 1083,
      "##ular": 1084,
      "Ġac": 1085,
      "Ġinst": 1086,
      "##ational": 1087,
      "##get": 1088,
      "Ġset": 1089,
      "Ġhigh": 1090,
      "##ved": 1091,
      "Ġfind": 1092,
      "##olog": 1093,
      "Ġloc": 1094,
      "##elf": 1095,
      "##ble": 1096,
      "##velop": 1097,
      "Ġfin": 1098,
      "Ġstart": 1099,
      "Ġins": 1100,
      "Ġcar": 1101,
      "##ath": 1102,
      "Ġsuch": 1103,
      "##rit": 1104,
      "##uring": 1105,
      "Ġnow": 1106,
      "Ġeff": 1107,
      "Ġsec": 1108,
      "##aw": 1109,
      "Ġrequ": 1110,
      "##ts": 1111,
      "Ġdown": 1112,
      "Ġdesign": 1113,
      "##ied": 1114,
      "##der": 1115,
      "##ward": 1116,
      "Ġright": 1117,
      "Ġhome": 1118,
      "##ics": 1119,
      "##ative": 1120,
      "Ġbusiness": 1121,
      "Ġmuch": 1122,
      "##air": 1123,
      "Ġday": 1124,
      "##hes": 1125,
      "Ġplay": 1126,
      "Ġgu": 1127,
      "##ower": 1128,
      "##ty": 1129,
      "##its": 1130,
      "Ġdiffere": 1131,
      "ĠIf": 1132,
      "Ġav": 1133,
      "Ġsaid": 1134,
      "##ient": 1135,
      "Ġatt": 1136,
      "##oy": 1137,
      "Ġexp": 1138,
      "##gan": 1139,
      "Ġdon": 1140,
      "Ġtake": 1141,
      "ĠAs": 1142,
      "##hip": 1143,
      "ĠUn": 1144,
      "Ġlong": 1145,
      "Ġinformation": 1146,
      "Ġread": 1147,
      "Ġmin": 1148,
      "##arch": 1149,
      "Ġtoo": 1150,
      "Ġbecause": 1151,
      "ĠWh": 1152,
      "##line": 1153,
      "##ener": 1154,
      "Ġche": 1155,
      "##ident": 1156,
      "##omm": 1157,
      "##ob": 1158,
      "Ġfl": 1159,
      "Ġproduct": 1160,
      "##ren": 1161,
      "Ġdisc": 1162,
      "##arket": 1163,
      "Ġused": 1164,
      "##und": 1165,
      "##alth": 1166,
      "##ited": 1167,
      "Ġsim": 1168,
      "Ġsystem": 1169,
      "Ġperson": 1170,
      "Ġdevelop": 1171,
      "Ġfam": 1172,
      "##ull": 1173,
      "Ġmon": 1174,
      "Ġinte": 1175,
      "##chn": 1176,
      "Ġbr": 1177,
      "##ove": 1178,
      "ĠRe": 1179,
      "Ġmade": 1180,
      "Ġbl": 1181,
      "Ġprovid": 1182,
      "##ustom": 1183,
      "Ġtrans": 1184,
      "Ġ6": 1185,
      "Ġhere": 1186,
      "Ġcre": 1187,
      "Ġprog": 1188,
      "Ġpres": 1189,
      "Ġsur": 1190,
      "Ġ&": 1191,
      "Ġass": 1192,
      "##io": 1193,
      "Ġvis": 1194,
      "),": 1195,
      "##cy": 1196,
      "##other": 1197,
      "##rib": 1198,
      "##ix": 1199,
      "Ġdoes": 1200,
      "##ash": 1201,
      "Ġbefore": 1202,
      "Ġdid": 1203,
      "Ġshow": 1204,
      "##chool": 1205,
      "Ġthose": 1206,
      "ĠPro": 1207,
      "##ner": 1208,
      "Ġcall": 1209,
      "Ġbeing": 1210,
      "Ġend": 1211,
      "In": 1212,
      "##ality": 1213,
      "Ġnum": 1214,
      "Ġworld": 1215,
      "Ġcomple": 1216,
      "Ġdet": 1217,
      "ĠAnd": 1218,
      "##ually": 1219,
      "##ork": 1220,
      "Ġwee": 1221,
      "Ġeach": 1222,
      "Ġ$": 1223,
      "Ġeas": 1224,
      "Ġlife": 1225,
      "Ġhand": 1226,
      "##ee": 1227,
      "##ake": 1228,
      "Ġform": 1229,
      "##ata": 1230,
      "Ġsub": 1231,
      "Ġmed": 1232,
      "##ric": 1233,
      "Ġbo": 1234,
      "Ġmem": 1235,
      "Ġart": 1236,
      "##ps": 1237,
      "##ues": 1238,
      "##ages": 1239,
      "Ġsupport": 1240,
      "##led": 1241,
      "Ġlook": 1242,
      "Ġagain": 1243,
      "Ġcur": 1244,
      "This": 1245,
      "##ouse": 1246,
      "##arn": 1247,
      "Ġop": 1248,
      "##ever": 1249,
      "##ional": 1250,
      "Ġdifferent": 1251,
      "##ss": 1252,
      "##az": 1253,
      "##arm": 1254,
      "##ank": 1255,
      "Ġsk": 1256,
      "Ġinter": 1257,
      "##kes": 1258,
      "Ġadv": 1259,
      "ve": 1260,
      "##ize": 1261,
      "Ġcustom": 1262,
      "##way": 1263,
      "##ci": 1264,
      "##gg": 1265,
      "Ġprocess": 1266,
      "##cept": 1267,
      "##ines": 1268,
      "##rest": 1269,
      "We": 1270,
      "##ple": 1271,
      "Ġwhile": 1272,
      "##land": 1273,
      "Ġaround": 1274,
      "ĠAl": 1275,
      "##ives": 1276,
      "Ġcle": 1277,
      "Ġstr": 1278,
      "##ince": 1279,
      "##ason": 1280,
      "##irect": 1281,
      "##olut": 1282,
      "Ġref": 1283,
      "##ather": 1284,
      "Ġpost": 1285,
      "Ġmarket": 1286,
      "Ġ10": 1287,
      "##ave": 1288,
      "Ġ.": 1289,
      "Ġcare": 1290,
      "Ġpol": 1291,
      "##ollow": 1292,
      "##lease": 1293,
      "Ġlead": 1294,
      "Ġprof": 1295,
      "Ġlove": 1296,
      "Ġavail": 1297,
      "Ġreally": 1298,
      "Ġlast": 1299,
      "##ves": 1300,
      "##ale": 1301,
      "Ġret": 1302,
      "Ġcommun": 1303,
      "Ġloo": 1304,
      "Ġaut": 1305,
      "Ġed": 1306,
      "##ef": 1307,
      "Ġ7": 1308,
      "##atch": 1309,
      "##nce": 1310,
      "Ġgra": 1311,
      "Ġfree": 1312,
      "Ġ8": 1313,
      "Ġchild": 1314,
      "Ġprogram": 1315,
      "##ier": 1316,
      "Ġplace": 1317,
      "##ways": 1318,
      "Ġtechn": 1319,
      "Ġdef": 1320,
      "Ġteam": 1321,
      "##ween": 1322,
      "ĠFor": 1323,
      "Ġser": 1324,
      "Ġsign": 1325,
      "Ġpur": 1326,
      "Ġlist": 1327,
      "Ġfun": 1328,
      "##âĢĿ": 1329,
      "Ġpub": 1330,
      "Ġimport": 1331,
      "Ġcour": 1332,
      "Ġusing": 1333,
      "Ġsom": 1334,
      "Ġcount": 1335,
      "##imes": 1336,
      "Ġdel": 1337,
      "Ġhim": 1338,
      "ll": 1339,
      "Ġboth": 1340,
      "##ness": 1341,
      "##ets": 1342,
      "##ivers": 1343,
      "Ġsame": 1344,
      "Ġext": 1345,
      "Ġthink": 1346,
      "Ġlar": 1347,
      "##ins": 1348,
      "Ġfeel": 1349,
      "Ġfound": 1350,
      "##riend": 1351,
      "ĠSh": 1352,
      "Ġval": 1353,
      "Ġbetween": 1354,
      "##read": 1355,
      "##pr": 1356,
      "Ġtop": 1357,
      "##ining": 1358,
      "Ġavailable": 1359,
      "Ġstill": 1360,
      "##ered": 1361,
      "Ġvar": 1362,
      "##ature": 1363,
      "Ġopt": 1364,
      "##ized": 1365,
      "Ġconf": 1366,
      "Ġservice": 1367,
      "Ġchar": 1368,
      "Ġ200": 1369,
      "Ġplan": 1370,
      "ĠAn": 1371,
      "Ġlot": 1372,
      "Ġthough": 1373,
      "##rent": 1374,
      "##iqu": 1375,
      "##view": 1376,
      "Ġgoing": 1377,
      "##ired": 1378,
      "Ġcompany": 1379,
      "Ġty": 1380,
      "Ġproject": 1381,
      "...": 1382,
      "ĠNew": 1383,
      "Ġide": 1384,
      "Ġfew": 1385,
      "Ġrun": 1386,
      "Ġgener": 1387,
      "##iel": 1388,
      "Ġfollow": 1389,
      "##ittle": 1390,
      "Ġappro": 1391,
      "##ety": 1392,
      "##ten": 1393,
      "ĠThey": 1394,
      "##ants": 1395,
      "Ġcor": 1396,
      "Ġmain": 1397,
      "##ov": 1398,
      "Ġpoint": 1399,
      "##ars": 1400,
      "Ġexperience": 1401,
      "Ġmod": 1402,
      "Ġresult": 1403,
      "Ġkeep": 1404,
      "##ology": 1405,
      "Ġdata": 1406,
      "Ġposs": 1407,
      "##up": 1408,
      "##iving": 1409,
      "Ġhealth": 1410,
      "##uc": 1411,
      "Ġsmall": 1412,
      "##less": 1413,
      "Ġbuild": 1414,
      "Ġpat": 1415,
      "ĠCl": 1416,
      "Ġwater": 1417,
      "Ġhapp": 1418,
      "##ering": 1419,
      "ĠAr": 1420,
      "Ġallow": 1421,
      "ĠBut": 1422,
      "Ġpartic": 1423,
      "Ġreal": 1424,
      "Ġob": 1425,
      "Ġmonth": 1426,
      "Ġorgan": 1427,
      "ĠDe": 1428,
      "##els": 1429,
      "##ital": 1430,
      "##ware": 1431,
      "Ġopen": 1432,
      "##plo": 1433,
      "Ġalways": 1434,
      "##ross": 1435,
      "Ġcent": 1436,
      "Ġservices": 1437,
      "Ġ9": 1438,
      "ĠSo": 1439,
      "Wh": 1440,
      "Ġincluding": 1441,
      "Ġprovide": 1442,
      "##ah": 1443,
      "Ġinterest": 1444,
      "##bers": 1445,
      "Ġsure": 1446,
      "##ock": 1447,
      "##oun": 1448,
      "Ġthings": 1449,
      "ĠThere": 1450,
      "Ġpri": 1451,
      "Ġinf": 1452,
      "Ġnumber": 1453,
      "##orth": 1454,
      "Ġpay": 1455,
      "Ġdri": 1456,
      "##ling": 1457,
      "##ural": 1458,
      "##ruct": 1459,
      "Ġcost": 1460,
      "Ġduring": 1461,
      "##ined": 1462,
      "Ġfamily": 1463,
      "Ġrest": 1464,
      "##erg": 1465,
      "##ug": 1466,
      "Ġmust": 1467,
      "Ġthree": 1468,
      "Ġlittle": 1469,
      "Ġfil": 1470,
      "##ically": 1471,
      "Ġwithout": 1472,
      "##thing": 1473,
      "##stand": 1474,
      "Ġstand": 1475,
      "##ton": 1476,
      "Ġschool": 1477,
      "ĠAd": 1478,
      "Ġiss": 1479,
      "Ġresp": 1480,
      "Ġcome": 1481,
      "Ġimportant": 1482,
      "Ġfact": 1483,
      "Ġeffect": 1484,
      "Ġbetter": 1485,
      "##blem": 1486,
      "##ody": 1487,
      "Ġrece": 1488,
      "##arly": 1489,
      "Ġperform": 1490,
      "##aut": 1491,
      "Ġspec": 1492,
      "##ists": 1493,
      "Ġdist": 1494,
      "##ery": 1495,
      "##ething": 1496,
      "Ġfriend": 1497,
      "##self": 1498,
      "##alk": 1499,
      "##uss": 1500,
      "Ġconc": 1501,
      "Ġve": 1502,
      "##ute": 1503,
      "It": 1504,
      "Ġonline": 1505,
      "Ġclass": 1506,
      "##ished": 1507,
      "Ġsay": 1508,
      "Ġproper": 1509,
      "Ġquest": 1510,
      "Ġpass": 1511,
      "##ients": 1512,
      "Ġlevel": 1513,
      "##ield": 1514,
      "Ġcontin": 1515,
      "Ġable": 1516,
      "Ġstate": 1517,
      "Ġgrou": 1518,
      "Ġtry": 1519,
      "##reen": 1520,
      "##ien": 1521,
      "Ġarea": 1522,
      "Ġproblem": 1523,
      "Ġbra": 1524,
      "Ġbel": 1525,
      "If": 1526,
      "Ġdirect": 1527,
      "ĠHow": 1528,
      "##orts": 1529,
      "Ġincre": 1530,
      "Ġnext": 1531,
      "##ploy": 1532,
      "##ention": 1533,
      "Ġspecial": 1534,
      "Ġwebs": 1535,
      "##ared": 1536,
      "Ġput": 1537,
      "ĠCom": 1538,
      "##oney": 1539,
      "Ġlight": 1540,
      "##ccess": 1541,
      "Ġsomething": 1542,
      "Ġgive": 1543,
      "ĠPl": 1544,
      "Ġfull": 1545,
      "##ately": 1546,
      "Ġaccess": 1547,
      "##meric": 1548,
      "##nect": 1549,
      "Ġopp": 1550,
      "Ġtri": 1551,
      "Ġwithin": 1552,
      "com": 1553,
      "##ertain": 1554,
      "##de": 1555,
      "Ġmight": 1556,
      "Ġanother": 1557,
      "##dition": 1558,
      "##ral": 1559,
      "##att": 1560,
      "##ames": 1561,
      "Ġblo": 1562,
      "Ġhard": 1563,
      "Ġbig": 1564,
      "##au": 1565,
      "##ential": 1566,
      "Ġorder": 1567,
      "Ġquality": 1568,
      "Ġmus": 1569,
      "Ġwr": 1570,
      "Ġsecond": 1571,
      "##vern": 1572,
      "Ġlet": 1573,
      "ĠLe": 1574,
      "Ġeng": 1575,
      "##oot": 1576,
      "ĠTe": 1577,
      "Ġgrow": 1578,
      "Ġcurrent": 1579,
      "Ġsince": 1580,
      "ĠBe": 1581,
      "##pos": 1582,
      "Ġi": 1583,
      "##man": 1584,
      "Ġinvest": 1585,
      "##ense": 1586,
      "##ortun": 1587,
      "##ards": 1588,
      "Ġpower": 1589,
      "Ġbook": 1590,
      "##rol": 1591,
      "##ior": 1592,
      "##pend": 1593,
      "Ġroom": 1594,
      "Ġhead": 1595,
      "Ġoper": 1596,
      "Ġsl": 1597,
      "Ġphot": 1598,
      "Ġest": 1599,
      "Ġprofess": 1600,
      "ĠInd": 1601,
      "ĠEx": 1602,
      "Ġaddition": 1603,
      "Ġdi": 1604,
      "Ġcr": 1605,
      "Ġless": 1606,
      "Ġrese": 1607,
      "##load": 1608,
      "##ours": 1609,
      "##orn": 1610,
      "##joy": 1611,
      "Ġold": 1612,
      "Ġtest": 1613,
      "Ġequ": 1614,
      "Ġweek": 1615,
      "##con": 1616,
      "##co": 1617,
      "##rist": 1618,
      "Ġoffer": 1619,
      "Ġdays": 1620,
      "##ivid": 1621,
      "##ration": 1622,
      "##ision": 1623,
      "Ġvisit": 1624,
      "Ġjo": 1625,
      "Ġworking": 1626,
      "ĠAmeric": 1627,
      "in": 1628,
      "##ism": 1629,
      "##eng": 1630,
      "Ġsit": 1631,
      "Ġprot": 1632,
      "Ġapplic": 1633,
      "Ġnever": 1634,
      "ĠSe": 1635,
      "Ġview": 1636,
      "##fect": 1637,
      "Ġbro": 1638,
      "Ġstre": 1639,
      "##ium": 1640,
      "Ġsite": 1641,
      "##ateg": 1642,
      "##ted": 1643,
      "Ġben": 1644,
      "ĠQ": 1645,
      "ĠSp": 1646,
      "Ġmeet": 1647,
      "Ġgame": 1648,
      "ĠAll": 1649,
      "Ġproducts": 1650,
      "Ġtoday": 1651,
      "##me": 1652,
      "Ġ'": 1653,
      "Ġfood": 1654,
      "##iversity": 1655,
      "Ġgot": 1656,
      "##oss": 1657,
      "ĠShe": 1658,
      "Ġgl": 1659,
      "Ġbre": 1660,
      "##gin": 1661,
      "Ġpract": 1662,
      "Ġlooking": 1663,
      "Ġpresent": 1664,
      "##ases": 1665,
      "##ote": 1666,
      "Ġel": 1667,
      "Ġfac": 1668,
      "Ġpublic": 1669,
      "Ġintern": 1670,
      "Ġlocal": 1671,
      "##ems": 1672,
      "Ġgr": 1673,
      "##tain": 1674,
      "##here": 1675,
      "##ified": 1676,
      "##iron": 1677,
      "ĠâĢĺ": 1678,
      "Ġstudents": 1679,
      "Ġmaking": 1680,
      "000": 1681,
      "ĠCol": 1682,
      "Ġ12": 1683,
      "Ġaff": 1684,
      "Ġlarge": 1685,
      "ĠSc": 1686,
      "Ġprom": 1687,
      "Ġneeds": 1688,
      "Ġprev": 1689,
      "##agement": 1690,
      "Ġunderstand": 1691,
      "##ently": 1692,
      "Ġpop": 1693,
      "Ġwebsite": 1694,
      "##ator": 1695,
      "##ats": 1696,
      "Ġunt": 1697,
      "Ġmet": 1698,
      "##ump": 1699,
      "##room": 1700,
      "##pping": 1701,
      "Ġindust": 1702,
      "Ġsal": 1703,
      "Ġbuy": 1704,
      "##ird": 1705,
      "##cing": 1706,
      "##ability": 1707,
      "Ġcheck": 1708,
      "##ieve": 1709,
      "Ġcap": 1710,
      "You": 1711,
      "##ron": 1712,
      "##be": 1713,
      "Ġimpro": 1714,
      "##por": 1715,
      "##ised": 1716,
      "Ġcomplete": 1717,
      "Ġca": 1718,
      "##lection": 1719,
      "Ġchildren": 1720,
      "Ġwin": 1721,
      "Ġconst": 1722,
      "##inal": 1723,
      "Ġchange": 1724,
      "##aterial": 1725,
      "Ġair": 1726,
      "##ER": 1727,
      "Ġchang": 1728,
      "Ġmoney": 1729,
      "Ġfr": 1730,
      ".\"": 1731,
      "ĠZ": 1732,
      "Ġevent": 1733,
      "##illion": 1734,
      "Ġeasy": 1735,
      "##ax": 1736,
      "Ġactiv": 1737,
      "ĠTo": 1738,
      "##ider": 1739,
      "##atter": 1740,
      "##ify": 1741,
      "ĠIs": 1742,
      "Ġenjoy": 1743,
      "Ġsuccess": 1744,
      "##ott": 1745,
      "##ission": 1746,
      "Ġtru": 1747,
      "ĠCon": 1748,
      "Ġcreat": 1749,
      "Ġcourse": 1750,
      "Ġlearn": 1751,
      "Ġbas": 1752,
      "ĠPh": 1753,
      "##ample": 1754,
      "##outh": 1755,
      "Ġcase": 1756,
      "##ique": 1757,
      "Ġconnect": 1758,
      "##ills": 1759,
      "Ġsaf": 1760,
      "##01": 1761,
      "Ġdev": 1762,
      "Ġann": 1763,
      "Ġlaw": 1764,
      "##ably": 1765,
      "Ġ18": 1766,
      "##ization": 1767,
      "##tend": 1768,
      "Ġreport": 1769,
      ".,": 1770,
      "##port": 1771,
      "##ode": 1772,
      "Ġterm": 1773,
      "ĠFr": 1774,
      "Ġhouse": 1775,
      "Ġturn": 1776,
      "##ains": 1777,
      "Ġemploy": 1778,
      "##ocus": 1779,
      "##iver": 1780,
      "##itions": 1781,
      "ĠAt": 1782,
      "##ann": 1783,
      "Ġpar": 1784,
      "##ope": 1785,
      "Ġalong": 1786,
      "Ġaway": 1787,
      "##ids": 1788,
      "Ġdem": 1789,
      "ĠUS": 1790,
      "##ush": 1791,
      "##gether": 1792,
      "Ġtogether": 1793,
      "Ġpossible": 1794,
      "##ury": 1795,
      "Ġoften": 1796,
      "Ġpa": 1797,
      "ĠWith": 1798,
      "Ġtreat": 1799,
      "Ġdetail": 1800,
      "Ġelect": 1801,
      "Ġpast": 1802,
      "##aster": 1803,
      "Ġpain": 1804,
      "Ġleg": 1805,
      "Ġbeaut": 1806,
      "Ġuntil": 1807,
      "##utes": 1808,
      "Ġname": 1809,
      "Ġsing": 1810,
      "##ead": 1811,
      "Ġperfect": 1812,
      "##pped": 1813,
      "##aring": 1814,
      "##ries": 1815,
      "Ġaccount": 1816,
      "Ġbased": 1817,
      "##ember": 1818,
      "##lish": 1819,
      "##ern": 1820,
      "Ġexc": 1821,
      "Ġindivid": 1822,
      "##icle": 1823,
      "Ġcreate": 1824,
      "Ġmaterial": 1825,
      "##oh": 1826,
      "Ġhum": 1827,
      "##ik": 1828,
      "##ogra": 1829,
      "Ġcontact": 1830,
      "##ina": 1831,
      "Ġhist": 1832,
      "Ġbeh": 1833,
      "##ising": 1834,
      "##ories": 1835,
      "ĠMan": 1836,
      "Ġ15": 1837,
      "Ġpersonal": 1838,
      "Ġdra": 1839,
      "Ġwhy": 1840,
      "ĠBl": 1841,
      "##let": 1842,
      "Ġvide": 1843,
      "##iven": 1844,
      "Ġtimes": 1845,
      "##itive": 1846,
      "ĠOn": 1847,
      "Ġcommunity": 1848,
      "Ġexpect": 1849,
      "Ġgroup": 1850,
      "##work": 1851,
      "Ġpot": 1852,
      "Ġresearch": 1853,
      "##uro": 1854,
      "ĠRes": 1855,
      "Ġhaving": 1856,
      "Ġinclude": 1857,
      "Ġbenef": 1858,
      "##irm": 1859,
      "##olution": 1860,
      "ĠChrist": 1861,
      "##soci": 1862,
      "Ġsw": 1863,
      "##ding": 1864,
      "##ination": 1865,
      "##viron": 1866,
      "ĠOr": 1867,
      "Ġagainst": 1868,
      "Ġkind": 1869,
      "Ġla": 1870,
      "Ġfour": 1871,
      "Ġask": 1872,
      "##bo": 1873,
      "Ġside": 1874,
      "Ġworks": 1875,
      "Ġmar": 1876,
      "Ġwrit": 1877,
      "##atures": 1878,
      "Ġsoft": 1879,
      "##arent": 1880,
      "Ġ0": 1881,
      "ĠWhen": 1882,
      "Ġindividual": 1883,
      "Ġrecord": 1884,
      "ĠThat": 1885,
      "Ġfocus": 1886,
      "ĠCent": 1887,
      "##ived": 1888,
      "##lement": 1889,
      "##pecial": 1890,
      ",âĢĿ": 1891,
      "or": 1892,
      "Ġcontrol": 1893,
      "##ger": 1894,
      "Ġrequire": 1895,
      "##ken": 1896,
      "Ġbecome": 1897,
      "Ġthing": 1898,
      "ĠComm": 1899,
      "##side": 1900,
      "Ġopportun": 1901,
      "ĠCan": 1902,
      "Ġmove": 1903,
      "##ley": 1904,
      "Ġline": 1905,
      "##aking": 1906,
      "##ured": 1907,
      "Ġspecific": 1908,
      "Ġgovern": 1909,
      "Ġmakes": 1910,
      "##ency": 1911,
      "##cu": 1912,
      "##hor": 1913,
      "ĠCo": 1914,
      "Ġdone": 1915,
      "Ġmult": 1916,
      "Ġprotect": 1917,
      "Ġsever": 1918,
      "Ġwom": 1919,
      "Ġtem": 1920,
      "Ġsty": 1921,
      "Ġprice": 1922,
      "##jor": 1923,
      "Ġmeans": 1924,
      "Ġnight": 1925,
      "Ġclo": 1926,
      "Ġmembers": 1927,
      "Ġdevelopment": 1928,
      "##ney": 1929,
      "Ġtre": 1930,
      "Ġes": 1931,
      "Ġlim": 1932,
      "ĠGod": 1933,
      "##uck": 1934,
      "##oice": 1935,
      "ĠOur": 1936,
      "##ands": 1937,
      "Ġword": 1938,
      "Ġlow": 1939,
      "##oint": 1940,
      "Ġcou": 1941,
      "Ġens": 1942,
      "Ġshort": 1943,
      "##aff": 1944,
      "##iful": 1945,
      "Ġreview": 1946,
      "Ġcertain": 1947,
      "##iting": 1948,
      "Ġleft": 1949,
      "Ġpage": 1950,
      "Ġocc": 1951,
      "Ġnet": 1952,
      "##ready": 1953,
      "Ġcomes": 1954,
      "Ġnon": 1955,
      "##ane": 1956,
      "Ġquick": 1957,
      "Ġothers": 1958,
      "Ġsocial": 1959,
      "Ġenough": 1960,
      "Ġeduc": 1961,
      "Ġseveral": 1962,
      "Ġclean": 1963,
      "Ġhot": 1964,
      "Ġlive": 1965,
      "##ows": 1966,
      "Ġbody": 1967,
      "ĠâĢĶ": 1968,
      "##uture": 1969,
      "Ġsol": 1970,
      "Ġvari": 1971,
      "##br": 1972,
      "ĠWhat": 1973,
      "##cent": 1974,
      "Ġjob": 1975,
      "Ġet": 1976,
      "##oring": 1977,
      "##ript": 1978,
      "##anies": 1979,
      "##part": 1980,
      "Ġfund": 1981,
      "Ġalready": 1982,
      "Ġfav": 1983,
      "ĠTr": 1984,
      "ĠEng": 1985,
      "##conom": 1986,
      "Ġacross": 1987,
      "##vironment": 1988,
      "Ġtyp": 1989,
      "ĠUniversity": 1990,
      "Ġspace": 1991,
      "ĠThese": 1992,
      "Ġ30": 1993,
      "Ġimm": 1994,
      "Ġmusic": 1995,
      "##itc": 1996,
      "ĠNo": 1997,
      "Ġvers": 1998,
      "Ġkey": 1999,
      "Ġpurch": 2000,
      "Ġtool": 2001,
      "Ġever": 2002,
      "##ots": 2003,
      "the": 2004,
      "Ġgetting": 2005,
      "##aim": 2006,
      "##rop": 2007,
      "As": 2008,
      "Ġredu": 2009,
      "##fact": 2010,
      "##fer": 2011,
      "##urs": 2012,
      "##anks": 2013,
      "Ġpack": 2014,
      "Ġbit": 2015,
      "Ġhig": 2016,
      "Ġmind": 2017,
      "Ġ11": 2018,
      "Ġcountry": 2019,
      "##ances": 2020,
      "Ġinstall": 2021,
      "Ġanal": 2022,
      "Ġhold": 2023,
      "##ither": 2024,
      "Ġcover": 2025,
      "##ged": 2026,
      "Ġshare": 2027,
      "Ġmajor": 2028,
      "Ġdeal": 2029,
      "##alf": 2030,
      "##min": 2031,
      "##urther": 2032,
      "Ġbelow": 2033,
      "##IN": 2034,
      "##ides": 2035,
      "Ġrange": 2036,
      "Ġparticular": 2037,
      "Ġfore": 2038,
      "##urity": 2039,
      "Ġenc": 2040,
      "##ethod": 2041,
      "##ret": 2042,
      "Ġtravel": 2043,
      "âĢľ": 2044,
      "##ording": 2045,
      "Ġexample": 2046,
      "Ġfar": 2047,
      "##ommend": 2048,
      "Ġoffers": 2049,
      "ĠMar": 2050,
      "##omes": 2051,
      "Ġorig": 2052,
      "Ġfuture": 2053,
      "##ift": 2054,
      "Ġexpl": 2055,
      "Ġdoing": 2056,
      "Ġcompet": 2057,
      "Ġmean": 2058,
      "Ġindustry": 2059,
      "##oose": 2060,
      "##wards": 2061,
      "Ġcomb": 2062,
      "##ribut": 2063,
      "Ġstep": 2064,
      "What": 2065,
      "ĠMy": 2066,
      "Ġboo": 2067,
      "Ġcity": 2068,
      "Ġwind": 2069,
      "Ġinvol": 2070,
      "Ġbring": 2071,
      "##osp": 2072,
      "Ġcompanies": 2073,
      "Ġcamp": 2074,
      "##sel": 2075,
      "##ograph": 2076,
      "Ġseason": 2077,
      "Ġvalue": 2078,
      "Ġhours": 2079,
      "Ġleast": 2080,
      "Ġident": 2081,
      "Ġpriv": 2082,
      "Ġtell": 2083,
      "Ġstudy": 2084,
      "##err": 2085,
      "Ġstory": 2086,
      "##ilities": 2087,
      "##atic": 2088,
      "Ġcalled": 2089,
      "ĠAm": 2090,
      "##ilt": 2091,
      "âĢĶ": 2092,
      "Ġonce": 2093,
      "Ġreturn": 2094,
      "Ġactually": 2095,
      "##duct": 2096,
      "Ġbed": 2097,
      "Ġrecommend": 2098,
      "Ġ100": 2099,
      "ĠSu": 2100,
      "Ġstarted": 2101,
      "##aces": 2102,
      "##urance": 2103,
      "Ġ2018": 2104,
      "Ġprep": 2105,
      "Ġreason": 2106,
      "ĠDo": 2107,
      "Ġcustomers": 2108,
      "##ON": 2109,
      "ĠMe": 2110,
      "Ġbeautiful": 2111,
      "Ġess": 2112,
      "##osed": 2113,
      "Ġfeatures": 2114,
      "Ġamount": 2115,
      "##ners": 2116,
      "##ster": 2117,
      "Ġaddress": 2118,
      "Ġbrand": 2119,
      "ĠCar": 2120,
      "Ġpict": 2121,
      "Ġris": 2122,
      "Ġmil": 2123,
      "##iod": 2124,
      "Ġfriends": 2125,
      "Ġemail": 2126,
      "Ġcut": 2127,
      "There": 2128,
      "Ġwa": 2129,
      "Ġsum": 2130,
      "ĠApp": 2131,
      "Ġresults": 2132,
      "##enn": 2133,
      "##ones": 2134,
      "Ġpie": 2135,
      "Ġminutes": 2136,
      "Ġport": 2137,
      "ĠHowever": 2138,
      "##ES": 2139,
      "##ffic": 2140,
      "Ġabove": 2141,
      "##erence": 2142,
      "##af": 2143,
      "Ġrespons": 2144,
      "For": 2145,
      "Ġstrong": 2146,
      "Ġdidn": 2147,
      "Ġchall": 2148,
      "Ġvol": 2149,
      "Ġtechnology": 2150,
      "Ġfield": 2151,
      "##ancial": 2152,
      "##resent": 2153,
      "##ource": 2154,
      "##cell": 2155,
      "Ġmethod": 2156,
      "##ai": 2157,
      "ĠComp": 2158,
      "Ġclose": 2159,
      "##AT": 2160,
      "Ġoffic": 2161,
      "Ġsuper": 2162,
      "Ġcharact": 2163,
      "Ġdr": 2164,
      "Ġcontent": 2165,
      "##atural": 2166,
      "Ġprofessional": 2167,
      "Ġbegin": 2168,
      "Ġenvironment": 2169,
      "##most": 2170,
      "##fort": 2171,
      "Ġvideo": 2172,
      "Ġdiscuss": 2173,
      "##bal": 2174,
      "ĠTra": 2175,
      "Ġbuilding": 2176,
      "Ġplease": 2177,
      "##ino": 2178,
      "##ources": 2179,
      "##ledge": 2180,
      "ĠIntern": 2181,
      "##ply": 2182,
      "##cle": 2183,
      "Ġz": 2184,
      "Ġdoesn": 2185,
      "##ream": 2186,
      "ĠMay": 2187,
      "Ġprovides": 2188,
      "Ġsearch": 2189,
      "Ġtype": 2190,
      "Ġtax": 2191,
      "Ġeverything": 2192,
      "##ulation": 2193,
      "Ġmonths": 2194,
      "##by": 2195,
      "##lished": 2196,
      "Ġheart": 2197,
      "ĠRo": 2198,
      "Ġstay": 2199,
      "Ġtot": 2200,
      "Ġflo": 2201,
      "Ġquestions": 2202,
      "ĠServ": 2203,
      "Ġmom": 2204,
      "and": 2205,
      "Ġknown": 2206,
      "Ġgiven": 2207,
      "Ġrele": 2208,
      "##tt": 2209,
      "ĠX": 2210,
      "ĠSy": 2211,
      "Ġmen": 2212,
      "##arning": 2213,
      "Ġsound": 2214,
      "Ġcra": 2215,
      "Ġwon": 2216,
      "Ġweb": 2217,
      "Ġearly": 2218,
      "Ġyoung": 2219,
      "##idd": 2220,
      "Ġdownload": 2221,
      "##icy": 2222,
      "##ister": 2223,
      "##ergy": 2224,
      "Ġyet": 2225,
      "ĠPr": 2226,
      "ĠWor": 2227,
      "Ġproperty": 2228,
      "##ians": 2229,
      "##ips": 2230,
      "##unch": 2231,
      "Ġwond": 2232,
      "ĠInst": 2233,
      "Ġmillion": 2234,
      "##ches": 2235,
      "##crib": 2236,
      "Ġsimple": 2237,
      "##ental": 2238,
      "Ġcred": 2239,
      "Ġce": 2240,
      "Ġtraining": 2241,
      "Ġthought": 2242,
      "##ler": 2243,
      "##ape": 2244,
      "Ġmanagement": 2245,
      "Ġgovernment": 2246,
      "##pecially": 2247,
      "Ġey": 2248,
      "Ġimprove": 2249,
      "##sw": 2250,
      "Ġcame": 2251,
      "Ġcard": 2252,
      "Ġ199": 2253,
      "Ġant": 2254,
      "##une": 2255,
      "##ges": 2256,
      "Ġselect": 2257,
      "##hers": 2258,
      "##li": 2259,
      "Ġsingle": 2260,
      "Ġeconom": 2261,
      "##AN": 2262,
      "Ġvarious": 2263,
      "Ġissues": 2264,
      "Ġcal": 2265,
      "##aps": 2266,
      "Ġareas": 2267,
      "##uff": 2268,
      "##ibility": 2269,
      "##AR": 2270,
      "##of": 2271,
      "##resh": 2272,
      "Ġappear": 2273,
      "##cks": 2274,
      "ĠMed": 2275,
      "Ġdue": 2276,
      "Ġrepl": 2277,
      "Ġmot": 2278,
      "##mber": 2279,
      "Ġconsider": 2280,
      "##ights": 2281,
      "Ġbar": 2282,
      "##over": 2283,
      "Ġpress": 2284,
      ",\"": 2285,
      "Ġrequired": 2286,
      "ĠGu": 2287,
      "Ġfollowing": 2288,
      "ĠEuro": 2289,
      "Ġtook": 2290,
      "Ġperiod": 2291,
      "Ġsell": 2292,
      "##illed": 2293,
      "Ġcult": 2294,
      "Ġupd": 2295,
      "##ring": 2296,
      "When": 2297,
      "##ensive": 2298,
      "##50": 2299,
      "Ġste": 2300,
      "Ġnews": 2301,
      "Ġcomput": 2302,
      "Ġhappen": 2303,
      "Ġsays": 2304,
      "##asing": 2305,
      "##ored": 2306,
      "##rap": 2307,
      "##ohn": 2308,
      "Ġsize": 2309,
      "ĠOne": 2310,
      "ĠÂ": 2311,
      "ĠEn": 2312,
      "Ġwhether": 2313,
      "Ġhope": 2314,
      "##fully": 2315,
      "Ġwhole": 2316,
      "Ġunique": 2317,
      "##iday": 2318,
      "Ġexperien": 2319,
      "##eral": 2320,
      "How": 2321,
      "Ġlater": 2322,
      "Ġfilm": 2323,
      "Ġenergy": 2324,
      "Ġcommon": 2325,
      "##ogn": 2326,
      "Ġ,": 2327,
      "Ġmess": 2328,
      "##roll": 2329,
      "##abor": 2330,
      "Ġmanag": 2331,
      "##ene": 2332,
      "Ġexam": 2333,
      "##augh": 2334,
      "Ġstrateg": 2335,
      "ĠCont": 2336,
      "##acy": 2337,
      "Ġliving": 2338,
      "Ġperformance": 2339,
      "##idence": 2340,
      "Ġtable": 2341,
      "Ġtaking": 2342,
      "##ony": 2343,
      "Ġidea": 2344,
      "##cript": 2345,
      "##ufact": 2346,
      "ĠAmerican": 2347,
      "##eb": 2348,
      "Ġfurther": 2349,
      "##ume": 2350,
      "Ġaud": 2351,
      "##ung": 2352,
      "##ruction": 2353,
      "##inc": 2354,
      "##vert": 2355,
      "Ġparticip": 2356,
      "Ġstaff": 2357,
      "##ests": 2358,
      "Ġmedia": 2359,
      "Ġdig": 2360,
      "ĠFl": 2361,
      "Ġphys": 2362,
      "Ġmeas": 2363,
      "Ġamong": 2364,
      "##mb": 2365,
      "Ġ16": 2366,
      "Ġprob": 2367,
      "An": 2368,
      "Ġrelations": 2369,
      "Ġtal": 2370,
      "Ġpercent": 2371,
      "Ġfront": 2372,
      "Ġassist": 2373,
      "##rodu": 2374,
      "##urch": 2375,
      "Ġauthor": 2376,
      "##astic": 2377,
      "##though": 2378,
      "##xim": 2379,
      "Ġnear": 2380,
      "##oll": 2381,
      "Ġhuman": 2382,
      "Ġseen": 2383,
      "Ġeffective": 2384,
      "##go": 2385,
      "Ġfre": 2386,
      "Ġeither": 2387,
      "Ġdesigned": 2388,
      "##ched": 2389,
      "Ġsn": 2390,
      "Ġsomeone": 2391,
      "Ġchoose": 2392,
      "ĠChe": 2393,
      "##icult": 2394,
      "##cer": 2395,
      "##come": 2396,
      "Ġwall": 2397,
      "Ġensure": 2398,
      "Ġprint": 2399,
      "##ites": 2400,
      "##lus": 2401,
      "Ġpotential": 2402,
      "Ġclaim": 2403,
      "Ġoffice": 2404,
      "##irl": 2405,
      "Ġage": 2406,
      "Ġnecess": 2407,
      "Ġcustomer": 2408,
      "##rict": 2409,
      "Ġwent": 2410,
      "Ġprovided": 2411,
      "##irt": 2412,
      "##app": 2413,
      "##lege": 2414,
      "Ġ14": 2415,
      "Ġwomen": 2416,
      "##ided": 2417,
      "Ġdocu": 2418,
      "Ġneeded": 2419,
      "##OR": 2420,
      "##aur": 2421,
      "Ġdam": 2422,
      "Ġfive": 2423,
      "Ġentire": 2424,
      "ĠNe": 2425,
      "##lex": 2426,
      "Ġquite": 2427,
      "Ġach": 2428,
      "Ġbelieve": 2429,
      "Ġcond": 2430,
      "##selves": 2431,
      "ĠDes": 2432,
      "##edi": 2433,
      "Ġtext": 2434,
      "##hing": 2435,
      "Ġoil": 2436,
      "Ġflow": 2437,
      "ĠRep": 2438,
      "Ġhost": 2439,
      "Ġincludes": 2440,
      "Ġsignific": 2441,
      "Ġhistory": 2442,
      "Ġwide": 2443,
      "##itted": 2444,
      "Ġmag": 2445,
      "Ġoptions": 2446,
      "Ġengine": 2447,
      "ĠSte": 2448,
      "Ġfunction": 2449,
      "Ġsimply": 2450,
      "Ġfinancial": 2451,
      "Ġespecially": 2452,
      "##iously": 2453,
      "Ġtour": 2454,
      "##ees": 2455,
      "##nam": 2456,
      "##ilar": 2457,
      "##oming": 2458,
      "Ġquestion": 2459,
      "ĠBo": 2460,
      "Ġbreak": 2461,
      "10": 2462,
      "##ables": 2463,
      "ĠUnited": 2464,
      "ĠYour": 2465,
      "Ġmach": 2466,
      "Ġsoftware": 2467,
      "##son": 2468,
      "##ification": 2469,
      "##rew": 2470,
      "Ġseries": 2471,
      "Ġ13": 2472,
      "##ication": 2473,
      "##gr": 2474,
      "##imate": 2475,
      "Ġglo": 2476,
      "Ġsugg": 2477,
      "ĠEurope": 2478,
      "Ġland": 2479,
      "Ġcomfort": 2480,
      "Ġyourself": 2481,
      "Ġsystems": 2482,
      "##ators": 2483,
      "##nov": 2484,
      "Ġcann": 2485,
      "##ued": 2486,
      "Ġcell": 2487,
      "201": 2488,
      "Ġfavor": 2489,
      "##book": 2490,
      "##ctor": 2491,
      "##inking": 2492,
      "Ġ24": 2493,
      "##gs": 2494,
      "Ġextra": 2495,
      "Ġspend": 2496,
      "Ġexist": 2497,
      "##aching": 2498,
      "Ġeveryone": 2499,
      "##ained": 2500,
      "##play": 2501,
      "!!": 2502,
      "Ġface": 2503,
      "St": 2504,
      "Ġknowledge": 2505,
      "##gle": 2506,
      "Ġnatural": 2507,
      "ĠCity": 2508,
      "##ires": 2509,
      "Ġele": 2510,
      "Ġwriting": 2511,
      "##arr": 2512,
      "Ġinit": 2513,
      "Ġclear": 2514,
      "Ġsitu": 2515,
      "##yl": 2516,
      "Ġparent": 2517,
      "##gest": 2518,
      "Ġ/": 2519,
      "Ġetc": 2520,
      "Ġcollect": 2521,
      "Ġdifficult": 2522,
      "##ili": 2523,
      "Ġ2017": 2524,
      "Ġapplication": 2525,
      "##azing": 2526,
      "Ġfall": 2527,
      "ĠCount": 2528,
      "Ġevents": 2529,
      "##ises": 2530,
      "Ġproblems": 2531,
      "Ġideas": 2532,
      "Ġways": 2533,
      "Ġmiss": 2534,
      "Ġgames": 2535,
      "##ask": 2536,
      "Ġcir": 2537,
      "Ġanything": 2538,
      "Ġmoder": 2539,
      "Ġself": 2540,
      "##ops": 2541,
      "Ġpopular": 2542,
      "Ġstyle": 2543,
      "Ġrepresent": 2544,
      "Ġhalf": 2545,
      "Ġcolor": 2546,
      "So": 2547,
      "ĠJohn": 2548,
      "##icro": 2549,
      "Ġwhite": 2550,
      "Ġdeterm": 2551,
      "Ġalmost": 2552,
      "Ġclients": 2553,
      "##itchen": 2554,
      "Ġmodel": 2555,
      "##par": 2556,
      "Ġred": 2557,
      "Ġphone": 2558,
      "ĠCal": 2559,
      "Ġlikely": 2560,
      "Ġsat": 2561,
      "##ief": 2562,
      "Ġadded": 2563,
      "##ED": 2564,
      "Ġansw": 2565,
      "Ġveh": 2566,
      "to": 2567,
      "ĠAfter": 2568,
      "##ille": 2569,
      "Ġdou": 2570,
      "Ġsoon": 2571,
      "19": 2572,
      "Ġinde": 2573,
      "Ġpaper": 2574,
      "##ok": 2575,
      "Ġpan": 2576,
      "st": 2577,
      "Ġhowever": 2578,
      "Ġblack": 2579,
      "Ġful": 2580,
      "Ġhy": 2581,
      "Ġthird": 2582,
      "Ġmor": 2583,
      "Ġposition": 2584,
      "Ġabs": 2585,
      "Ġdetails": 2586,
      "##angu": 2587,
      "Ġwatch": 2588,
      "Ġ25": 2589,
      "ĠAust": 2590,
      "Ġregard": 2591,
      "##umb": 2592,
      "Ġimpact": 2593,
      "ĠSouth": 2594,
      "##ze": 2595,
      "Ġtaken": 2596,
      "Ġdeb": 2597,
      "Ġseem": 2598,
      "ĠMin": 2599,
      "##ux": 2600,
      "Ġcrit": 2601,
      "Ġreceive": 2602,
      "##ibr": 2603,
      "Ġ50": 2604,
      "##pper": 2605,
      "Ġsignificant": 2606,
      "Ġmanufact": 2607,
      "##olutions": 2608,
      "Ġ17": 2609,
      "##itch": 2610,
      "##che": 2611,
      "Ġpick": 2612,
      "ĠSchool": 2613,
      "##anced": 2614,
      "Ġ..": 2615,
      "Ġfoot": 2616,
      "Ġsecurity": 2617,
      "Ġthroughout": 2618,
      "Ġsend": 2619,
      "Ġchanges": 2620,
      "Ġcreated": 2621,
      "Ġforward": 2622,
      "Ġroad": 2623,
      "##elt": 2624,
      "Ġconsum": 2625,
      "Ġbox": 2626,
      "Ġfail": 2627,
      "Ġagree": 2628,
      "Ġrelationship": 2629,
      "Ġincrease": 2630,
      "Ġautom": 2631,
      "Ġlearning": 2632,
      "Ġsho": 2633,
      "Ġinsurance": 2634,
      "Ġaccept": 2635,
      "Ġfeature": 2636,
      "##EN": 2637,
      "##vent": 2638,
      "Ġready": 2639,
      "##oid": 2640,
      "âĢĵ": 2641,
      "ĠState": 2642,
      "Ġopportunity": 2643,
      "Ġassoci": 2644,
      "##rown": 2645,
      "Ġ[": 2646,
      "Ġissue": 2647,
      "##arl": 2648,
      "Ġstruct": 2649,
      "Ġago": 2650,
      "##ipment": 2651,
      ".âĢĿ": 2652,
      "ĠNorth": 2653,
      "Ġrisk": 2654,
      "Ġsafe": 2655,
      "Ġfit": 2656,
      "Ġlink": 2657,
      "Ġtreatment": 2658,
      "Ġwonder": 2659,
      "##ball": 2660,
      "Ġlay": 2661,
      "Ġtrack": 2662,
      "Ġdepend": 2663,
      "Ġsubject": 2664,
      "##AS": 2665,
      "Ġestab": 2666,
      "Ġdefin": 2667,
      "Ġcontract": 2668,
      "Ġfast": 2669,
      "##etimes": 2670,
      "Ġlocated": 2671,
      "##dd": 2672,
      "##Ã©": 2673,
      "##iple": 2674,
      "Ġstra": 2675,
      "Ġusers": 2676,
      "ĠBr": 2677,
      "Ġuser": 2678,
      "ĠNational": 2679,
      "##uge": 2680,
      "Ġrather": 2681,
      "##ison": 2682,
      "Ġbad": 2683,
      "Ġparty": 2684,
      "##oon": 2685,
      "##face": 2686,
      "##rect": 2687,
      "To": 2688,
      "Ġlat": 2689,
      "##verage": 2690,
      "ĠGra": 2691,
      "Ġtakes": 2692,
      "Ġtradition": 2693,
      "Ġ2019": 2694,
      "##ried": 2695,
      "##opy": 2696,
      "Ġmob": 2697,
      "##eter": 2698,
      "Ġtou": 2699,
      "ĠIm": 2700,
      "Our": 2701,
      "Ġcoll": 2702,
      "Ġsales": 2703,
      "Ġrate": 2704,
      "##reme": 2705,
      "ĠNot": 2706,
      "Ġpret": 2707,
      "Ġtalk": 2708,
      "Ġusually": 2709,
      "Ġobject": 2710,
      "##ey": 2711,
      "Ġwalk": 2712,
      "Ġmatter": 2713,
      "Ġeducation": 2714,
      "##IT": 2715,
      "Ġregular": 2716,
      "Ġskills": 2717,
      "Ġwood": 2718,
      "Ġcoming": 2719,
      "Ġcontinue": 2720,
      "Ġfire": 2721,
      "##isc": 2722,
      "Ġsent": 2723,
      "##IS": 2724,
      "Ġdate": 2725,
      "##apt": 2726,
      "Ġprobably": 2727,
      "Ġjour": 2728,
      "Ġ2016": 2729,
      "Ġadditional": 2730,
      "Ġskin": 2731,
      "Ġstore": 2732,
      "Ġelse": 2733,
      "Ġtrying": 2734,
      "Ġhigher": 2735,
      "Ġoutside": 2736,
      "##ival": 2737,
      "Ġinsp": 2738,
      "Ġactivities": 2739,
      "##arget": 2740,
      "Ġnice": 2741,
      "Ġhappy": 2742,
      "Ġblog": 2743,
      "Ġdeg": 2744,
      "##ules": 2745,
      "Ġpoints": 2746,
      "Ġpolit": 2747,
      "Ġsimilar": 2748,
      "ĠGo": 2749,
      "##istic": 2750,
      "Ġimage": 2751,
      "Ġrecogn": 2752,
      "##itut": 2753,
      "Ġinfl": 2754,
      "Ġut": 2755,
      "##atur": 2756,
      "Ġitems": 2757,
      "ĠAg": 2758,
      "##oura": 2759,
      "00": 2760,
      "Ġstat": 2761,
      "Ġrespect": 2762,
      "Ġeasily": 2763,
      "##atform": 2764,
      "Ġkids": 2765,
      "Ġcurrently": 2766,
      "Ġexcell": 2767,
      "Ġmember": 2768,
      "Ġcredit": 2769,
      "Ġwanted": 2770,
      "Ġfile": 2771,
      "Ġbott": 2772,
      "Ġrole": 2773,
      "Ġisn": 2774,
      "Ġattend": 2775,
      "Ġversion": 2776,
      "##for": 2777,
      "Ġprivate": 2778,
      "ĠInc": 2779,
      "Ġcharacter": 2780,
      "Ġhol": 2781,
      "Ġsle": 2782,
      "Ġpractice": 2783,
      "Ġoriginal": 2784,
      "##inks": 2785,
      "Ġpretty": 2786,
      "##airs": 2787,
      "Ġfinal": 2788,
      "Ġprojects": 2789,
      "##itting": 2790,
      "Ġreceived": 2791,
      "Ġbuilt": 2792,
      "Ġinside": 2793,
      "ĠYork": 2794,
      "##20": 2795,
      "##AL": 2796,
      "Ġaction": 2797,
      "Ġmaintain": 2798,
      "Ġtotal": 2799,
      "Ġvia": 2800,
      "Ġdrive": 2801,
      "Ġcannot": 2802,
      "##put": 2803,
      "Ġaccording": 2804,
      "##val": 2805,
      "Ġrunning": 2806,
      "ĠSec": 2807,
      "##aily": 2808,
      "##izing": 2809,
      "Ġlonger": 2810,
      "##era": 2811,
      "##itten": 2812,
      "ĠWorld": 2813,
      "Ġgrowth": 2814,
      "Ġeffic": 2815,
      "Ġchoice": 2816,
      "##itor": 2817,
      "ĠPart": 2818,
      "##minist": 2819,
      "Ġgeneral": 2820,
      "ĠQu": 2821,
      "Ġstandard": 2822,
      "Ġtrue": 2823,
      "Ġvariety": 2824,
      "##back": 2825,
      "Ġsuggest": 2826,
      "Ġexact": 2827,
      "##aving": 2828,
      "##used": 2829,
      "##idge": 2830,
      "##hib": 2831,
      "##oor": 2832,
      "Ġapply": 2833,
      "ĠHis": 2834,
      "Ġground": 2835,
      "##ada": 2836,
      "##oud": 2837,
      "##ression": 2838,
      "##where": 2839,
      "Ġheld": 2840,
      "##mit": 2841,
      "Ġcoun": 2842,
      "Ġoption": 2843,
      "Ġprior": 2844,
      "Ġbase": 2845,
      "##ecut": 2846,
      "Ġamazing": 2847,
      "##ams": 2848,
      "Ġallows": 2849,
      "Ġloss": 2850,
      "ĠJan": 2851,
      "##ox": 2852,
      "ĠApr": 2853,
      "Ġconcern": 2854,
      "Ġsave": 2855,
      "ĠSm": 2856,
      "Ġmarketing": 2857,
      "..": 2858,
      "##empt": 2859,
      "Ġanim": 2860,
      "##arth": 2861,
      "Ġworth": 2862,
      "Ġshows": 2863,
      "##aced": 2864,
      "##erc": 2865,
      "Ġsix": 2866,
      "ĠÐ": 2867,
      "Ġtold": 2868,
      "Ġleave": 2869,
      "Ġofficial": 2870,
      "ĠPark": 2871,
      "Ġdom": 2872,
      "Ġfirm": 2873,
      "Ġsens": 2874,
      "##IC": 2875,
      "Ġbehind": 2876,
      "Ġwords": 2877,
      "Ġneg": 2878,
      "Ġmodern": 2879,
      "Ġbal": 2880,
      "Ġrequest": 2881,
      "Ġtown": 2882,
      "And": 2883,
      "Ġhon": 2884,
      "Ġupon": 2885,
      "Ġquickly": 2886,
      "Ġweeks": 2887,
      "Ġill": 2888,
      "On": 2889,
      "Ġcool": 2890,
      "ĠDr": 2891,
      "Ġcomputer": 2892,
      "Ġnetwork": 2893,
      "##ana": 2894,
      "##oogle": 2895,
      "Ġincluded": 2896,
      "Ġrecent": 2897,
      "th": 2898,
      "Ġmix": 2899,
      "Ġproduction": 2900,
      "ĠTH": 2901,
      "##aining": 2902,
      "Ġx": 2903,
      "Ġmaterials": 2904,
      "Ġnorm": 2905,
      "Ġlocation": 2906,
      "Ġrelated": 2907,
      "ĠPer": 2908,
      "Ġaffect": 2909,
      "Ġstop": 2910,
      "ĠSome": 2911,
      "Ġpers": 2912,
      "##na": 2913,
      "Ġproviding": 2914,
      "Ġpatients": 2915,
      "##head": 2916,
      "Ġrad": 2917,
      "Ġcode": 2918,
      "Ġcosts": 2919,
      "Ġlatest": 2920,
      "Ġarticle": 2921,
      "Ġsun": 2922,
      "Ġreading": 2923,
      "Ġapproach": 2924,
      "ĠJust": 2925,
      "Ġemb": 2926,
      "ĠStud": 2927,
      "Ġmedical": 2928,
      "##ceed": 2929,
      "ĠStates": 2930,
      "Ch": 2931,
      "##AC": 2932,
      "Ġbooks": 2933,
      "Ġteac": 2934,
      "##aging": 2935,
      "Ġnecessary": 2936,
      "Ġswe": 2937,
      "##ublic": 2938,
      "Ġpurchase": 2939,
      "##iring": 2940,
      "Ġshall": 2941,
      "Al": 2942,
      "ĠDep": 2943,
      "##ysis": 2944,
      "Ġlangu": 2945,
      "##ground": 2946,
      "ĠAf": 2947,
      "##rs": 2948,
      "##atory": 2949,
      "Ġfram": 2950,
      "##ming": 2951,
      "Ġability": 2952,
      "Ġcele": 2953,
      "Ġcouple": 2954,
      "Ġconditions": 2955,
      "Ġlit": 2956,
      "Ġprograms": 2957,
      "Ġdisplay": 2958,
      "With": 2959,
      "Ġinternational": 2960,
      "based": 2961,
      "Ġworked": 2962,
      "Ġfeed": 2963,
      "ĠBy": 2964,
      "ĠTw": 2965,
      "##icles": 2966,
      "Ġlower": 2967,
      "Ġbi": 2968,
      "Ġplatform": 2969,
      "Ġstri": 2970,
      "ĠBar": 2971,
      "##akes": 2972,
      "Ġ2015": 2973,
      "Ġdest": 2974,
      "ĠPar": 2975,
      "##cil": 2976,
      "Ġterms": 2977,
      "Ġclick": 2978,
      "Ġlooks": 2979,
      "Ġequipment": 2980,
      "Ġanyone": 2981,
      "Ġdraw": 2982,
      "But": 2983,
      "Ġpolicy": 2984,
      "ĠPe": 2985,
      "Ġparts": 2986,
      "##anc": 2987,
      "Ġstock": 2988,
      "##oph": 2989,
      "Ġprim": 2990,
      "ĠPres": 2991,
      "Ġlives": 2992,
      "##urg": 2993,
      "##ively": 2994,
      "Ġscreen": 2995,
      "##pri": 2996,
      "##ening": 2997,
      "ĠReg": 2998,
      "Ġseems": 2999,
      "Ġnothing": 3000,
      "Ġboard": 3001,
      "Ġ#": 3002,
      "Ġleaders": 3003,
      "Ġ21": 3004,
      "Ġbath": 3005,
      "Ġtarget": 3006,
      "##pose": 3007,
      "##ww": 3008,
      "Ġarri": 3009,
      "Ġrecently": 3010,
      "##nal": 3011,
      "Ġcause": 3012,
      "30": 3013,
      "ĠCenter": 3014,
      "Ġgen": 3015,
      "Ġtypes": 3016,
      "##erve": 3017,
      "Ġfig": 3018,
      "##ores": 3019,
      "Ġkitchen": 3020,
      "Ġchalleng": 3021,
      "Ġsolution": 3022,
      "ĠCounty": 3023,
      "##adem": 3024,
      "ĠBu": 3025,
      "ĠAb": 3026,
      "Ġarr": 3027,
      "ĠBra": 3028,
      "Ġbud": 3029,
      "ĠPre": 3030,
      "##??": 3031,
      "##mm": 3032,
      "Ġintrodu": 3033,
      "Ġsong": 3034,
      "Ġsche": 3035,
      "##RE": 3036,
      "Ġdescrib": 3037,
      "ĠGe": 3038,
      "##orage": 3039,
      "Ġweight": 3040,
      "Ġstudent": 3041,
      "Ġinj": 3042,
      "Ġsummer": 3043,
      "Ġple": 3044,
      "Ġmov": 3045,
      "Ġdeep": 3046,
      "ĠHigh": 3047,
      "##gra": 3048,
      "Ġplant": 3049,
      "Ġhair": 3050,
      "Ġvi": 3051,
      "Ġmeeting": 3052,
      "Ġgoal": 3053,
      "##earch": 3054,
      "##ese": 3055,
      "Ġlevels": 3056,
      "##ooking": 3057,
      "Ġones": 3058,
      "ĠUK": 3059,
      "ĠApril": 3060,
      "Ġrent": 3061,
      "Ġtools": 3062,
      "Ġfresh": 3063,
      "##ters": 3064,
      "He": 3065,
      "Ġhighly": 3066,
      "ĠNow": 3067,
      "ĠCor": 3068,
      "Ġcollection": 3069,
      "Ġexpert": 3070,
      "Ġtit": 3071,
      "Ġsil": 3072,
      "##to": 3073,
      "##inary": 3074,
      "Ġcy": 3075,
      "Ġcam": 3076,
      "##nds": 3077,
      "ĠPlease": 3078,
      "Ġclos": 3079,
      "Ġsett": 3080,
      "ĠAustral": 3081,
      "ĠWest": 3082,
      "Ġexcellent": 3083,
      "##irit": 3084,
      "Ġtrust": 3085,
      "Ġcook": 3086,
      "Ġsqu": 3087,
      "Ġmoment": 3088,
      "Ġleading": 3089,
      "##ached": 3090,
      "Ġasked": 3091,
      "Ġdoor": 3092,
      "Ġbenefits": 3093,
      "Ġmobile": 3094,
      "Ġfavorite": 3095,
      "Ġsepar": 3096,
      "Ġfa": 3097,
      "ĠWill": 3098,
      "##eal": 3099,
      "Ġexplo": 3100,
      "Ġdevice": 3101,
      "Ġsale": 3102,
      "Ġsolutions": 3103,
      "##ha": 3104,
      "##iddle": 3105,
      "##ension": 3106,
      "Ġmass": 3107,
      "Ġcondition": 3108,
      "ĠOff": 3109,
      "Ġsense": 3110,
      "##hel": 3111,
      "##ky": 3112,
      "##icated": 3113,
      "ĠAct": 3114,
      "Ġdecision": 3115,
      "Ġnational": 3116,
      "Ġcand": 3117,
      "Ġround": 3118,
      "Ġresources": 3119,
      "##ples": 3120,
      "Ġinvolved": 3121,
      "##iet": 3122,
      "##onst": 3123,
      "Ġregist": 3124,
      "Ġspeak": 3125,
      "Ġplans": 3126,
      "Ġencoura": 3127,
      "##ging": 3128,
      "Ġspeed": 3129,
      "ĠMc": 3130,
      "Ġarch": 3131,
      "Ġitself": 3132,
      "##bor": 3133,
      "##ession": 3134,
      "##sing": 3135,
      "##aby": 3136,
      "##irth": 3137,
      "Ġimmedi": 3138,
      "Ġmatch": 3139,
      "Ġimplement": 3140,
      "Ġminim": 3141,
      "ĠDon": 3142,
      "Ġwel": 3143,
      "Ġcommer": 3144,
      "Ġchance": 3145,
      "Ġdigital": 3146,
      "Ġball": 3147,
      "Ġcases": 3148,
      "##mas": 3149,
      "ĠPol": 3150,
      "Ġaw": 3151,
      "ĠJu": 3152,
      "Ġ198": 3153,
      "Ġrout": 3154,
      "Ġcountries": 3155,
      "Ġadj": 3156,
      "Ġ2014": 3157,
      "Ġ40": 3158,
      "##uary": 3159,
      "##ological": 3160,
      "At": 3161,
      "##cription": 3162,
      "Ġinstead": 3163,
      "##ivity": 3164,
      "Ġenter": 3165,
      "Ġsection": 3166,
      "Ġgives": 3167,
      "Ġsafety": 3168,
      "ĠWhile": 3169,
      "Ġobs": 3170,
      "Ġhelps": 3171,
      "ĠMarch": 3172,
      "ĠOct": 3173,
      "Ġdaily": 3174,
      "ĠSw": 3175,
      "##ishing": 3176,
      "##//": 3177,
      "ĠWind": 3178,
      "Ġthemselves": 3179,
      "Ġmount": 3180,
      "Ġcorrect": 3181,
      "up": 3182,
      "Ġqual": 3183,
      "##ex": 3184,
      "Ġwrite": 3185,
      "Ġlate": 3186,
      "Ġdirectly": 3187,
      "##Ðµ": 3188,
      "Ġsmo": 3189,
      "Ġcareer": 3190,
      "Ġmorning": 3191,
      "Ġhuge": 3192,
      "Ġsource": 3193,
      "ĠFin": 3194,
      "##reet": 3195,
      "Ġarm": 3196,
      "##arden": 3197,
      "##itely": 3198,
      "Ġaverage": 3199,
      "##ham": 3200,
      "Ġessential": 3201,
      "ĠVal": 3202,
      "Ġmultiple": 3203,
      "##arter": 3204,
      "Ġfix": 3205,
      "Ġimages": 3206,
      "Ġgiving": 3207,
      "Ġwritten": 3208,
      "Ġgirl": 3209,
      "##OT": 3210,
      "Ġglobal": 3211,
      "year": 3212,
      "://": 3213,
      "Ġpiece": 3214,
      "Ġexcept": 3215,
      "Ġhands": 3216,
      "Ġlegal": 3217,
      "Ġprices": 3218,
      "Ġcert": 3219,
      "ĠArt": 3220,
      "ĠEd": 3221,
      "Ġtouch": 3222,
      "Ġrequirements": 3223,
      "Ġded": 3224,
      "ĠEl": 3225,
      "Ġcenter": 3226,
      "Ġdocument": 3227,
      "##dule": 3228,
      "Ġattention": 3229,
      "##illing": 3230,
      "##ctions": 3231,
      "Ġfully": 3232,
      "##hood": 3233,
      "Ġrestaur": 3234,
      "Ġlif": 3235,
      "##nes": 3236,
      "Ġinnov": 3237,
      "ĠGr": 3238,
      "ĠAut": 3239,
      "##ole": 3240,
      "##aign": 3241,
      "##OS": 3242,
      "Ġremember": 3243,
      "Ġcas": 3244,
      "Ġsaw": 3245,
      "Ġplayers": 3246,
      "ĠDay": 3247,
      "Ġplanning": 3248,
      "##ipe": 3249,
      "##reg": 3250,
      "Ġlic": 3251,
      "Ġtast": 3252,
      "Ġdeath": 3253,
      "##asons": 3254,
      "Ġ...": 3255,
      "Ġfloor": 3256,
      "Ġinteresting": 3257,
      "Ġri": 3258,
      "##cast": 3259,
      "##atives": 3260,
      "##erous": 3261,
      "##light": 3262,
      "Ġappl": 3263,
      "My": 3264,
      "Ġfurn": 3265,
      "##ondon": 3266,
      "ĠAir": 3267,
      "Ġcommit": 3268,
      "##iture": 3269,
      "##OU": 3270,
      "Ġparents": 3271,
      "Ġ--": 3272,
      "Ġmention": 3273,
      "##iding": 3274,
      "Ġphotos": 3275,
      "Ġcommercial": 3276,
      "##edding": 3277,
      "ĠAmerica": 3278,
      "Ġextreme": 3279,
      "Ġroll": 3280,
      "##ection": 3281,
      "Ġorganization": 3282,
      "\".": 3283,
      "Ġgreen": 3284,
      "Ġdise": 3285,
      "ĠHealth": 3286,
      "Ġpath": 3287,
      "##itation": 3288,
      "##sy": 3289,
      "##hern": 3290,
      "Ġlost": 3291,
      "##hold": 3292,
      "Ġdep": 3293,
      "Ġcompletely": 3294,
      "Ġgroups": 3295,
      "Ġstreng": 3296,
      "ĠPa": 3297,
      "##ude": 3298,
      "All": 3299,
      "Ġtraditional": 3300,
      "ĠInt": 3301,
      "##cl": 3302,
      "Ġcomplex": 3303,
      "Ġdecided": 3304,
      "ĠHouse": 3305,
      "##Ð¾": 3306,
      "Ġachieve": 3307,
      "##itable": 3308,
      "##wood": 3309,
      "Ġmyself": 3310,
      "Ġlab": 3311,
      "##roup": 3312,
      "Ġdeliver": 3313,
      "âĢĿ.": 3314,
      "Ġpositive": 3315,
      "##onse": 3316,
      "Ġtrip": 3317,
      "Ġslow": 3318,
      "Ġprevent": 3319,
      "##wor": 3320,
      "ĠRec": 3321,
      "Ġplaying": 3322,
      "##avy": 3323,
      "Ġord": 3324,
      "Ġreach": 3325,
      "##izes": 3326,
      "##verse": 3327,
      "ĠGoogle": 3328,
      "Ġsurpr": 3329,
      "Ġanswer": 3330,
      "Ġconcept": 3331,
      "##amb": 3332,
      "Ġsubst": 3333,
      "##idered": 3334,
      "Ġconsult": 3335,
      "##haps": 3336,
      "ĠInternational": 3337,
      "Ġgoes": 3338,
      "wh": 3339,
      "Ġdeveloped": 3340,
      "Ġsites": 3341,
      "Ġclient": 3342,
      "##vey": 3343,
      "##ober": 3344,
      "##ences": 3345,
      "Ġprem": 3346,
      "Ġattack": 3347,
      "12": 3348,
      "Ġwarm": 3349,
      "##ãģ": 3350,
      "##now": 3351,
      "##lim": 3352,
      "##uel": 3353,
      "ĠSept": 3354,
      "##sh": 3355,
      "Ġpicture": 3356,
      "##ressed": 3357,
      "##gy": 3358,
      "##ought": 3359,
      "##aves": 3360,
      "##enty": 3361,
      "Ġmachine": 3362,
      "##aches": 3363,
      "Ġcreating": 3364,
      "Ġcirc": 3365,
      "Ġgradu": 3366,
      "200": 3367,
      "ĠJune": 3368,
      "##board": 3369,
      "Ġglass": 3370,
      "Ġbag": 3371,
      "ĠAfric": 3372,
      "##ades": 3373,
      "Ġapplications": 3374,
      "Ġaware": 3375,
      "##ker": 3376,
      "Ġlimited": 3377,
      "Ġobtain": 3378,
      "##isions": 3379,
      "Ġcross": 3380,
      "ĠHer": 3381,
      "Ġblock": 3382,
      "Ġconsist": 3383,
      "##arant": 3384,
      "Ġbusinesses": 3385,
      "##igation": 3386,
      "Ġsuccessful": 3387,
      "ĠEnglish": 3388,
      "##iction": 3389,
      "ĠFrom": 3390,
      "ĠAssoci": 3391,
      "Ġ2013": 3392,
      "ĠAug": 3393,
      "ĠEm": 3394,
      "##hest": 3395,
      "Ġpartners": 3396,
      "##ties": 3397,
      "##omp": 3398,
      "Ġgold": 3399,
      "Ġcat": 3400,
      "##aged": 3401,
      "##ption": 3402,
      "Ġconduct": 3403,
      "##ny": 3404,
      "Ġdry": 3405,
      "Ġinterested": 3406,
      "Ġrelease": 3407,
      "ĠDirect": 3408,
      "Ġbecame": 3409,
      "ĠMore": 3410,
      "Ġ:": 3411,
      "##gu": 3412,
      "Ġinteract": 3413,
      "##ivery": 3414,
      "Ġnature": 3415,
      "ĠOf": 3416,
      "##icate": 3417,
      "Ġtowards": 3418,
      "Ġlanguage": 3419,
      "ĠAc": 3420,
      "##ama": 3421,
      "Ġhear": 3422,
      "##ilies": 3423,
      "##agn": 3424,
      "ĠIndia": 3425,
      "Ġthinking": 3426,
      "##mission": 3427,
      "Ġvehicle": 3428,
      "Ġemployees": 3429,
      "##uses": 3430,
      "Ġdru": 3431,
      "Ġcelebr": 3432,
      "##wise": 3433,
      "Ġwal": 3434,
      "##idents": 3435,
      "Ġ22": 3436,
      "##iles": 3437,
      "Ġprofession": 3438,
      "Ġrev": 3439,
      "Ġrights": 3440,
      "Ġanalysis": 3441,
      "Ġearn": 3442,
      "##urb": 3443,
      "##artment": 3444,
      "##uth": 3445,
      "ĠLondon": 3446,
      "Ġexpected": 3447,
      "Ġpromot": 3448,
      "##AM": 3449,
      "Ġpred": 3450,
      "Ġstorage": 3451,
      "##ara": 3452,
      "Ġbegan": 3453,
      "Ġbudget": 3454,
      "Ġfair": 3455,
      "Ġsold": 3456,
      "Ġindividuals": 3457,
      "Ġep": 3458,
      "Ġfine": 3459,
      "##elling": 3460,
      "Ġavoid": 3461,
      "Ġheat": 3462,
      "Ġadvant": 3463,
      "##usiness": 3464,
      "##ffee": 3465,
      "Ġwish": 3466,
      "Ġattempt": 3467,
      "Ġhit": 3468,
      "ĠThen": 3469,
      "Ġpropos": 3470,
      "Ġplaces": 3471,
      "Ġhous": 3472,
      "11": 3473,
      "ĠTV": 3474,
      "##ica": 3475,
      "Ġdiv": 3476,
      "Ġcampaign": 3477,
      "Ġmat": 3478,
      "Ġphysical": 3479,
      "Ġwonderful": 3480,
      "Ġsometimes": 3481,
      "##enge": 3482,
      "##eg": 3483,
      "##cies": 3484,
      "Ġconstruction": 3485,
      "Ġdepart": 3486,
      "Ġconsidered": 3487,
      "ĠSan": 3488,
      "Ġsupply": 3489,
      "Ġopportunities": 3490,
      "##eed": 3491,
      "##rought": 3492,
      "Ġtick": 3493,
      "ĠChina": 3494,
      "One": 3495,
      "ĠDesign": 3496,
      "ĠHere": 3497,
      "ĠAcc": 3498,
      "Ġload": 3499,
      "Ġstarting": 3500,
      "ĠBro": 3501,
      "##ellow": 3502,
      "Ġcarry": 3503,
      "Ġgar": 3504,
      "##ville": 3505,
      "Ġaim": 3506,
      "ĠFace": 3507,
      "Ġemerg": 3508,
      "Ġprec": 3509,
      "Ġcopy": 3510,
      "ĠDis": 3511,
      "##vant": 3512,
      "ĠGerm": 3513,
      "##rast": 3514,
      "Ġattract": 3515,
      "Ġformer": 3516,
      "Ġassess": 3517,
      "Ġorganiz": 3518,
      "Ġunderstanding": 3519,
      "Ġadminist": 3520,
      "Ġinvestment": 3521,
      "Ġcourt": 3522,
      "Ġ2012": 3523,
      "Ġhour": 3524,
      "Ġwrong": 3525,
      "Ġvac": 3526,
      "ĠHome": 3527,
      "Ġfab": 3528,
      "ĠMon": 3529,
      "ĠBlack": 3530,
      "ĠFeb": 3531,
      "Ġhealthy": 3532,
      "Ġgrowing": 3533,
      "Ġdefinitely": 3534,
      "##ruit": 3535,
      "Ġpattern": 3536,
      "Ġinflu": 3537,
      "##ari": 3538,
      "##aly": 3539,
      "ĠChristmas": 3540,
      "ĠBrit": 3541,
      "Ġwar": 3542,
      "Ġmoving": 3543,
      "##ulations": 3544,
      "Ġexactly": 3545,
      "Ġdecor": 3546,
      "##ales": 3547,
      "Ġposted": 3548,
      "Ġblood": 3549,
      "After": 3550,
      "##reci": 3551,
      "##alu": 3552,
      "Ġhor": 3553,
      "##chan": 3554,
      "##ashing": 3555,
      "##ibly": 3556,
      "##60": 3557,
      "Ġappropri": 3558,
      "##zy": 3559,
      "##itect": 3560,
      "ĠMus": 3561,
      "Ġregion": 3562,
      "##ma": 3563,
      "Ġdream": 3564,
      "ĠHar": 3565,
      "ĠPresident": 3566,
      "Ġaltern": 3567,
      "Ġphoto": 3568,
      "Ġsituation": 3569,
      "Ġmid": 3570,
      "##iforn": 3571,
      "Ġgoals": 3572,
      "Ġactivity": 3573,
      "Ġfarm": 3574,
      "Ġmother": 3575,
      "ĠCoun": 3576,
      "Do": 3577,
      "##apan": 3578,
      "ĠNet": 3579,
      "Ġpurpose": 3580,
      "Ġcash": 3581,
      "Ġprevious": 3582,
      "##itute": 3583,
      "Ġweeke": 3584,
      "ĠService": 3585,
      "##yond": 3586,
      "Ġmessage": 3587,
      "##amed": 3588,
      "##olute": 3589,
      "Ġsleep": 3590,
      "Ġcapt": 3591,
      "ĠDav": 3592,
      "Ġentry": 3593,
      "Ġguide": 3594,
      "##ester": 3595,
      "Ġtemper": 3596,
      "##ength": 3597,
      "Ġtele": 3598,
      "Ġdifference": 3599,
      "##OM": 3600,
      "Ġeffort": 3601,
      "Ġgets": 3602,
      "ĠJanuary": 3603,
      "Ġexerc": 3604,
      "Ġdark": 3605,
      "Ġled": 3606,
      "Ġge": 3607,
      "Ġacqu": 3608,
      "Ġhotel": 3609,
      "##ederal": 3610,
      "ĠRed": 3611,
      "ĠWar": 3612,
      "Ġpictures": 3613,
      "Ġdamage": 3614,
      "Ġconvers": 3615,
      "##iam": 3616,
      "Ġten": 3617,
      "Ġpublished": 3618,
      "##bit": 3619,
      "##gar": 3620,
      "20": 3621,
      "Ġneigh": 3622,
      "##ifornia": 3623,
      "Ġbenefit": 3624,
      "Ġcontain": 3625,
      "Ġwait": 3626,
      "ĠSer": 3627,
      "##raft": 3628,
      "Ġenh": 3629,
      "##aries": 3630,
      "Ġsubs": 3631,
      "Ġuses": 3632,
      "Ġapart": 3633,
      "Ġoffering": 3634,
      "##EC": 3635,
      "ĠAlso": 3636,
      "##ett": 3637,
      "ĠJuly": 3638,
      "Ġresponse": 3639,
      "Ġanaly": 3640,
      "Ġcateg": 3641,
      "##Ð°": 3642,
      "ĠMr": 3643,
      "Ġafford": 3644,
      "Ġbroad": 3645,
      "ĠAN": 3646,
      "Ġbank": 3647,
      "##antly": 3648,
      "Ġintegr": 3649,
      "Ġfrequ": 3650,
      "Ġfelt": 3651,
      "Ġult": 3652,
      "Ġspot": 3653,
      "##cember": 3654,
      "Ġcompon": 3655,
      "ĠSim": 3656,
      "##ipping": 3657,
      "ĠSund": 3658,
      "##ET": 3659,
      "##iling": 3660,
      "ĠGl": 3661,
      "##nces": 3662,
      "##10": 3663,
      "Ġaward": 3664,
      "Ġsatis": 3665,
      "##orge": 3666,
      "##lin": 3667,
      "##ING": 3668,
      "Ġbur": 3669,
      "Ġinternet": 3670,
      "Ġ23": 3671,
      "Ġexecut": 3672,
      "##ida": 3673,
      "ĠCons": 3674,
      "ĠSeptember": 3675,
      "15": 3676,
      "##ography": 3677,
      "##gram": 3678,
      "Ġcontribut": 3679,
      "Ġfamilies": 3680,
      "Ġbehav": 3681,
      "Ġrates": 3682,
      "Ġnote": 3683,
      "##ocol": 3684,
      "Ġbirth": 3685,
      "Ġjud": 3686,
      "Ġpaid": 3687,
      "Ġeat": 3688,
      "##ague": 3689,
      "Ġsus": 3690,
      "ĠOctober": 3691,
      "Ġreplace": 3692,
      "Ġclub": 3693,
      "ĠDepartment": 3694,
      "##oul": 3695,
      "##ovember": 3696,
      "ĠKe": 3697,
      "Ġaspect": 3698,
      "ĠPat": 3699,
      "Ġli": 3700,
      "Ġeasier": 3701,
      "Ġproced": 3702,
      "ĠFree": 3703,
      "ĠGroup": 3704,
      "##attle": 3705,
      "##tee": 3706,
      "Ġpressure": 3707,
      "Ġsmart": 3708,
      "##oms": 3709,
      "Ġpages": 3710,
      "Ġsuff": 3711,
      "##porate": 3712,
      "Ġhistor": 3713,
      "ĠJes": 3714,
      "##ares": 3715,
      "ĠCommun": 3716,
      "Ġsurround": 3717,
      "Ġdevices": 3718,
      "##error": 3719,
      "Ġpolitical": 3720,
      "Ġstuff": 3721,
      "Ġhosp": 3722,
      "##ecause": 3723,
      "Ġserve": 3724,
      "ĠFriday": 3725,
      "Ġexperienced": 3726,
      "Be": 3727,
      "Ġreduce": 3728,
      "ĠCour": 3729,
      "##pro": 3730,
      "Ġstage": 3731,
      "Ġviol": 3732,
      "Ġloved": 3733,
      "Ġeffects": 3734,
      "ĠRuss": 3735,
      "Ġdistribut": 3736,
      "Ġstru": 3737,
      "Ġpull": 3738,
      "##pen": 3739,
      "Ġcertainly": 3740,
      "Ġshop": 3741,
      "pro": 3742,
      "Ġ197": 3743,
      "Ġtransfer": 3744,
      "Ġlog": 3745,
      "##rial": 3746,
      "##zz": 3747,
      "Ġschools": 3748,
      "Ġfight": 3749,
      "ĠMost": 3750,
      "ĠServices": 3751,
      "Ġadjust": 3752,
      "Ġbasis": 3753,
      "Ġadult": 3754,
      "ĠEvery": 3755,
      "Ġsuppl": 3756,
      "Ġfeeling": 3757,
      "Ġoffered": 3758,
      "Ġnut": 3759,
      ".)": 3760,
      "ĠGreat": 3761,
      "Ġactive": 3762,
      "##ronic": 3763,
      "##ses": 3764,
      "##ancy": 3765,
      "Ġmark": 3766,
      "Ġowners": 3767,
      "Ġcharge": 3768,
      "Ġhtt": 3769,
      "##ford": 3770,
      "ĠFacebook": 3771,
      "Ġ60": 3772,
      "Ġwasn": 3773,
      "ĠTechn": 3774,
      "Ġadvice": 3775,
      "##arily": 3776,
      "ĠLa": 3777,
      "ĠKing": 3778,
      "##LL": 3779,
      "Ġver": 3780,
      "Ġpool": 3781,
      "Ġguarant": 3782,
      "Ġmaxim": 3783,
      "ĠAre": 3784,
      "Ġunit": 3785,
      "on": 3786,
      "ĠJo": 3787,
      "Ġoverall": 3788,
      "Ġinitial": 3789,
      "Ġspent": 3790,
      "Ġprefer": 3791,
      "Ġreleased": 3792,
      "Ġsurface": 3793,
      "Ġdelivery": 3794,
      "Ġculture": 3795,
      "##ded": 3796,
      "Ġgave": 3797,
      "ĠCalifornia": 3798,
      "##rench": 3799,
      "Ġinterview": 3800,
      "Ġgas": 3801,
      "##my": 3802,
      "##ira": 3803,
      "Ġdemand": 3804,
      "##band": 3805,
      "Ġcomment": 3806,
      "Ġappreci": 3807,
      "Ġlots": 3808,
      "Ġtransport": 3809,
      "Ġindepend": 3810,
      "ĠGener": 3811,
      "Ġregarding": 3812,
      "Ġlack": 3813,
      "##sequ": 3814,
      "Ġuseful": 3815,
      "##urt": 3816,
      "##formation": 3817,
      "Ġbasic": 3818,
      "Ġtrade": 3819,
      "Ġadvert": 3820,
      "Ġdog": 3821,
      "Ġimag": 3822,
      "##ato": 3823,
      "Ġshown": 3824,
      "##ressive": 3825,
      "##oday": 3826,
      "##aturday": 3827,
      "##ST": 3828,
      "Ġexisting": 3829,
      "Ġfeet": 3830,
      "##ipped": 3831,
      "##ounced": 3832,
      "##key": 3833,
      "Ġreported": 3834,
      "Ġoptim": 3835,
      "##sc": 3836,
      "Ġtruly": 3837,
      "##pite": 3838,
      "ĠIN": 3839,
      "Ġassociated": 3840,
      "ĠThanks": 3841,
      "Ġgift": 3842,
      "Ġhomes": 3843,
      "Ġincreasing": 3844,
      "Ġdegree": 3845,
      "##ashion": 3846,
      "ĠDecember": 3847,
      "##anch": 3848,
      "##ibrary": 3849,
      "ĠJapan": 3850,
      "Ġoccur": 3851,
      "Ġsetting": 3852,
      "##het": 3853,
      "ĠCompany": 3854,
      "Ġeye": 3855,
      "##ID": 3856,
      "Ġextend": 3857,
      "ĠLet": 3858,
      "ĠSystem": 3859,
      "##olf": 3860,
      "##EO": 3861,
      "##ils": 3862,
      "Ġcab": 3863,
      "Ġreflect": 3864,
      "Ġter": 3865,
      "Ġappoint": 3866,
      "Ġbeyond": 3867,
      "Ġoutd": 3868,
      "##aint": 3869,
      "Ġtried": 3870,
      "Ġcomfortable": 3871,
      "Ġeconomic": 3872,
      "##itary": 3873,
      "Ġincreased": 3874,
      "ĠAugust": 3875,
      "Ġstress": 3876,
      "Ġbeginning": 3877,
      "Ġbrought": 3878,
      "Ġheard": 3879,
      "##ule": 3880,
      "##sych": 3881,
      "Ġreve": 3882,
      "Ġstories": 3883,
      "Ġwedding": 3884,
      "ĠNovember": 3885,
      "##rate": 3886,
      "##asc": 3887,
      "Ġfiles": 3888,
      "time": 3889,
      "Ġplayed": 3890,
      "##inner": 3891,
      "##ube": 3892,
      "##oke": 3893,
      "Ġrespond": 3894,
      "Ġing": 3895,
      "Ġmanufacture": 3896,
      "Ġresponsible": 3897,
      "ĠMich": 3898,
      "Ġdy": 3899,
      "Ġrepair": 3900,
      "##etic": 3901,
      "##duc": 3902,
      "ĠAng": 3903,
      "##istry": 3904,
      "Ġpatient": 3905,
      "Ġhighest": 3906,
      "##aper": 3907,
      "Ġeyes": 3908,
      "Ġjoin": 3909,
      "Ġband": 3910,
      "Ġ2011": 3911,
      "Ġble": 3912,
      "##iety": 3913,
      "Ġcollege": 3914,
      "ĠTrans": 3915,
      "Ġspirit": 3916,
      "##useum": 3917,
      "ĠCr": 3918,
      "##erved": 3919,
      "ĠÂ£": 3920,
      "Ġideal": 3921,
      "Ġpayment": 3922,
      "Ġmeaning": 3923,
      "Ġaccur": 3924,
      "##iced": 3925,
      "ĠEven": 3926,
      "##arlier": 3927,
      "Ġmeasure": 3928,
      "Ġproduce": 3929,
      "##icks": 3930,
      "Ġcompleted": 3931,
      "##unt": 3932,
      "Ġparticularly": 3933,
      "Ġlargest": 3934,
      "##vest": 3935,
      "ĠFirst": 3936,
      "##idential": 3937,
      "Ġund": 3938,
      "Ġstructure": 3939,
      "##ulated": 3940,
      "##mitted": 3941,
      "Ġdouble": 3942,
      "Ġblue": 3943,
      "ĠEast": 3944,
      "Ġfinish": 3945,
      "##change": 3946,
      "Ġemot": 3947,
      "Ġ2010": 3948,
      "##aks": 3949,
      "##ruary": 3950,
      "Ġvot": 3951,
      "Ġweekend": 3952,
      "ĠSunday": 3953,
      "Ġbaby": 3954,
      "Ġimmediately": 3955,
      "##30": 3956,
      "ĠBusiness": 3957,
      "That": 3958,
      "Ġweather": 3959,
      "ĠMod": 3960,
      "Ġpet": 3961,
      "##ager": 3962,
      "##PS": 3963,
      "ĠJesus": 3964,
      "Ġappropriate": 3965,
      "##lock": 3966,
      "ĠCollege": 3967,
      "Ġplayer": 3968,
      "##word": 3969,
      "ĠIns": 3970,
      "##ications": 3971,
      "Ġsoci": 3972,
      "Ġselection": 3973,
      "##dom": 3974,
      "Ġabsolute": 3975,
      "Ġdead": 3976,
      "ĠEuropean": 3977,
      "Ġcapital": 3978,
      "Ġcollabor": 3979,
      "Ġborn": 3980,
      "Ġhelping": 3981,
      "ĠProf": 3982,
      "##rapy": 3983,
      "Ġthous": 3984,
      "ĠiP": 3985,
      "Ġstraight": 3986,
      "Ġefficient": 3987,
      "Ġannual": 3988,
      "Ġson": 3989,
      "Ġsort": 3990,
      "Ġnumbers": 3991,
      "Ġmovie": 3992,
      "Ġdro": 3993,
      "ĠSaturday": 3994,
      "sh": 3995,
      "ĠWindows": 3996,
      "Ġlines": 3997,
      "Ġstudies": 3998,
      "Ġ28": 3999,
      "##iques": 4000,
      "Ġnotice": 4001,
      "##alt": 4002,
      "Ġmodels": 4003,
      "Ġcontinu": 4004,
      "##hens": 4005,
      "Ġextremely": 4006,
      "18": 4007,
      "##ault": 4008,
      "Ġinstruct": 4009,
      "##right": 4010,
      "##place": 4011,
      "Ġreasons": 4012,
      "Ġclin": 4013,
      "Ġnormal": 4014,
      "Ġelectric": 4015,
      "##enior": 4016,
      "Ġstrategy": 4017,
      "Ġcoffee": 4018,
      "Ġprotection": 4019,
      "##ologies": 4020,
      "Ġdemonst": 4021,
      "Ġcreative": 4022,
      "##istics": 4023,
      "ĠOut": 4024,
      "Ġrock": 4025,
      "##porary": 4026,
      "ĠInternet": 4027,
      "##oly": 4028,
      "Ġutil": 4029,
      "Ġfinally": 4030,
      "Ġevalu": 4031,
      "Ġstates": 4032,
      "Ġcandid": 4033,
      "ĠUs": 4034,
      "Ġbatter": 4035,
      "Ġcru": 4036,
      "##ancing": 4037,
      "Ġbottom": 4038,
      "##ously": 4039,
      "ĠStreet": 4040,
      "Ġthanks": 4041,
      "##mon": 4042,
      "ĠCanada": 4043,
      "Ġdat": 4044,
      "Ġdress": 4045,
      "Ġreli": 4046,
      "##iment": 4047,
      "Ġbrow": 4048,
      "ĠLaw": 4049,
      "Ġchanged": 4050,
      "Ġdisease": 4051,
      "Ġbackground": 4052,
      "##arc": 4053,
      "Ġfurniture": 4054,
      "Ġfat": 4055,
      "Ġwindow": 4056,
      "Ġconfirm": 4057,
      "##undred": 4058,
      "##ooks": 4059,
      "Ġprinc": 4060,
      "##itter": 4061,
      "ĠPort": 4062,
      "Ġpow": 4063,
      "Sh": 4064,
      "##pre": 4065,
      "##inated": 4066,
      "Ġpen": 4067,
      "ĠCle": 4068,
      "Ġchallenge": 4069,
      "Ġsust": 4070,
      "Ġplus": 4071,
      "Ġrelax": 4072,
      "##xic": 4073,
      "Ġpowerful": 4074,
      "Ġtrain": 4075,
      "Ġthank": 4076,
      "##estern": 4077,
      "Ġbedroom": 4078,
      "Ġmaybe": 4079,
      "Ġteams": 4080,
      "Ġnation": 4081,
      "##ened": 4082,
      "Ġmethods": 4083,
      "Ġfant": 4084,
      "Ġcards": 4085,
      "Ġhop": 4086,
      "Ġbelie": 4087,
      "Pro": 4088,
      "ĠTHE": 4089,
      "##bon": 4090,
      "ĠMany": 4091,
      "##atever": 4092,
      "##aling": 4093,
      "Ġcompared": 4094,
      "Ġknew": 4095,
      "Ġdoll": 4096,
      "##icip": 4097,
      "##venue": 4098,
      "Ġturned": 4099,
      "Ġidentify": 4100,
      "Ġincome": 4101,
      "Ġgreater": 4102,
      "Ġcove": 4103,
      "Ġitem": 4104,
      "##umn": 4105,
      "Ġsteps": 4106,
      "Ġchurch": 4107,
      "Ġliter": 4108,
      "Ġnearly": 4109,
      "##vis": 4110,
      "Ġlength": 4111,
      "These": 4112,
      "##roid": 4113,
      "Ġremain": 4114,
      "##anging": 4115,
      "##ek": 4116,
      "Ġestate": 4117,
      "Ġinstitut": 4118,
      "Ġpieces": 4119,
      "##bert": 4120,
      "ĠGet": 4121,
      "Ġrules": 4122,
      "ĠRem": 4123,
      "##tenance": 4124,
      "##iant": 4125,
      "##amm": 4126,
      "##!!": 4127,
      "Ġserved": 4128,
      "Ġunc": 4129,
      "ĠFebruary": 4130,
      "Ġvict": 4131,
      "##acity": 4132,
      "Ġchem": 4133,
      "Ġsecure": 4134,
      "Ġscience": 4135,
      "Ġestablished": 4136,
      "Ġmechan": 4137,
      "##cel": 4138,
      "##atively": 4139,
      "Ġexhib": 4140,
      "##lying": 4141,
      "Ġconven": 4142,
      "Ġreports": 4143,
      "##oices": 4144,
      "##body": 4145,
      "Ġsaying": 4146,
      "Ġcold": 4147,
      "Ġsweet": 4148,
      "ĠMond": 4149,
      "##ald": 4150,
      "Â®": 4151,
      "Ġhelped": 4152,
      "##aming": 4153,
      "##inate": 4154,
      "Ġmis": 4155,
      "Ġjourney": 4156,
      "##bum": 4157,
      "Ġlarger": 4158,
      "##__": 4159,
      "##atically": 4160,
      "ĠIT": 4161,
      "Ġfra": 4162,
      "Ġalthough": 4163,
      "Ġremo": 4164,
      "##yle": 4165,
      "Ġ27": 4166,
      "##aughter": 4167,
      "Ġgrand": 4168,
      "##nded": 4169,
      "ĠPC": 4170,
      "ĠGreen": 4171,
      "Ġlands": 4172,
      "##hol": 4173,
      "Ġ26": 4174,
      "Ġbutton": 4175,
      "ĠProgram": 4176,
      "##iny": 4177,
      "Ġexpand": 4178,
      "ĠAny": 4179,
      "Ġvill": 4180,
      "Ġrequires": 4181,
      "##AP": 4182,
      "##odes": 4183,
      "Ġallowed": 4184,
      "Ġscient": 4185,
      "Ġgarden": 4186,
      "Ġsharing": 4187,
      "ĠWhe": 4188,
      "ĠPal": 4189,
      "Ġstrength": 4190,
      "Ġ|": 4191,
      "ĠIndian": 4192,
      "Ġalone": 4193,
      "ĠSch": 4194,
      "Ġoccas": 4195,
      "##ivil": 4196,
      "ĠAustralia": 4197,
      "##ference": 4198,
      "Ġwild": 4199,
      "Ġahead": 4200,
      "Ġevidence": 4201,
      "Ġtraffic": 4202,
      "Ġmanage": 4203,
      "ĠHol": 4204,
      "##icious": 4205,
      "Ġmicro": 4206,
      "ĠMarket": 4207,
      "Ġpaint": 4208,
      "ĠCouncil": 4209,
      "##unte": 4210,
      "Ġconnection": 4211,
      "Ġadvantage": 4212,
      "ĠIS": 4213,
      "ĠAss": 4214,
      "ĠGold": 4215,
      "Ġmiddle": 4216,
      "Ġflav": 4217,
      "##uality": 4218,
      "Ġcraft": 4219,
      "Ġsports": 4220,
      "##force": 4221,
      "Ġflex": 4222,
      "ĠWell": 4223,
      "Ġincred": 4224,
      "##icing": 4225,
      "Ġwants": 4226,
      "##aker": 4227,
      "##lands": 4228,
      "##eria": 4229,
      "##nown": 4230,
      "##mp": 4231,
      "##esome": 4232,
      "##overy": 4233,
      "ĠUp": 4234,
      "Ġpark": 4235,
      "##40": 4236,
      "Ġtitle": 4237,
      "##ION": 4238,
      "ĠBest": 4239,
      "Ġchann": 4240,
      "Ġ31": 4241,
      "Ġwoman": 4242,
      "ĠAssociation": 4243,
      "Ġmiles": 4244,
      "##que": 4245,
      "Ġwear": 4246,
      "##omen": 4247,
      "##ulate": 4248,
      "ĠEach": 4249,
      "ĠDel": 4250,
      "Ġ+": 4251,
      "##unk": 4252,
      "Ġpeace": 4253,
      "Ġrace": 4254,
      "ĠInter": 4255,
      "Ġreviews": 4256,
      "Ġannounced": 4257,
      "Ġgraph": 4258,
      "##).": 4259,
      "##ugh": 4260,
      "Ġdriving": 4261,
      "##itude": 4262,
      "Ġcamera": 4263,
      "Ġiniti": 4264,
      "Ġtechnical": 4265,
      "ĠPri": 4266,
      "##ray": 4267,
      "ĠGood": 4268,
      "Ġspread": 4269,
      "ĠBoard": 4270,
      "Ġmoved": 4271,
      "Ġfinished": 4272,
      "Ġbathroom": 4273,
      "Ġcommunication": 4274,
      "Ġserious": 4275,
      "##omb": 4276,
      "##agram": 4277,
      "Ġletter": 4278,
      "Ġearlier": 4279,
      "ĠFlor": 4280,
      "Ġefforts": 4281,
      "##orrow": 4282,
      "Ġexperts": 4283,
      "Ġviews": 4284,
      "Ġorganizations": 4285,
      "##phone": 4286,
      "Ġmill": 4287,
      "##field": 4288,
      "Ġonto": 4289,
      "ĠHot": 4290,
      "Ġretail": 4291,
      "##ms": 4292,
      "Ġhundred": 4293,
      "Ġgenerally": 4294,
      "Ġfill": 4295,
      "ĠWhite": 4296,
      "##rated": 4297,
      "Ġtips": 4298,
      "##cape": 4299,
      "Ġtim": 4300,
      "Ġjobs": 4301,
      "Ġlooked": 4302,
      "Ġprofessionals": 4303,
      "Ġtag": 4304,
      "##AD": 4305,
      "Ġprimary": 4306,
      "Ġtur": 4307,
      "Ġbow": 4308,
      "Ġdoub": 4309,
      "Ġaren": 4310,
      "##ented": 4311,
      "Ġexperiences": 4312,
      "ĠII": 4313,
      "Ġmaster": 4314,
      "ĠDist": 4315,
      "##ounds": 4316,
      "While": 4317,
      "ĠSpr": 4318,
      "Ġcovered": 4319,
      "Ġpartner": 4320,
      "##wh": 4321,
      "ĠWeb": 4322,
      "ĠDec": 4323,
      "ĠOnce": 4324,
      "Ġstandards": 4325,
      "Ġfather": 4326,
      "Ġremove": 4327,
      "ĠMac": 4328,
      "##uk": 4329,
      "Ġschedule": 4330,
      "Ex": 4331,
      "##irection": 4332,
      "##EL": 4333,
      "ĠIr": 4334,
      "Ġtask": 4335,
      "##wide": 4336,
      "Ġfollowed": 4337,
      "Ġvalues": 4338,
      "Ġslight": 4339,
      "Ġshoot": 4340,
      "##reed": 4341,
      "##hips": 4342,
      "Ġowner": 4343,
      "##hem": 4344,
      "Ġdiscount": 4345,
      "Ġarchitect": 4346,
      "Ġguid": 4347,
      "25": 4348,
      "of": 4349,
      "Ġcry": 4350,
      "##vin": 4351,
      "Ġbillion": 4352,
      "##encies": 4353,
      "Ġentertain": 4354,
      "Ġstrugg": 4355,
      "Ġelements": 4356,
      "Ġsand": 4357,
      "##ned": 4358,
      "##000": 4359,
      "Ġchallenges": 4360,
      "Ġresist": 4361,
      "Ġprogress": 4362,
      "Ġcritical": 4363,
      "##pm": 4364,
      "Ġhandle": 4365,
      "Ġexplore": 4366,
      "Ġopin": 4367,
      "Ġdetermine": 4368,
      "Ġfriendly": 4369,
      "##IG": 4370,
      "Ġthreat": 4371,
      "Ġcancer": 4372,
      "ĠMonday": 4373,
      "Ġfinding": 4374,
      "##TM": 4375,
      "##rie": 4376,
      "Ġpolice": 4377,
      "##ribute": 4378,
      "Ġcleaning": 4379,
      "Ġsurv": 4380,
      "Ġsteel": 4381,
      "Ġshopping": 4382,
      "Ġupdate": 4383,
      "##ommod": 4384,
      "ĠMa": 4385,
      "##à¤": 4386,
      "ĠGovern": 4387,
      "ĠHall": 4388,
      "##ayer": 4389,
      "Ġtherefore": 4390,
      "ĠOther": 4391,
      "##more": 4392,
      "Ġcast": 4393,
      "Ġcolors": 4394,
      "Ġperhaps": 4395,
      "Ġdeveloping": 4396,
      "ĠFound": 4397,
      "No": 4398,
      "Ġshared": 4399,
      "##enses": 4400,
      "##overed": 4401,
      "Ġwine": 4402,
      "ĠSuper": 4403,
      "##ashington": 4404,
      "Ġholiday": 4405,
      "Ġloan": 4406,
      "Ġrefer": 4407,
      "Ġcells": 4408,
      "Ġacadem": 4409,
      "ĠOffice": 4410,
      "Ġteaching": 4411,
      "ĠBel": 4412,
      "ĠDevelop": 4413,
      "Ġden": 4414,
      "Ġmatt": 4415,
      "##ael": 4416,
      "Ġopening": 4417,
      "##pective": 4418,
      "Ġadvanced": 4419,
      "##set": 4420,
      "##su": 4421,
      "##ios": 4422,
      "ĠEduc": 4423,
      "Ġsolid": 4424,
      "Ġactual": 4425,
      "Ġpros": 4426,
      "Ġcontains": 4427,
      "##coming": 4428,
      "Ġhimself": 4429,
      "Ġharm": 4430,
      "Ġroof": 4431,
      "Ġincor": 4432,
      "Ġfear": 4433,
      "##rig": 4434,
      "Ġparties": 4435,
      "Now": 4436,
      "Ġdedicated": 4437,
      "##ris": 4438,
      "Ġvirt": 4439,
      "Ġbalance": 4440,
      "##icking": 4441,
      "##lation": 4442,
      "Ġserver": 4443,
      "Ġcit": 4444,
      "50": 4445,
      "Ġadop": 4446,
      "Ġforce": 4447,
      "Ġlimit": 4448,
      "Ġtalking": 4449,
      "Ġheavy": 4450,
      "##house": 4451,
      "Ġlisted": 4452,
      "Ġsmooth": 4453,
      "ĠMicro": 4454,
      "##estival": 4455,
      "Ġbrain": 4456,
      "Ġwelcome": 4457,
      "Ġtrou": 4458,
      "Ġban": 4459,
      "Ġfacilities": 4460,
      "Please": 4461,
      "Ġassign": 4462,
      "##ero": 4463,
      "##rey": 4464,
      "##ipl": 4465,
      "Ġshape": 4466,
      "Ġalbum": 4467,
      "Ġmovement": 4468,
      "Ġmetal": 4469,
      "##acing": 4470,
      "##ech": 4471,
      "Ġpoor": 4472,
      "Ġingred": 4473,
      "##ament": 4474,
      "Ġreact": 4475,
      "##aled": 4476,
      "ĠRead": 4477,
      "ĠSee": 4478,
      "Ġwhose": 4479,
      "Cl": 4480,
      "ex": 4481,
      "Ġmission": 4482,
      "Ġsession": 4483,
      "Ġcheap": 4484,
      "##EM": 4485,
      "##iency": 4486,
      "##orial": 4487,
      "##enture": 4488,
      "##ixt": 4489,
      "ĠThank": 4490,
      "ĠClub": 4491,
      "Ġestablish": 4492,
      "Ġforms": 4493,
      "Ġvoice": 4494,
      "Ġwinter": 4495,
      "Ġpassion": 4496,
      "âĢĿ,": 4497,
      "ĠAnt": 4498,
      "##ula": 4499,
      "Ġproduced": 4500,
      "Ġdiscover": 4501,
      "Ġtend": 4502,
      "Ġrooms": 4503,
      "Ġhus": 4504,
      "ĠFrench": 4505,
      "Ġprepared": 4506,
      "Ġfactors": 4507,
      "##inese": 4508,
      "ĠTex": 4509,
      "##vision": 4510,
      "Ġbreat": 4511,
      "Ġstatement": 4512,
      "Ġseeing": 4513,
      "Ġtree": 4514,
      "##roud": 4515,
      "Ġmemory": 4516,
      "##ij": 4517,
      "Ġdrop": 4518,
      "##OL": 4519,
      "##iber": 4520,
      "ĠManagement": 4521,
      "##eds": 4522,
      "Ġselected": 4523,
      "ĠResearch": 4524,
      "Ġplaced": 4525,
      "Ġbul": 4526,
      "##semb": 4527,
      "Ġpresented": 4528,
      "term": 4529,
      "Ġcounter": 4530,
      "##inter": 4531,
      "##osing": 4532,
      "Ġtesting": 4533,
      "ĠMor": 4534,
      "Ġstar": 4535,
      "##ym": 4536,
      "ĠSince": 4537,
      "Ġtechniques": 4538,
      "Ġcomments": 4539,
      "ĠChurch": 4540,
      "Ġlearned": 4541,
      "Ġrich": 4542,
      "Ġwife": 4543,
      "Ġpopulation": 4544,
      "Ġmaintenance": 4545,
      "##order": 4546,
      "Ġexclus": 4547,
      "##yd": 4548,
      "Ġaudience": 4549,
      "##80": 4550,
      "Ġrelevant": 4551,
      "Ġquarter": 4552,
      "##IP": 4553,
      "ĠClass": 4554,
      "Ġcars": 4555,
      "##rote": 4556,
      "ĠCourt": 4557,
      "Ġplants": 4558,
      "##imb": 4559,
      "##itors": 4560,
      "Ġproperties": 4561,
      "ĠPost": 4562,
      "Ġmotor": 4563,
      "Ġfaith": 4564,
      "Ġplenty": 4565,
      "Ġhaven": 4566,
      "Ġfashion": 4567,
      "They": 4568,
      "16": 4569,
      "Ġlinks": 4570,
      "ĠYear": 4571,
      "Ġstation": 4572,
      "Ġwaste": 4573,
      "##othing": 4574,
      "Ġ2009": 4575,
      "Ġkeeping": 4576,
      "##rehens": 4577,
      "Ġclasses": 4578,
      "ĠWashington": 4579,
      "Ġcentury": 4580,
      "ĠBritish": 4581,
      "Ġspring": 4582,
      "Ġnamed": 4583,
      "##dy": 4584,
      "Ġaccommod": 4585,
      "Ġfunds": 4586,
      "ĠSupp": 4587,
      "##ownload": 4588,
      "Ġcommunities": 4589,
      "ĠOb": 4590,
      "Ġevening": 4591,
      "Ġnames": 4592,
      "Ġguests": 4593,
      "Ġshot": 4594,
      "##apter": 4595,
      "##icine": 4596,
      "Ġseven": 4597,
      "Ġcontroll": 4598,
      "Ġeight": 4599,
      "##rief": 4600,
      "##raw": 4601,
      "##inally": 4602,
      "##isation": 4603,
      "Ġbuying": 4604,
      "##inger": 4605,
      "##rupt": 4606,
      "Ġcouldn": 4607,
      "Ġfish": 4608,
      "ĠPlan": 4609,
      "##ervation": 4610,
      "##like": 4611,
      "Ġcapacity": 4612,
      "##ads": 4613,
      "##yn": 4614,
      "##ocal": 4615,
      "ĠDavid": 4616,
      "Ġkept": 4617,
      "Ġforget": 4618,
      "Ġdang": 4619,
      "Ġcentral": 4620,
      "Ġoperations": 4621,
      "##ãĤ": 4622,
      "ĠRet": 4623,
      "Ġluck": 4624,
      "##inding": 4625,
      "##rael": 4626,
      "Ġdirection": 4627,
      "Ġir": 4628,
      "Ġwire": 4629,
      "Ġdiet": 4630,
      "Ġunf": 4631,
      "##hop": 4632,
      "Ġadding": 4633,
      "Ġcalc": 4634,
      "Ġ80": 4635,
      "Ġstatus": 4636,
      "Here": 4637,
      "##ortunately": 4638,
      "##BC": 4639,
      "##osure": 4640,
      "ĠBook": 4641,
      "Ġdriver": 4642,
      "##gen": 4643,
      "##ston": 4644,
      "Ġfan": 4645,
      "ĠJack": 4646,
      "Ġpractices": 4647,
      "Ġ2008": 4648,
      "Ġgain": 4649,
      "##uration": 4650,
      "##standing": 4651,
      "##iation": 4652,
      "Ġvisitors": 4653,
      "Ġhelpful": 4654,
      "Ġ29": 4655,
      "Ġcompetition": 4656,
      "ĠOver": 4657,
      "##11": 4658,
      "14": 4659,
      "##ago": 4660,
      "##ught": 4661,
      "ĠAC": 4662,
      "):": 4663,
      "Ġadvance": 4664,
      "##azon": 4665,
      "Ġice": 4666,
      "Ġsmaller": 4667,
      "Ġgone": 4668,
      "Ġdesigns": 4669,
      "Ġinstallation": 4670,
      "##des": 4671,
      "Ġfigure": 4672,
      "Ġbiggest": 4673,
      "Ġseparate": 4674,
      "Ġoperating": 4675,
      "Ġrelig": 4676,
      "##Ð¸": 4677,
      "ĠFlorida": 4678,
      "13": 4679,
      "##mark": 4680,
      "Ġhom": 4681,
      "Ġfee": 4682,
      "Ġexercise": 4683,
      "ĠWed": 4684,
      "Ġbeach": 4685,
      "##ellig": 4686,
      "Ġconference": 4687,
      "ĠPaul": 4688,
      "Ġvisual": 4689,
      "Ġpush": 4690,
      "Ġscen": 4691,
      "Ġscore": 4692,
      "Ġwat": 4693,
      "Ġrestaurant": 4694,
      "Ġinvestig": 4695,
      "##mar": 4696,
      "Ġtemperature": 4697,
      "Ġapproxim": 4698,
      "Ġnumerous": 4699,
      "##ying": 4700,
      "Ġsector": 4701,
      "Ġcloud": 4702,
      "##icon": 4703,
      "##za": 4704,
      "ĠAP": 4705,
      "ĠMet": 4706,
      "ĠMem": 4707,
      "Ġmer": 4708,
      "Ġvolunte": 4709,
      "##ka": 4710,
      "Ġflu": 4711,
      "Ġwaiting": 4712,
      "ch": 4713,
      "Ġworkers": 4714,
      "Ġdirector": 4715,
      "Is": 4716,
      "Ġtom": 4717,
      "ĠRoad": 4718,
      "ĠInstitute": 4719,
      "Ġreality": 4720,
      "Ġcoverage": 4721,
      "Ġbecomes": 4722,
      "##fast": 4723,
      "Ġhusband": 4724,
      "ĠRiver": 4725,
      "##care": 4726,
      "Ġeconomy": 4727,
      "Ġsociety": 4728,
      "ĠDem": 4729,
      "ĠAdd": 4730,
      "Ġfans": 4731,
      "Ġpassed": 4732,
      "Ġdecide": 4733,
      "##oma": 4734,
      "Ġmedium": 4735,
      "Ġvision": 4736,
      "Ġpackage": 4737,
      "Ġ90": 4738,
      "Ġolder": 4739,
      "##ounce": 4740,
      "....": 4741,
      "17": 4742,
      "Ġcombination": 4743,
      "ĠTexas": 4744,
      "Ġlaunch": 4745,
      "ĠAnn": 4746,
      "##ado": 4747,
      "##arge": 4748,
      "Ġprote": 4749,
      "Ġobv": 4750,
      "Ġbright": 4751,
      "Ġcream": 4752,
      "Ġsustain": 4753,
      "##apers": 4754,
      "Ġdatab": 4755,
      "ĠSpe": 4756,
      "##works": 4757,
      "www": 4758,
      "ĠSk": 4759,
      "Ġarrange": 4760,
      "Ġbill": 4761,
      "Ġessay": 4762,
      "Ġformat": 4763,
      "##ails": 4764,
      "Ġlux": 4765,
      "##ursday": 4766,
      "##ros": 4767,
      "##asure": 4768,
      "Ġexpensive": 4769,
      "Ġbeauty": 4770,
      "Ġclassic": 4771,
      "##LE": 4772,
      "old": 4773,
      "ĠSub": 4774,
      "Ġfamous": 4775,
      "\",": 4776,
      "##12": 4777,
      "Ġmilitary": 4778,
      "Ġchanging": 4779,
      "Ġproud": 4780,
      "Ġleader": 4781,
      "Ġotherwise": 4782,
      "Ġconnected": 4783,
      "##rees": 4784,
      "##ternal": 4785,
      "##IM": 4786,
      "Ġcharacters": 4787,
      "##ocr": 4788,
      "Ġmentioned": 4789,
      "Ġgall": 4790,
      "Ġdecl": 4791,
      "Ġanti": 4792,
      "ĠMake": 4793,
      "ĠMag": 4794,
      "Ġresidents": 4795,
      "for": 4796,
      "Ġdrug": 4797,
      "Ġcabin": 4798,
      "##text": 4799,
      "ĠBen": 4800,
      "Ġprocesses": 4801,
      "Ġran": 4802,
      "##abilities": 4803,
      "Ġcore": 4804,
      "Ġmap": 4805,
      "Ġrare": 4806,
      "##asy": 4807,
      "ĠWhy": 4808,
      "âĢ¢": 4809,
      "Ġsto": 4810,
      "Ġtempl": 4811,
      "Ġmist": 4812,
      "Ġrob": 4813,
      "Ġbeg": 4814,
      "ĠBank": 4815,
      "ĠCare": 4816,
      "ĠJe": 4817,
      "Ġtransact": 4818,
      "Ġtruth": 4819,
      "Ġfol": 4820,
      "Ġrat": 4821,
      "Ġconfig": 4822,
      "Ġcompl": 4823,
      "ĠST": 4824,
      "Ġvalu": 4825,
      "ĠLake": 4826,
      "Ġoutdoor": 4827,
      "Ġsched": 4828,
      "##unning": 4829,
      "ĠChinese": 4830,
      "Ġpsych": 4831,
      "##ctors": 4832,
      "ĠBay": 4833,
      "Ġdu": 4834,
      "Ġflat": 4835,
      "ĠGeneral": 4836,
      "Ġhappens": 4837,
      "Ġcalls": 4838,
      "##using": 4839,
      "Ġgrant": 4840,
      "Ġstick": 4841,
      "Ġvideos": 4842,
      "Ġagreement": 4843,
      "Ġmulti": 4844,
      "free": 4845,
      "##¿½": 4846,
      "Ġbecoming": 4847,
      "Ġcolour": 4848,
      "Ġhappened": 4849,
      "##fl": 4850,
      "Ġdecisions": 4851,
      "ĠAfrica": 4852,
      "Re": 4853,
      "Ġcontinued": 4854,
      "Ġtaste": 4855,
      "Ġmaximum": 4856,
      "##lant": 4857,
      "Ġreb": 4858,
      "##aj": 4859,
      "Ġsurg": 4860,
      "##ota": 4861,
      "Ġfold": 4862,
      "Ġestim": 4863,
      "Ġdisapp": 4864,
      "ĠAv": 4865,
      "##rical": 4866,
      "##uesday": 4867,
      "Ġdocuments": 4868,
      "Ġcourses": 4869,
      "Ġprocessing": 4870,
      "##icies": 4871,
      "##soft": 4872,
      "Ġartist": 4873,
      "##time": 4874,
      "ĠDan": 4875,
      "##cket": 4876,
      "Ġapplied": 4877,
      "Ġsources": 4878,
      "Ġtheme": 4879,
      "Ġthousands": 4880,
      "Ġencourage": 4881,
      "Ġwrote": 4882,
      "##inct": 4883,
      "Ġstreet": 4884,
      "##ception": 4885,
      "ĠMount": 4886,
      "Ġachie": 4887,
      "Un": 4888,
      "##ishes": 4889,
      "Ġnovel": 4890,
      "Ġearth": 4891,
      "ĠWater": 4892,
      "Ġcasino": 4893,
      "Ġunits": 4894,
      "##ãĥ": 4895,
      "Ġthus": 4896,
      "ĠBecause": 4897,
      "ĠOF": 4898,
      "Ġexcited": 4899,
      "Ġdescribed": 4900,
      "Ġveget": 4901,
      "Ġfees": 4902,
      "ĠLord": 4903,
      "org": 4904,
      "Ġindependent": 4905,
      "ĠIsrael": 4906,
      "ĠFore": 4907,
      "Ġfantastic": 4908,
      "Ġ70": 4909,
      "Ġwhatever": 4910,
      "##ompl": 4911,
      "Ġsnow": 4912,
      "##icken": 4913,
      "Ġfem": 4914,
      "Ġsets": 4915,
      "ĠEngine": 4916,
      "##leg": 4917,
      "Ġmagn": 4918,
      "Ġforeign": 4919,
      "Ġegg": 4920,
      "Ġfocused": 4921,
      "Ġmeant": 4922,
      "Ġrepe": 4923,
      "Ġdiagn": 4924,
      "##ona": 4925,
      "Ġprincip": 4926,
      "Ġopened": 4927,
      "Your": 4928,
      "Ġbird": 4929,
      "ĠDirector": 4930,
      "Ġshowing": 4931,
      "Ġmanager": 4932,
      "Ġremind": 4933,
      "Ġrecipe": 4934,
      "##itar": 4935,
      "ĠChristian": 4936,
      "Ġfederal": 4937,
      "Ġsea": 4938,
      "Ġvalid": 4939,
      "Ġrecip": 4940,
      "Ġdoctor": 4941,
      "Ġoperation": 4942,
      "ĠCam": 4943,
      "Ġtrail": 4944,
      "Ġspect": 4945,
      "Ġremains": 4946,
      "Ġrecords": 4947,
      "Ġsounds": 4948,
      "Ġselling": 4949,
      "Ġindic": 4950,
      "Ġplastic": 4951,
      "Ġdistance": 4952,
      "Ġruns": 4953,
      "Ġdinner": 4954,
      "ĠPhot": 4955,
      "Ġdump": 4956,
      "Ġalternative": 4957,
      "##box": 4958,
      "ĠSur": 4959,
      "##NA": 4960,
      "##ugg": 4961,
      "##SA": 4962,
      "Ġcaused": 4963,
      "Ġrain": 4964,
      "Ġpair": 4965,
      "ĠApple": 4966,
      "ĠUSA": 4967,
      "Ġupgra": 4968,
      "ĠArch": 4969,
      "Ġhttp": 4970,
      "ĠCheck": 4971,
      "ĠWord": 4972,
      "##sp": 4973,
      "Ġswitch": 4974,
      "ĠSing": 4975,
      "Ġlock": 4976,
      "Ġlose": 4977,
      "##alls": 4978,
      "Ġadapt": 4979,
      "##vere": 4980,
      "Ġwebsites": 4981,
      "Ġexciting": 4982,
      "##oman": 4983,
      "Ġmarkets": 4984,
      "##nesday": 4985,
      "Ġdining": 4986,
      "ĠAlthough": 4987,
      "##OW": 4988,
      "ĠPR": 4989,
      "--": 4990,
      "Ġfabric": 4991,
      "Ġbought": 4992,
      "##ÑĤ": 4993,
      "Ġshel": 4994,
      "Ġabsolutely": 4995,
      "Ġframe": 4996,
      "Ġminimum": 4997,
      "Ġenjoyed": 4998,
      "##med": 4999,
      "ĠThursday": 5000,
      "##fit": 5001,
      "ĠVis": 5002,
      "ĠMary": 5003,
      "##erry": 5004,
      "Ġperformed": 5005,
      "Ġteachers": 5006,
      "Ġaffordable": 5007,
      "Ġmajority": 5008,
      "Ġexpress": 5009,
      "##iration": 5010,
      "##DA": 5011,
      "Ġminute": 5012,
      "Ġmenu": 5013,
      "Ġtoward": 5014,
      "##erences": 5015,
      "Ġpresence": 5016,
      "##issions": 5017,
      "##ifts": 5018,
      "ĠLife": 5019,
      "Ġ196": 5020,
      "##ette": 5021,
      "Ġworry": 5022,
      "##ipp": 5023,
      "Ġfacility": 5024,
      "ĠEducation": 5025,
      "##iliar": 5026,
      "ĠRock": 5027,
      "Ġdim": 5028,
      "##25": 5029,
      "##ror": 5030,
      "##ructure": 5031,
      "Ġ?": 5032,
      "Ġleadership": 5033,
      "##usher": 5034,
      "Ġcompar": 5035,
      "ĠCong": 5036,
      "Ġproperly": 5037,
      "Ġspending": 5038,
      "##ooper": 5039,
      "Ġinstru": 5040,
      "##osition": 5041,
      "Ġsav": 5042,
      "##ship": 5043,
      "ĠFe": 5044,
      "Ġbrother": 5045,
      "Ġmort": 5046,
      "ĠSoc": 5047,
      "##pet": 5048,
      "Ġchair": 5049,
      "Ġanimals": 5050,
      "##gment": 5051,
      "ĠPower": 5052,
      "Ġpresident": 5053,
      "Ġcorner": 5054,
      "day": 5055,
      "Ġinstalled": 5056,
      "Ġpanel": 5057,
      "Ġstone": 5058,
      "Ġposts": 5059,
      "Ġassistance": 5060,
      "Ġclaims": 5061,
      "##rim": 5062,
      "##ser": 5063,
      "##osis": 5064,
      "Ġ35": 5065,
      "Ġrecommended": 5066,
      "##cut": 5067,
      "##iled": 5068,
      "Ġextensive": 5069,
      "Ġcatch": 5070,
      "Ġdaughter": 5071,
      "Ġconcent": 5072,
      "##uled": 5073,
      "Ġcomprehens": 5074,
      "Ġknows": 5075,
      "##icians": 5076,
      "##ifying": 5077,
      "Ġmanaged": 5078,
      "Ġwindows": 5079,
      "Ġsouth": 5080,
      "Ġdesk": 5081,
      "ĠUse": 5082,
      "##ÑĢ": 5083,
      "##com": 5084,
      "##olic": 5085,
      "##aven": 5086,
      "Ġcontinues": 5087,
      "Ġartists": 5088,
      "Ġbrings": 5089,
      "Ġpolicies": 5090,
      "Ġsch": 5091,
      "Ġrelationships": 5092,
      "##hone": 5093,
      "##UR": 5094,
      "Ġcorporate": 5095,
      "ĠPlay": 5096,
      "##off": 5097,
      "Ġsem": 5098,
      "Ġdetailed": 5099,
      "##iers": 5100,
      "##Ñģ": 5101,
      "##amily": 5102,
      "ĠCur": 5103,
      "##emporary": 5104,
      "Ġsuitable": 5105,
      "Ġinjury": 5106,
      "ĠScience": 5107,
      "Ġawesome": 5108,
      "Ġeth": 5109,
      "##estic": 5110,
      "ĠSun": 5111,
      "ĠMal": 5112,
      "Ġguess": 5113,
      "Ġsym": 5114,
      "##TS": 5115,
      "ĠTuesday": 5116,
      "Ġteacher": 5117,
      "##essions": 5118,
      "Ġdebt": 5119,
      "##fficient": 5120,
      "ĠJames": 5121,
      "##uce": 5122,
      "Ġlocations": 5123,
      "Ġtransform": 5124,
      "ĠSal": 5125,
      "Ġdistrict": 5126,
      "Ġconcerns": 5127,
      "Ġwalking": 5128,
      "##arrant": 5129,
      "Ġcomponents": 5130,
      "##rd": 5131,
      "Ġingredients": 5132,
      "##nding": 5133,
      "##rel": 5134,
      "Ġhospital": 5135,
      "Ġscale": 5136,
      "Thanks": 5137,
      "##IL": 5138,
      "Ġsugar": 5139,
      "Ġreference": 5140,
      "Ġtow": 5141,
      "Ġdied": 5142,
      "Ġwouldn": 5143,
      "Ġallowing": 5144,
      "Ġton": 5145,
      "ĠSil": 5146,
      "ĠClick": 5147,
      "Ġupdated": 5148,
      "ĠTrump": 5149,
      "Ġenvironmental": 5150,
      "Ġstarts": 5151,
      "##obile": 5152,
      "ĠTy": 5153,
      "Ġleaves": 5154,
      "Ġthrow": 5155,
      "Ġthoughts": 5156,
      "Ġride": 5157,
      "ĠID": 5158,
      "Ġleaving": 5159,
      "ĠRich": 5160,
      "ĠVol": 5161,
      "Ġstrategies": 5162,
      "Ġtopic": 5163,
      "Ġclosed": 5164,
      "Ġjoint": 5165,
      "Ġlovely": 5166,
      "Ġang": 5167,
      "Ġì": 5168,
      "Ġpreviously": 5169,
      "Ġclearly": 5170,
      "Ġillust": 5171,
      "##vention": 5172,
      "ĠLove": 5173,
      "##lass": 5174,
      "ĠIsland": 5175,
      "##rete": 5176,
      "Ġstores": 5177,
      "Ġtypically": 5178,
      "Ġhonest": 5179,
      "Ġpal": 5180,
      "Ġvehicles": 5181,
      "ĠEngland": 5182,
      "##craft": 5183,
      "ĠElect": 5184,
      "Ġ=": 5185,
      "Ġtrees": 5186,
      "##outhern": 5187,
      "Ġprovider": 5188,
      "##la": 5189,
      "Ġcup": 5190,
      "Ġdepartment": 5191,
      "Ġregistered": 5192,
      "ĠOpen": 5193,
      "ĠPeople": 5194,
      "##ront": 5195,
      "##ga": 5196,
      "Ġapproximately": 5197,
      "Ġfilled": 5198,
      "ĠChild": 5199,
      "ĠWood": 5200,
      "Ġagency": 5201,
      "Ġ2007": 5202,
      "ĠProject": 5203,
      "ĠNews": 5204,
      "Ġfuel": 5205,
      "Ġquant": 5206,
      "Ġwww": 5207,
      "Ġdram": 5208,
      "Ġdisp": 5209,
      "Ġsenior": 5210,
      "ĠJew": 5211,
      "ĠCommission": 5212,
      "Ġcitiz": 5213,
      "##reek": 5214,
      "Ġfunding": 5215,
      "##rain": 5216,
      "Ġwilling": 5217,
      "Ġ*": 5218,
      "Ġspecies": 5219,
      "##rab": 5220,
      "##yer": 5221,
      "Ġeating": 5222,
      "##isco": 5223,
      "Ġexpertise": 5224,
      "##MS": 5225,
      "ĠCustom": 5226,
      "Ġshowed": 5227,
      "Ġcities": 5228,
      "##eless": 5229,
      "ĠSom": 5230,
      "Ġedge": 5231,
      "##inating": 5232,
      "ĠRepublic": 5233,
      "ĠCommit": 5234,
      "ĠLear": 5235,
      "##ocolate": 5236,
      "ĠWednesday": 5237,
      "Ġsatisf": 5238,
      "Ġrestrict": 5239,
      "Ġactions": 5240,
      "ĠPublic": 5241,
      "Ġrap": 5242,
      "##ampions": 5243,
      "ĠOnline": 5244,
      "##tion": 5245,
      "##rian": 5246,
      "##upp": 5247,
      "##PA": 5248,
      "ĠEv": 5249,
      "ĠCamp": 5250,
      "##oe": 5251,
      "##pond": 5252,
      "Ġsquare": 5253,
      "Ġinternal": 5254,
      "ĠChar": 5255,
      "##VE": 5256,
      "Ġbusy": 5257,
      "##men": 5258,
      "Ġresponsibility": 5259,
      "ĠCall": 5260,
      "Ġserving": 5261,
      "Ġgeneration": 5262,
      "Ġexchange": 5263,
      "Ġdial": 5264,
      "Ġder": 5265,
      "##bour": 5266,
      "Ġvan": 5267,
      "Ġpredict": 5268,
      "Ġcentre": 5269,
      "Ġbattery": 5270,
      "ĠCap": 5271,
      "Ġslightly": 5272,
      "##nel": 5273,
      "Ġmanner": 5274,
      "ĠMart": 5275,
      "ĠHel": 5276,
      "Ġpractical": 5277,
      "##uty": 5278,
      "Ġspl": 5279,
      "Ġcart": 5280,
      "Some": 5281,
      "Ġcombined": 5282,
      "Ġnorth": 5283,
      "##gn": 5284,
      "ĠDevelopment": 5285,
      "Ġship": 5286,
      "Ġelement": 5287,
      "Ġshipping": 5288,
      "##uries": 5289,
      "100": 5290,
      "Ġenhance": 5291,
      "ĠTO": 5292,
      "Ġaspects": 5293,
      "Ġdepos": 5294,
      "Ġlaun": 5295,
      "Ġseat": 5296,
      "Ġbehavior": 5297,
      "ĠJour": 5298,
      "Ġimportance": 5299,
      "Ġraised": 5300,
      "##een": 5301,
      "ĠBig": 5302,
      "##itness": 5303,
      "ĠTop": 5304,
      "Ġdepending": 5305,
      "al": 5306,
      "Ġthick": 5307,
      "Ġcrow": 5308,
      "Ġseek": 5309,
      "Ġtechnologies": 5310,
      "##ander": 5311,
      "Ġsecret": 5312,
      "##CC": 5313,
      "Ġrid": 5314,
      "##usion": 5315,
      "##omet": 5316,
      "Ġneighbor": 5317,
      "Ġvote": 5318,
      "Ġdiscussion": 5319,
      "Ġappears": 5320,
      "Ġaccompl": 5321,
      "Ġerror": 5322,
      "##ya": 5323,
      "Ġbon": 5324,
      "##top": 5325,
      "Ġlabor": 5326,
      "Ġ32": 5327,
      "Ġcategory": 5328,
      "##poses": 5329,
      "##den": 5330,
      "ĠFoundation": 5331,
      "Ġcontext": 5332,
      "##unction": 5333,
      "Ġprepare": 5334,
      "Ġsurvey": 5335,
      "##Ð½": 5336,
      "ĠAND": 5337,
      "Ġputting": 5338,
      "Ġelim": 5339,
      "ĠAM": 5340,
      "##fol": 5341,
      "Ġunless": 5342,
      "ĠSum": 5343,
      "ĠOh": 5344,
      "Ġcivil": 5345,
      "Ġfavour": 5346,
      "Ġlaws": 5347,
      "##88": 5348,
      "##osen": 5349,
      "ĠPet": 5350,
      "Ġfootball": 5351,
      "Ġnegative": 5352,
      "Ġdynam": 5353,
      "ĠBre": 5354,
      "##amin": 5355,
      "Ġargu": 5356,
      "Ġleads": 5357,
      "Ġlisten": 5358,
      "ĠMill": 5359,
      "##asks": 5360,
      "Ġtrading": 5361,
      "Ġmental": 5362,
      "Ġspecifically": 5363,
      "##uman": 5364,
      "Ġcris": 5365,
      "ĠSam": 5366,
      "Ġinfo": 5367,
      "Ġinnovative": 5368,
      "##ivered": 5369,
      "ĠPhil": 5370,
      "Ġphotograph": 5371,
      "Ġconsid": 5372,
      "Ġmostly": 5373,
      "Ġcircum": 5374,
      "Ġindustrial": 5375,
      "!!!": 5376,
      "##gal": 5377,
      "##ady": 5378,
      "Ġreliable": 5379,
      "as": 5380,
      "Ad": 5381,
      "##lor": 5382,
      "##prise": 5383,
      "Ġourselves": 5384,
      "ĠBeach": 5385,
      "Ġhar": 5386,
      "Ġguys": 5387,
      "Ġinterior": 5388,
      "##oles": 5389,
      "Why": 5390,
      "Ġchemical": 5391,
      "Ġjournal": 5392,
      "le": 5393,
      "ĠAngel": 5394,
      "ĠStar": 5395,
      "ĠGlo": 5396,
      "Ġjoined": 5397,
      "Ġautomatically": 5398,
      "Ġwatching": 5399,
      "##azine": 5400,
      "Ġfeedback": 5401,
      "ĠProfess": 5402,
      "ĠIts": 5403,
      "##oration": 5404,
      "Ġconstruct": 5405,
      "Ġparking": 5406,
      "##aser": 5407,
      "Ġdrink": 5408,
      "ĠHist": 5409,
      "Ġfruit": 5410,
      "Ġacademic": 5411,
      "##yc": 5412,
      "Ġhyd": 5413,
      "Ġscene": 5414,
      "Ġchoices": 5415,
      "##rics": 5416,
      "ĠCD": 5417,
      "Ġdoors": 5418,
      "Ġended": 5419,
      "Ġquot": 5420,
      "Ġswim": 5421,
      "Ġdelicious": 5422,
      "Ġfunctions": 5423,
      "##orthern": 5424,
      "##log": 5425,
      "##illa": 5426,
      "Ġign": 5427,
      "Ġvolume": 5428,
      "Ġpurposes": 5429,
      "ĠTheir": 5430,
      "Ġjump": 5431,
      "ĠLight": 5432,
      "Ġsport": 5433,
      "ĠRel": 5434,
      "Ġarticles": 5435,
      "From": 5436,
      "ĠTur": 5437,
      "##rier": 5438,
      "Ġlunch": 5439,
      "Ġdatabase": 5440,
      "##cean": 5441,
      "ĠLo": 5442,
      "Ġdeals": 5443,
      "ĠAmazon": 5444,
      "##umin": 5445,
      "ĠGrand": 5446,
      "Ġanc": 5447,
      "Ġteach": 5448,
      "##rive": 5449,
      "Ġaccident": 5450,
      "##ini": 5451,
      "##going": 5452,
      "ĠCentral": 5453,
      "Ġseconds": 5454,
      "Ġinstance": 5455,
      "##RA": 5456,
      "Ġgoods": 5457,
      "ĠMexic": 5458,
      "Ġmotiv": 5459,
      "Ġpromote": 5460,
      "##ano": 5461,
      "ĠPM": 5462,
      "Thank": 5463,
      "Ġdetect": 5464,
      "like": 5465,
      "Ġclimate": 5466,
      "##IA": 5467,
      "##hi": 5468,
      "ĠPay": 5469,
      "Ġbrands": 5470,
      "Ġaudio": 5471,
      "Ġnotes": 5472,
      "Ġpoly": 5473,
      "Ġproceed": 5474,
      "##),": 5475,
      "ĠMichael": 5476,
      "ĠCommunity": 5477,
      "Ġprofile": 5478,
      "ĠCommittee": 5479,
      "Ġcommitted": 5480,
      "Ġrub": 5481,
      "##mes": 5482,
      "Ġappeal": 5483,
      "Ġaccounts": 5484,
      "Ġ500": 5485,
      "ĠÃ": 5486,
      "ĠSol": 5487,
      "ĠBlue": 5488,
      "##ilit": 5489,
      "ĠMark": 5490,
      "Ġcultural": 5491,
      "ĠFire": 5492,
      "She": 5493,
      "ĠStr": 5494,
      "ĠWall": 5495,
      "Ġmeasures": 5496,
      "Ġguarantee": 5497,
      "Ġanywhere": 5498,
      "##LC": 5499,
      "ÂŃ": 5500,
      "Ġparticipants": 5501,
      "##ograp": 5502,
      "##99": 5503,
      "ĠForm": 5504,
      "ĠRoy": 5505,
      "ĠData": 5506,
      "##eared": 5507,
      "ĠValley": 5508,
      "Can": 5509,
      "Ġcomprehensive": 5510,
      "Ġgirls": 5511,
      "Ġattor": 5512,
      "Ġproviders": 5513,
      "Ġtickets": 5514,
      "##lig": 5515,
      "Ġ45": 5516,
      "##ola": 5517,
      "Ġsuit": 5518,
      "ĠMad": 5519,
      "ĠGovernment": 5520,
      "Ġtea": 5521,
      "Ġsongs": 5522,
      "ĠIP": 5523,
      "ĠMusic": 5524,
      "ĠMot": 5525,
      "Ġisland": 5526,
      "##hent": 5527,
      "Ġsupported": 5528,
      "Ġconfidence": 5529,
      "ĠToday": 5530,
      "Ġkid": 5531,
      "##rastructure": 5532,
      "##cohol": 5533,
      "Ġfamiliar": 5534,
      "Ġdelivered": 5535,
      "Ġemp": 5536,
      "ĠProduct": 5537,
      "##itz": 5538,
      "Ġradio": 5539,
      "##hab": 5540,
      "Ġopinion": 5541,
      "ĠLou": 5542,
      "Ġcompetitive": 5543,
      "##eline": 5544,
      "ĠChic": 5545,
      "Ġdie": 5546,
      "ĠMaster": 5547,
      "Ġadults": 5548,
      "Ġrule": 5549,
      "Ġcoast": 5550,
      "##inations": 5551,
      "Ġreached": 5552,
      "Ġlibrary": 5553,
      "Ġfaster": 5554,
      "Ġpremium": 5555,
      "Ġbrief": 5556,
      "ĠSl": 5557,
      "##othes": 5558,
      "Ġinfluence": 5559,
      "ĠMil": 5560,
      "ĠMo": 5561,
      "##70": 5562,
      "##cious": 5563,
      "Ġplug": 5564,
      "Ġap": 5565,
      "Ġsympt": 5566,
      "Ġboy": 5567,
      "Ġtotally": 5568,
      "ĠThom": 5569,
      "ĠQue": 5570,
      "ĠMain": 5571,
      "Des": 5572,
      "ĠBuild": 5573,
      "Ġju": 5574,
      "Ġshower": 5575,
      "##BA": 5576,
      "By": 5577,
      "Ġinput": 5578,
      "ĠRob": 5579,
      "Ġwinning": 5580,
      "it": 5581,
      "ĠWork": 5582,
      "##SS": 5583,
      "##paper": 5584,
      "Ġtrad": 5585,
      "Ġoccup": 5586,
      "ĠSociety": 5587,
      "##orough": 5588,
      "Ġmode": 5589,
      "ĠSocial": 5590,
      "Ġliqu": 5591,
      "Ġsequ": 5592,
      "ĠVir": 5593,
      "Ġlights": 5594,
      "Ġdecre": 5595,
      "Ġyouth": 5596,
      "Ġenable": 5597,
      "Ġinspired": 5598,
      "Ġdespite": 5599,
      "Ġemergency": 5600,
      "Ġven": 5601,
      "ĠExp": 5602,
      "Ġresource": 5603,
      "Ġhousing": 5604,
      "ĠSpecial": 5605,
      "##akers": 5606,
      "ĠUnder": 5607,
      "Ġmissing": 5608,
      "Ġvaluable": 5609,
      "New": 5610,
      "Ġemployee": 5611,
      "Ġapproved": 5612,
      "Ġgather": 5613,
      "##DF": 5614,
      "ĠMicrosoft": 5615,
      "Ġshut": 5616,
      "ĠInformation": 5617,
      "Ġprop": 5618,
      "Ġfell": 5619,
      "Ġflowers": 5620,
      "Ġlegis": 5621,
      "Ġgun": 5622,
      "ĠTor": 5623,
      "Ġeducational": 5624,
      "Ġrot": 5625,
      "Ġrise": 5626,
      "##umber": 5627,
      "Ġflight": 5628,
      "Ġasking": 5629,
      "##outs": 5630,
      "##cles": 5631,
      "Ġeventually": 5632,
      "Ġtun": 5633,
      "ĠDistrict": 5634,
      "Ġremoved": 5635,
      "Ġadvertising": 5636,
      "Ġreturned": 5637,
      "Not": 5638,
      "##td": 5639,
      "ĠHill": 5640,
      "Ġreput": 5641,
      "Ġmeal": 5642,
      "##ario": 5643,
      "Ġbrown": 5644,
      "Ġoutput": 5645,
      "Ġconsumers": 5646,
      "Ġchart": 5647,
      "Ġwarrant": 5648,
      "ĠTwitter": 5649,
      "##well": 5650,
      "Ġshap": 5651,
      "Ġcovers": 5652,
      "Ġconsumer": 5653,
      "##down": 5654,
      "Ġtrial": 5655,
      "##yal": 5656,
      "Ġpossibly": 5657,
      "ĠEst": 5658,
      "Ġbutter": 5659,
      "Ġsettings": 5660,
      "ĠDuring": 5661,
      "Ġintroduced": 5662,
      "##olars": 5663,
      "Ġhearing": 5664,
      "ĠTime": 5665,
      "##ups": 5666,
      "ĠAcadem": 5667,
      "Ġsam": 5668,
      "Ġbreakfast": 5669,
      "ĠLike": 5670,
      "##ae": 5671,
      "Ġbeat": 5672,
      "Ġcolle": 5673,
      "Ġcoord": 5674,
      "ĠMiss": 5675,
      "ĠTem": 5676,
      "Ġbowl": 5677,
      "Ġtherapy": 5678,
      "##ifications": 5679,
      "Ġ36": 5680,
      "Ġfixed": 5681,
      "Ġsimpl": 5682,
      "Ġbond": 5683,
      "ĠAndroid": 5684,
      "Ġbuildings": 5685,
      "##idden": 5686,
      "##CA": 5687,
      "Ġregister": 5688,
      "Ġupdates": 5689,
      "Ġvary": 5690,
      "##liance": 5691,
      "Ġrestaurants": 5692,
      "##noon": 5693,
      "##atin": 5694,
      "be": 5695,
      "##ki": 5696,
      "##night": 5697,
      "ĠWhether": 5698,
      "500": 5699,
      "Ġspo": 5700,
      "Ġring": 5701,
      "##mal": 5702,
      "apos": 5703,
      "ĠFood": 5704,
      "Ġresolution": 5705,
      "Ġeffectively": 5706,
      "Ġmonthly": 5707,
      "Ġimproved": 5708,
      "Ġrapid": 5709,
      "Ġfactor": 5710,
      "Ġinterests": 5711,
      "Are": 5712,
      "Ġrental": 5713,
      "Ġepis": 5714,
      "Ġpump": 5715,
      "Ġsigned": 5716,
      "Ġ2000": 5717,
      "Ġfeels": 5718,
      "Ġexamples": 5719,
      "Ġlayer": 5720,
      "##reens": 5721,
      "ĠConst": 5722,
      "Ġment": 5723,
      "Ġstret": 5724,
      "Ġexplain": 5725,
      "##aration": 5726,
      "Ġbound": 5727,
      "Ġboat": 5728,
      "Ġreaders": 5729,
      "ĠBet": 5730,
      "ĠFind": 5731,
      "##tered": 5732,
      "ĠSecurity": 5733,
      "Ġsymb": 5734,
      "Ġanimal": 5735,
      "Ġiron": 5736,
      "ĠDef": 5737,
      "##new": 5738,
      "##aturing": 5739,
      "Ġthr": 5740,
      "##23": 5741,
      "##ensions": 5742,
      "Ġhighlight": 5743,
      "Ġnav": 5744,
      "ĠSen": 5745,
      "ĠFrance": 5746,
      "ĠPress": 5747,
      "##15": 5748,
      "24": 5749,
      "Ġremote": 5750,
      "##phas": 5751,
      "ĠAlex": 5752,
      "Ġraise": 5753,
      "Ġamb": 5754,
      "##iance": 5755,
      "Ġintended": 5756,
      "##mosp": 5757,
      "##90": 5758,
      "Ġintellig": 5759,
      "##pected": 5760,
      "Ġtail": 5761,
      "which": 5762,
      "Ġfields": 5763,
      "##nergy": 5764,
      "Ġ2006": 5765,
      "Ġpaying": 5766,
      "##rt": 5767,
      "ĠIde": 5768,
      "ĠDet": 5769,
      "##ricult": 5770,
      "ĠCentre": 5771,
      "out": 5772,
      "Ġsides": 5773,
      "Ġdance": 5774,
      "ĠUN": 5775,
      "Ġappreciate": 5776,
      "ĠGerman": 5777,
      "ĠSa": 5778,
      "Ġlik": 5779,
      "##ums": 5780,
      "ĠCO": 5781,
      "##24": 5782,
      "Ġweak": 5783,
      "ĠColor": 5784,
      "Ġdesire": 5785,
      "##ffect": 5786,
      "ĠHD": 5787,
      "##ucle": 5788,
      "Ġseemed": 5789,
      "##ENT": 5790,
      "Ġtests": 5791,
      "##ician": 5792,
      "##gage": 5793,
      "Ġapps": 5794,
      "Ġlighting": 5795,
      "ĠCas": 5796,
      "Just": 5797,
      "Ġresearc": 5798,
      "Ġdogs": 5799,
      "ĠDiv": 5800,
      "Ġfoods": 5801,
      "Ġremov": 5802,
      "Ġcalling": 5803,
      "Ġcircumst": 5804,
      "Ġreduced": 5805,
      "Acc": 5806,
      "ĠCard": 5807,
      "Ġoccasion": 5808,
      "Ġdoubt": 5809,
      "##estyle": 5810,
      "ĠTake": 5811,
      "##BS": 5812,
      "Ġcommitment": 5813,
      "##elines": 5814,
      "Ġvisiting": 5815,
      "Ġregularly": 5816,
      "##iner": 5817,
      "Every": 5818,
      "##ius": 5819,
      "ĠGermany": 5820,
      "However": 5821,
      "##US": 5822,
      "Ġannounce": 5823,
      "##arp": 5824,
      "Pl": 5825,
      "Ġelectronic": 5826,
      "ĠTeam": 5827,
      "##IR": 5828,
      "Ġmanufacturing": 5829,
      "ĠReal": 5830,
      "Ġpurchased": 5831,
      "##bed": 5832,
      "Ġrealize": 5833,
      "Ġconvenient": 5834,
      "Ġsample": 5835,
      "Ġkinds": 5836,
      "Ġefficiency": 5837,
      "Ġuns": 5838,
      "Ġbringing": 5839,
      "Ġcooking": 5840,
      "##inn": 5841,
      "Ġagent": 5842,
      "Ġglad": 5843,
      "Ġsurgery": 5844,
      "Ġsupplies": 5845,
      "Ġsitting": 5846,
      "Ġer": 5847,
      "ĠSant": 5848,
      "##ev": 5849,
      "Ġlicense": 5850,
      "Ġcomplic": 5851,
      "Ġdiam": 5852,
      "ĠDownload": 5853,
      "Ġagg": 5854,
      "Ġdish": 5855,
      "##otic": 5856,
      "Ġsigns": 5857,
      "ĠSaf": 5858,
      "Ġmonit": 5859,
      "Ġdiscovered": 5860,
      "##iest": 5861,
      "Ġvs": 5862,
      "ĠMatt": 5863,
      "ĠTechnology": 5864,
      "Ġassets": 5865,
      "ĠHave": 5866,
      "ĠPan": 5867,
      "Ġinstructions": 5868,
      "Ġsurrounding": 5869,
      "Ġdrivers": 5870,
      "Ġcutting": 5871,
      "Ġprocedure": 5872,
      "##oga": 5873,
      "Ġclinical": 5874,
      "Ġadministration": 5875,
      "Ġseeking": 5876,
      "Ġsizes": 5877,
      "##ulty": 5878,
      "Ġtight": 5879,
      "Ġappearance": 5880,
      "Ġlaunched": 5881,
      "Ġuniversity": 5882,
      "##CH": 5883,
      "##lets": 5884,
      "Ġsalt": 5885,
      "ĠTown": 5886,
      "Ġtransl": 5887,
      "Ġboost": 5888,
      "ĠMuseum": 5889,
      "Ġdomain": 5890,
      "##odies": 5891,
      "Ġauto": 5892,
      "Ġaccurate": 5893,
      "ĠAS": 5894,
      "ĠOR": 5895,
      "Ġsignificantly": 5896,
      "Ġquiet": 5897,
      "##ownt": 5898,
      "##lam": 5899,
      "Ġhundreds": 5900,
      "ĠJournal": 5901,
      "Ġbike": 5902,
      "##iveness": 5903,
      "Ġminor": 5904,
      "Ġsupporting": 5905,
      "Ġsaving": 5906,
      "##isher": 5907,
      "Ġchoo": 5908,
      "Ġforg": 5909,
      "##rad": 5910,
      "##add": 5911,
      "Ġengineering": 5912,
      "##the": 5913,
      "Ġgrade": 5914,
      "Ġperfectly": 5915,
      "Ġdistribution": 5916,
      "##ulous": 5917,
      "Ġguest": 5918,
      "Ġholding": 5919,
      "Ġadvis": 5920,
      "##uild": 5921,
      "pl": 5922,
      "Ġpoll": 5923,
      "##hetic": 5924,
      "##luding": 5925,
      "Ġdetermined": 5926,
      "ĠStand": 5927,
      "Ġaid": 5928,
      "##rag": 5929,
      "##berg": 5930,
      "##roy": 5931,
      "Ġconflic": 5932,
      "Ġâ": 5933,
      "Ġgreatest": 5934,
      "##riage": 5935,
      "##rition": 5936,
      "Ġchosen": 5937,
      "##prene": 5938,
      "Ġrecovery": 5939,
      "Ġphil": 5940,
      "Ġmanual": 5941,
      "ĠUnion": 5942,
      "Ġcharges": 5943,
      "##alian": 5944,
      "##ste": 5945,
      "Ġknowing": 5946,
      "Ġdefend": 5947,
      "Ġincredible": 5948,
      "Ġwalls": 5949,
      "##--": 5950,
      "Ġrevenue": 5951,
      "##urban": 5952,
      "Ġappointment": 5953,
      "ĠYes": 5954,
      "ĠNY": 5955,
      "Ġec": 5956,
      "##aught": 5957,
      "##istan": 5958,
      "Ġcauses": 5959,
      "Ġtopics": 5960,
      "##adian": 5961,
      "Ġcarried": 5962,
      "##ibilities": 5963,
      "ĠMel": 5964,
      "ĠBack": 5965,
      "Ġfulf": 5966,
      "##kin": 5967,
      "Ġafternoon": 5968,
      "Ġcreation": 5969,
      "ĠBoth": 5970,
      "Ġfo": 5971,
      "##18": 5972,
      "Ġmine": 5973,
      "Ġwhom": 5974,
      "Ġhouses": 5975,
      "##reprene": 5976,
      "Ġparticipate": 5977,
      "##zen": 5978,
      "Ġpresentation": 5979,
      "ĠMer": 5980,
      "sc": 5981,
      "Ġcommand": 5982,
      "##orter": 5983,
      "Ġwheel": 5984,
      "Ġlived": 5985,
      "##Ĥ¬": 5986,
      "##ait": 5987,
      "Ġtasks": 5988,
      "ĠiPhone": 5989,
      "Get": 5990,
      "Ġnor": 5991,
      "ĠEarth": 5992,
      "Ġfailure": 5993,
      "Ġfly": 5994,
      "ĠYOU": 5995,
      "Ġroute": 5996,
      "ĠCarol": 5997,
      "ĠMass": 5998,
      "Ġneck": 5999,
      "Ġchocolate": 6000,
      "Ġreplacement": 6001,
      "##cher": 6002,
      "Ġnurs": 6003,
      "##rip": 6004,
      "Ġtables": 6005,
      "ĠLim": 6006,
      "##lusion": 6007,
      "Ġchain": 6008,
      "Once": 6009,
      "Ġhire": 6010,
      "Ġforest": 6011,
      "Ġ>": 6012,
      "##Ð¾Ð": 6013,
      "Ġinfrastructure": 6014,
      "Ġfreed": 6015,
      "Ġperspective": 6016,
      "##OD": 6017,
      "Ġregistration": 6018,
      "##etime": 6019,
      "ĠTom": 6020,
      "Ġportion": 6021,
      "ĠNOT": 6022,
      "ĠTwo": 6023,
      "Ġconsequ": 6024,
      "##edy": 6025,
      "Ġprotein": 6026,
      "ĠEnter": 6027,
      "Ġatmosp": 6028,
      "Ġplate": 6029,
      "ĠMont": 6030,
      "ĠParty": 6031,
      "ĠIndust": 6032,
      "##rome": 6033,
      "ĠChicago": 6034,
      "Ġcop": 6035,
      "Ġburn": 6036,
      "ĠProt": 6037,
      "Ġconsidering": 6038,
      "Ġdur": 6039,
      "En": 6040,
      "Ġowned": 6041,
      "ĠRad": 6042,
      "Ġscript": 6043,
      "Ġremaining": 6044,
      "##pon": 6045,
      "##eries": 6046,
      "##ita": 6047,
      "Ġjoy": 6048,
      "Ġsolar": 6049,
      "Ġtruck": 6050,
      "ĠWestern": 6051,
      "Ġassemb": 6052,
      "##agra": 6053,
      "##imately": 6054,
      "##respond": 6055,
      "Ġneighborhood": 6056,
      "##equ": 6057,
      "##ext": 6058,
      "##ially": 6059,
      "##TA": 6060,
      "ĠCA": 6061,
      "##alog": 6062,
      "Ġsymptoms": 6063,
      "Ġcere": 6064,
      "40": 6065,
      "Ġdecades": 6066,
      "Ġbattle": 6067,
      "Ġfle": 6068,
      "ĠFranc": 6069,
      "Ġconversation": 6070,
      "Ġtrained": 6071,
      "Ġvir": 6072,
      "##esterday": 6073,
      "Ġcoach": 6074,
      "Ġadministr": 6075,
      "Ġdating": 6076,
      "Ġmeat": 6077,
      "Ġsessions": 6078,
      "Ġassum": 6079,
      "Ġproposed": 6080,
      "Ġsoul": 6081,
      "Ġchannel": 6082,
      "Don": 6083,
      "Ġteeth": 6084,
      "Ġguy": 6085,
      "Ġinteg": 6086,
      "Ġsurf": 6087,
      "Ġchicken": 6088,
      "rel": 6089,
      "##eper": 6090,
      "Ġvit": 6091,
      "##van": 6092,
      "Ġtrend": 6093,
      "##ixture": 6094,
      "Ġpin": 6095,
      "Ġcheese": 6096,
      "Ġtough": 6097,
      "##abled": 6098,
      "##water": 6099,
      "Ġbelong": 6100,
      "Ġshares": 6101,
      "##ria": 6102,
      "##22": 6103,
      "Ġpure": 6104,
      "##ears": 6105,
      "Yes": 6106,
      "Ġissued": 6107,
      "Ġexcess": 6108,
      "ĠReview": 6109,
      "Ġidentified": 6110,
      "Ġmut": 6111,
      "âĢĻ.": 6112,
      "Ġmilk": 6113,
      "Ġleather": 6114,
      "Ġpray": 6115,
      "Ġsole": 6116,
      "Ġ2005": 6117,
      "##appy": 6118,
      "Ġpayments": 6119,
      "Ġorders": 6120,
      "ĠAtt": 6121,
      "Ġanswers": 6122,
      "Ġunivers": 6123,
      "ĠKore": 6124,
      "Ġprocedures": 6125,
      "Ġexternal": 6126,
      "##16": 6127,
      "ĠOld": 6128,
      "ĠBill": 6129,
      "Ġperman": 6130,
      "Ġtreated": 6131,
      "Ġbigger": 6132,
      "Ġath": 6133,
      "ĠCert": 6134,
      "Ġpatterns": 6135,
      "ĠTre": 6136,
      "Ġorganic": 6137,
      "Ġpainting": 6138,
      "off": 6139,
      "Ġemphas": 6140,
      "ĠFil": 6141,
      "Ġdollars": 6142,
      "Ġlicens": 6143,
      "ĠLtd": 6144,
      "ĠPlus": 6145,
      "ĠHotel": 6146,
      "Ġupload": 6147,
      "Ġmail": 6148,
      "##....": 6149,
      "##burg": 6150,
      "##poration": 6151,
      "##icial": 6152,
      "##OC": 6153,
      "inc": 6154,
      "ĠDig": 6155,
      "##14": 6156,
      "Ġplays": 6157,
      "Ġlabel": 6158,
      "ĠOrgan": 6159,
      "ĠMedical": 6160,
      "Ġsheet": 6161,
      "Ġbroken": 6162,
      "Ġmel": 6163,
      "##ushed": 6164,
      "Ġbirthday": 6165,
      "Ġyes": 6166,
      "##cap": 6167,
      "Ġhousehold": 6168,
      "##erves": 6169,
      "Ġreceiving": 6170,
      "Ġaffected": 6171,
      "##orry": 6172,
      "Ġcontemporary": 6173,
      "ĠSmith": 6174,
      "Ġcarefully": 6175,
      "Ġarrived": 6176,
      "Ġreasonable": 6177,
      "Ġsuccessfully": 6178,
      "##anged": 6179,
      "ĠBur": 6180,
      "Ġcompr": 6181,
      "Ġbread": 6182,
      "ĠCongress": 6183,
      "##UT": 6184,
      "Ġmatters": 6185,
      "Ġinvestors": 6186,
      "##oses": 6187,
      "Ġcitizens": 6188,
      "Ġstanding": 6189,
      "Ġmouth": 6190,
      "Ġspaces": 6191,
      "##org": 6192,
      "Ġmachines": 6193,
      "ĠAward": 6194,
      "Ġassessment": 6195,
      "Ġofficials": 6196,
      "ĠFamily": 6197,
      "ĠLong": 6198,
      "Ġrenew": 6199,
      "ĠBi": 6200,
      "Ġmal": 6201,
      "ĠGeorge": 6202,
      "Ġbegins": 6203,
      "ĠDi": 6204,
      "Ġcrim": 6205,
      "ĠAfrican": 6206,
      "Ġwriter": 6207,
      "Ġ@": 6208,
      "Ġhardware": 6209,
      "##inder": 6210,
      "Ġcake": 6211,
      "ĠHy": 6212,
      "##13": 6213,
      "##xy": 6214,
      "ĠMach": 6215,
      "ĠTour": 6216,
      "ĠLead": 6217,
      "Ġvillage": 6218,
      "Ġconstantly": 6219,
      "ĠArts": 6220,
      "Ġluxury": 6221,
      "Ġworldwide": 6222,
      "Ġwid": 6223,
      "##iors": 6224,
      "Ġholds": 6225,
      "not": 6226,
      "##âĢĻ": 6227,
      "ĠFund": 6228,
      "Ġaccepted": 6229,
      "##atre": 6230,
      "Ġsupports": 6231,
      "##rum": 6232,
      "Ġhistorical": 6233,
      "Ġsauce": 6234,
      "ĠBrown": 6235,
      "ĠShow": 6236,
      "ĠGal": 6237,
      "##oti": 6238,
      "Ġmessages": 6239,
      "Ġcandidates": 6240,
      "ĠExper": 6241,
      "ĠRE": 6242,
      "##ora": 6243,
      "##isk": 6244,
      "Ġalcohol": 6245,
      "Ġspr": 6246,
      "Ġsituations": 6247,
      "Ġtut": 6248,
      "ĠTest": 6249,
      "Ġimprovement": 6250,
      "Ġregul": 6251,
      "Ġ300": 6252,
      "##IF": 6253,
      "Ġrelatively": 6254,
      "Ġresidential": 6255,
      "Ġresol": 6256,
      "Ġscientific": 6257,
      "Ġ3D": 6258,
      "Ġrow": 6259,
      "##Ø§": 6260,
      "Since": 6261,
      "ĠScott": 6262,
      "Ġdefined": 6263,
      "Ġcrowd": 6264,
      "Ġicon": 6265,
      "Ġhun": 6266,
      "ĠSet": 6267,
      "##aked": 6268,
      "ĠVirgin": 6269,
      "Ġupper": 6270,
      "##Ã¡": 6271,
      "Ġacid": 6272,
      "##rid": 6273,
      "with": 6274,
      "##list": 6275,
      "ĠAsia": 6276,
      "ĠBer": 6277,
      "Ġshoes": 6278,
      "Ġauthent": 6279,
      "Ġagencies": 6280,
      "Ġfort": 6281,
      "ĠHosp": 6282,
      "ĠVict": 6283,
      "ĠWal": 6284,
      "Ġstream": 6285,
      "Ġthread": 6286,
      "ĠEU": 6287,
      "Ġawareness": 6288,
      "Ġelig": 6289,
      "Ġheight": 6290,
      "Ġtheory": 6291,
      "Ġconcerned": 6292,
      "##arsh": 6293,
      "Ġcro": 6294,
      "##PR": 6295,
      "Ġrecorded": 6296,
      "Ġends": 6297,
      "Ġmarried": 6298,
      "Ġinvolve": 6299,
      "ĠOnly": 6300,
      "ĠJapanese": 6301,
      "Ġforces": 6302,
      "Ġkill": 6303,
      "Ġprivacy": 6304,
      "Ġplanned": 6305,
      "Ġcorrespond": 6306,
      "Ġbask": 6307,
      "ĠWho": 6308,
      "Ġvictim": 6309,
      "Ġur": 6310,
      "Many": 6311,
      "##ilst": 6312,
      "##acks": 6313,
      "##17": 6314,
      "Ġtwice": 6315,
      "Ġgrown": 6316,
      "Ġstated": 6317,
      "Ġcrew": 6318,
      "##lines": 6319,
      "##hus": 6320,
      "Ġstudio": 6321,
      "Ġcycle": 6322,
      "Any": 6323,
      "Ġsubmit": 6324,
      "##ua": 6325,
      "Ġappeared": 6326,
      "##iter": 6327,
      "Ġinspiration": 6328,
      "Ġkeeps": 6329,
      "Ġengage": 6330,
      "Ġdelight": 6331,
      "Ġjew": 6332,
      "##cuit": 6333,
      "Ġexpectations": 6334,
      "Ġdegrees": 6335,
      "Ġstyles": 6336,
      "Ġloves": 6337,
      "ĠHead": 6338,
      "Ġemployment": 6339,
      "Ġdistinct": 6340,
      "Ġconducted": 6341,
      "Ġsac": 6342,
      "Ġparam": 6343,
      "##ords": 6344,
      "Ġinvent": 6345,
      "Ġskill": 6346,
      "Ġfif": 6347,
      "##point": 6348,
      "Ġconver": 6349,
      "Ġsubstant": 6350,
      "Ġexclusive": 6351,
      "ĠON": 6352,
      "Ġfrequently": 6353,
      "##arrow": 6354,
      "Ġfailed": 6355,
      "Ġloans": 6356,
      "##ras": 6357,
      "ĠBud": 6358,
      "##azz": 6359,
      "Ġnoted": 6360,
      "Ġsilver": 6361,
      "Ġthorough": 6362,
      "Ġprompt": 6363,
      "Ġcircumstances": 6364,
      "ĠLeague": 6365,
      "##ighter": 6366,
      "Ġfilter": 6367,
      "Ġinstitutions": 6368,
      "##ificate": 6369,
      "Ġanx": 6370,
      "Ġinterface": 6371,
      "##igan": 6372,
      "##anish": 6373,
      "Ġaccessible": 6374,
      "ĠAccording": 6375,
      "Ġriver": 6376,
      "##edia": 6377,
      "Ġnom": 6378,
      "Ġsymbol": 6379,
      "##lt": 6380,
      "Ġfourth": 6381,
      "ĠInvest": 6382,
      "Ġtaught": 6383,
      "Ġticket": 6384,
      "Ġmeetings": 6385,
      "Ġdeck": 6386,
      "##ache": 6387,
      "##????": 6388,
      "Ġsyn": 6389,
      "ĠDen": 6390,
      "ĠSand": 6391,
      "ĠMedia": 6392,
      "Ġbless": 6393,
      "Ġroot": 6394,
      "Ġeleg": 6395,
      "Ġgarage": 6396,
      "we": 6397,
      "Ġintegrated": 6398,
      "Ġlandscape": 6399,
      "Ġbreath": 6400,
      "Ġdefault": 6401,
      "ĠGlobal": 6402,
      "Ġ33": 6403,
      "Ġrear": 6404,
      "Ġimpressive": 6405,
      "##erts": 6406,
      "Ġpublish": 6407,
      "Ġhosting": 6408,
      "Ġchat": 6409,
      "##othe": 6410,
      "ĠContact": 6411,
      "##oop": 6412,
      "ĠNor": 6413,
      "##OP": 6414,
      "Ġemotional": 6415,
      "##osh": 6416,
      "Ġdiverse": 6417,
      "ĠStart": 6418,
      "Con": 6419,
      "Ġmir": 6420,
      "Ġprofit": 6421,
      "Ġ1st": 6422,
      "ĠHam": 6423,
      "##road": 6424,
      "Ġchallenging": 6425,
      "Ġsignal": 6426,
      "##ias": 6427,
      "ĠOffic": 6428,
      "ĠKeep": 6429,
      "ĠLab": 6430,
      "Ġ195": 6431,
      "ĠAddition": 6432,
      "##pes": 6433,
      "##igned": 6434,
      "##aid": 6435,
      "Ġfacilit": 6436,
      "ĠSoft": 6437,
      "Ġalle": 6438,
      "ĠAustralian": 6439,
      "Ġinnovation": 6440,
      ");": 6441,
      "##met": 6442,
      "Ġ194": 6443,
      "but": 6444,
      "Ġoutstanding": 6445,
      "Ġrand": 6446,
      "ĠManager": 6447,
      "Ġaf": 6448,
      "Ġsearching": 6449,
      "De": 6450,
      "##osite": 6451,
      "Ġease": 6452,
      "Ġmountain": 6453,
      "Ġspeaking": 6454,
      "Ġtypical": 6455,
      "Ġsevere": 6456,
      "Let": 6457,
      "ĠPeter": 6458,
      "Ġeveryday": 6459,
      "##anges": 6460,
      "##cknow": 6461,
      "##hy": 6462,
      "ĠMS": 6463,
      "Ġimagine": 6464,
      "Ġfeatured": 6465,
      "ĠAud": 6466,
      "Ġregional": 6467,
      "ĠCEO": 6468,
      "Ġcompens": 6469,
      "##lete": 6470,
      "##LA": 6471,
      "Ġmassive": 6472,
      "Ġflexible": 6473,
      "##see": 6474,
      "ĠWhere": 6475,
      "Ġqualified": 6476,
      "ĠConference": 6477,
      "##hors": 6478,
      "ĠLu": 6479,
      "Ġelection": 6480,
      "ĠCat": 6481,
      "##osoph": 6482,
      "Ġexecutive": 6483,
      "Ġmini": 6484,
      "Ġdestination": 6485,
      "Ġentr": 6486,
      "##fa": 6487,
      "Ġserves": 6488,
      "ĠBas": 6489,
      "Ġstunning": 6490,
      "Ġwealth": 6491,
      "Ġpositions": 6492,
      "Ġagreed": 6493,
      "Ġphase": 6494,
      "Ġentertainment": 6495,
      "Ġvital": 6496,
      "##flow": 6497,
      "ĠMinister": 6498,
      "ĠPerson": 6499,
      "Ġbrowser": 6500,
      "ĠWil": 6501,
      "Ġtransition": 6502,
      "##orable": 6503,
      "Ġpun": 6504,
      "Ġfro": 6505,
      "Ġcloser": 6506,
      "Ġdescription": 6507,
      "##asp": 6508,
      "ĠOper": 6509,
      "Ġformed": 6510,
      "ĠTherefore": 6511,
      "ĠLos": 6512,
      "Ġextended": 6513,
      "Ġturns": 6514,
      "Ġfoundation": 6515,
      "Ġobjects": 6516,
      "##ensity": 6517,
      "Ġkick": 6518,
      "Ġcontrast": 6519,
      "Pre": 6520,
      "Ġking": 6521,
      "Ġequal": 6522,
      "##igration": 6523,
      "Ġagents": 6524,
      "##pons": 6525,
      "22": 6526,
      "##rence": 6527,
      "Ġdrugs": 6528,
      "##gging": 6529,
      "Ġyellow": 6530,
      "##elcome": 6531,
      "Ġrail": 6532,
      "Ġflag": 6533,
      "Ġnine": 6534,
      "##race": 6535,
      "Ġlifestyle": 6536,
      "Cont": 6537,
      "Another": 6538,
      "Ġtemplate": 6539,
      "Most": 6540,
      "23": 6541,
      "Ġoperate": 6542,
      "##orgeous": 6543,
      "##comes": 6544,
      "Ġgolf": 6545,
      "ĠMP": 6546,
      "Ġscheduled": 6547,
      "##ework": 6548,
      "Ġrandom": 6549,
      "Ġcable": 6550,
      "Ġdiss": 6551,
      "ĠFrank": 6552,
      "According": 6553,
      "Ġchoosing": 6554,
      "##asts": 6555,
      "Ġbelief": 6556,
      "Ġdepth": 6557,
      "ĠGall": 6558,
      "Ġclosely": 6559,
      "spe": 6560,
      "Ġsavings": 6561,
      "ĠThrough": 6562,
      "Se": 6563,
      "Ġhealthcare": 6564,
      "Ġpm": 6565,
      "Ġmovies": 6566,
      "Ġtrig": 6567,
      "##ersey": 6568,
      "ĠEqu": 6569,
      "##ena": 6570,
      "Ġrough": 6571,
      "ĠLand": 6572,
      "##CE": 6573,
      "##ossible": 6574,
      "Â°": 6575,
      "Ġtrouble": 6576,
      "Ġrisks": 6577,
      "Ġfemale": 6578,
      "##lers": 6579,
      "Ġimplementation": 6580,
      "ĠFlo": 6581,
      "Ġsatisfact": 6582,
      "##75": 6583,
      "Ġregulations": 6584,
      "Ġcaught": 6585,
      "ĠSeries": 6586,
      "Ġrecognized": 6587,
      "Ġvirtual": 6588,
      "Ġweap": 6589,
      "Ġidentity": 6590,
      "##rency": 6591,
      "Ġroutine": 6592,
      "Ġupcoming": 6593,
      "Ġentirely": 6594,
      "Ġprogramme": 6595,
      "ĠIll": 6596,
      "ĠSqu": 6597,
      "Ġinformed": 6598,
      "##mond": 6599,
      "Ġrom": 6600,
      "##anda": 6601,
      "Ġusual": 6602,
      "Ġmoist": 6603,
      "Ġast": 6604,
      "Ġadventure": 6605,
      "ĠTim": 6606,
      "ĠAdv": 6607,
      "Ġgear": 6608,
      "##fortunately": 6609,
      "Ġprotected": 6610,
      "Ġfreedom": 6611,
      "ĠTable": 6612,
      "Ġtab": 6613,
      "Ġconcrete": 6614,
      "Ġtiss": 6615,
      "Ġnearby": 6616,
      "First": 6617,
      "Ġgro": 6618,
      "##idays": 6619,
      "Ġmotion": 6620,
      "Ġpregn": 6621,
      "Ġeditor": 6622,
      "Ġcooper": 6623,
      "Ġwitness": 6624,
      "Ġapartment": 6625,
      "Ġdumpster": 6626,
      "Ġjack": 6627,
      "Ġhorse": 6628,
      "##**": 6629,
      "ĠDou": 6630,
      "ĠItalian": 6631,
      "Ġadvoc": 6632,
      "##riendly": 6633,
      "ĠSpring": 6634,
      "ĠNetwork": 6635,
      "Ġreturns": 6636,
      "Ġmedicine": 6637,
      "Ġcreates": 6638,
      "Ġcapable": 6639,
      "##life": 6640,
      "##MA": 6641,
      "Ġfavourite": 6642,
      "ĠList": 6643,
      "Ġ2004": 6644,
      "Ġairport": 6645,
      "##inning": 6646,
      "ĠRussian": 6647,
      "##CT": 6648,
      "Ġincreases": 6649,
      "Ġtechnique": 6650,
      "##umps": 6651,
      "##alled": 6652,
      "Ġmechanism": 6653,
      "##19": 6654,
      "Ġcarbon": 6655,
      "##abet": 6656,
      "##ushing": 6657,
      "Ġstars": 6658,
      "ĠGen": 6659,
      "##jo": 6660,
      "Ġpharm": 6661,
      "##St": 6662,
      "Ġvend": 6663,
      "Ġadm": 6664,
      "Ġfeaturing": 6665,
      "Ġmoments": 6666,
      "Ġnative": 6667,
      "Ġmuseum": 6668,
      "##0s": 6669,
      "Ġliquid": 6670,
      "Ġexpression": 6671,
      "ĠAtlant": 6672,
      "Ġstands": 6673,
      "##yan": 6674,
      "ĠInstead": 6675,
      "Ġcollected": 6676,
      "##arian": 6677,
      "Ġoven": 6678,
      "Ġpersonally": 6679,
      "Ġworse": 6680,
      "Ġacknow": 6681,
      "##itage": 6682,
      "Ġgifts": 6683,
      "Ġfacing": 6684,
      "Ġrank": 6685,
      "ĠAcademy": 6686,
      "Ġpil": 6687,
      "Ġaccomp": 6688,
      "Ġmanufacturer": 6689,
      "Ġbanks": 6690,
      "Ġcommission": 6691,
      "ĠLouis": 6692,
      "Ġpassword": 6693,
      "ĠPass": 6694,
      "Ġauthority": 6695,
      "Well": 6696,
      "Ġresearchers": 6697,
      "Ġcomponent": 6698,
      "Ġatmosphere": 6699,
      "Ġengagement": 6700,
      "##EE": 6701,
      "Ġmissed": 6702,
      "Ġapparent": 6703,
      "ĠAdminist": 6704,
      "see": 6705,
      "Ġstopped": 6706,
      "Ġmonitor": 6707,
      "%.": 6708,
      "Res": 6709,
      "Ġcertified": 6710,
      "Ġveter": 6711,
      "ĠWomen": 6712,
      "Ġsister": 6713,
      "ĠEconom": 6714,
      "Ġmixed": 6715,
      "Ġmonitoring": 6716,
      "Ġcollaboration": 6717,
      "Ġguidance": 6718,
      "##irty": 6719,
      "Ġsupposed": 6720,
      "##intage": 6721,
      "Ġdraft": 6722,
      "ĠCanadian": 6723,
      "Ġremoval": 6724,
      "##da": 6725,
      "Ġodd": 6726,
      "ĠTrust": 6727,
      "Ġretire": 6728,
      "ĠFestival": 6729,
      "Ġdomestic": 6730,
      "Ġcrucial": 6731,
      "Ġnormally": 6732,
      "##IV": 6733,
      "Ġentreprene": 6734,
      "Ġcolumn": 6735,
      "Ġnetworks": 6736,
      "Ġpartnership": 6737,
      "one": 6738,
      "Ġelectrical": 6739,
      "Last": 6740,
      "Ġedition": 6741,
      "Ġreward": 6742,
      "Ġinches": 6743,
      "Ġvast": 6744,
      "ĠAD": 6745,
      "##umes": 6746,
      "Ġarts": 6747,
      "##endar": 6748,
      "res": 6749,
      "Ġsan": 6750,
      "ĠInf": 6751,
      "ĠProv": 6752,
      "Ġdental": 6753,
      "Ġkit": 6754,
      "Ġtrends": 6755,
      "Ġear": 6756,
      "Ġdeploy": 6757,
      "##while": 6758,
      "Ġkilled": 6759,
      "ĠDemocr": 6760,
      "Ġenthus": 6761,
      "Ġobtained": 6762,
      "ĠMA": 6763,
      "Ġpicked": 6764,
      "Ġclimb": 6765,
      "Ġvacation": 6766,
      "ĠRoyal": 6767,
      "Ġconsistent": 6768,
      "Ġclassroom": 6769,
      "Ġexpenses": 6770,
      "ĠParis": 6771,
      "Ġcharged": 6772,
      "##ansion": 6773,
      "Ġsurprise": 6774,
      "##dden": 6775,
      "Ġexceed": 6776,
      "Ġaffili": 6777,
      "App": 6778,
      "Ġgenerate": 6779,
      "Ġhappening": 6780,
      "Ġdangerous": 6781,
      "Ġwet": 6782,
      "co": 6783,
      "Ġnoticed": 6784,
      "Ġarg": 6785,
      "Ġ48": 6786,
      "ĠControl": 6787,
      "Ġmainly": 6788,
      "Ġdates": 6789,
      "Ġcelebrate": 6790,
      "##liers": 6791,
      "ĠExt": 6792,
      "##kers": 6793,
      "Ġtested": 6794,
      "Ġdefense": 6795,
      "Ġlessons": 6796,
      "ĠRussia": 6797,
      "##aning": 6798,
      "Ġages": 6799,
      "Ġdesigner": 6800,
      "Ġorganized": 6801,
      "Ġshock": 6802,
      "Ġtelevision": 6803,
      "ĠRest": 6804,
      "ĠDev": 6805,
      "ĠNE": 6806,
      "Ġcrusher": 6807,
      "##erest": 6808,
      "ĠEnergy": 6809,
      "ĠRobert": 6810,
      "Ġimproving": 6811,
      "##ints": 6812,
      "Ġobvious": 6813,
      "he": 6814,
      "Ġattached": 6815,
      "##uts": 6816,
      "##TC": 6817,
      "Ġerr": 6818,
      "Me": 6819,
      "##pret": 6820,
      "Ġrein": 6821,
      "##merce": 6822,
      "##ala": 6823,
      "ĠThose": 6824,
      "Ġongoing": 6825,
      "ĠMexico": 6826,
      "##aren": 6827,
      "##uine": 6828,
      "Ġwinner": 6829,
      "ĠHand": 6830,
      "Ġequipped": 6831,
      "ĠHuman": 6832,
      "Ġsad": 6833,
      "##heck": 6834,
      "##oral": 6835,
      "Ġunlike": 6836,
      "ĠHim": 6837,
      "Ġsoil": 6838,
      "ĠAmericans": 6839,
      "##hot": 6840,
      "Ġgrew": 6841,
      "Ġtub": 6842,
      "Ġearned": 6843,
      "Ġbooking": 6844,
      "Ste": 6845,
      "ĠPack": 6846,
      "Ġdiscussed": 6847,
      "Ġscholars": 6848,
      "##folio": 6849,
      "Ġoverl": 6850,
      "Ġscr": 6851,
      "Ġstrategic": 6852,
      "Ġclothes": 6853,
      "##wo": 6854,
      "45": 6855,
      "Ġmusical": 6856,
      "Ġindex": 6857,
      "##ta": 6858,
      "##ingly": 6859,
      "ĠFull": 6860,
      "##vy": 6861,
      "ĠMaybe": 6862,
      "ĠJud": 6863,
      "Ġentered": 6864,
      "Ġwearing": 6865,
      "Ġdelay": 6866,
      "Ġpleased": 6867,
      "ĠFurther": 6868,
      "##working": 6869,
      "Ġbonus": 6870,
      "Ġquote": 6871,
      "ĠMat": 6872,
      "Ġturning": 6873,
      "##aturally": 6874,
      "Ġprecise": 6875,
      "Ġtells": 6876,
      "Ġurban": 6877,
      "con": 6878,
      "Ġcampus": 6879,
      "##REE": 6880,
      "Ġtalent": 6881,
      "##ani": 6882,
      "Ġresulting": 6883,
      "ĠSP": 6884,
      "##orders": 6885,
      "ĠRoom": 6886,
      "ĠLast": 6887,
      "ĠHaw": 6888,
      "##igr": 6889,
      "Ġsudden": 6890,
      "35": 6891,
      "##ideo": 6892,
      "Ġunable": 6893,
      "Ġarrest": 6894,
      "Ġconv": 6895,
      "ĠCup": 6896,
      "Ġmanaging": 6897,
      "Ġstain": 6898,
      "Ġinstrument": 6899,
      "##west": 6900,
      "ĠConnect": 6901,
      "##vate": 6902,
      "Ġproof": 6903,
      "ĠCy": 6904,
      "##ingu": 6905,
      "Ġexposure": 6906,
      "Ġfishing": 6907,
      "Ġtransportation": 6908,
      "##enced": 6909,
      "Ġbear": 6910,
      "ĠSecond": 6911,
      "Ġachieved": 6912,
      "?\"": 6913,
      "Ġnucle": 6914,
      "##SE": 6915,
      "Ġextract": 6916,
      "Ġmere": 6917,
      "ĠWay": 6918,
      "ĠJose": 6919,
      "##resents": 6920,
      "Today": 6921,
      "ĠNov": 6922,
      "##ello": 6923,
      "Ġspiritual": 6924,
      "ĠCode": 6925,
      "ĠVictor": 6926,
      "de": 6927,
      "Ġdesired": 6928,
      "Ġbes": 6929,
      "##ye": 6930,
      "Ġancient": 6931,
      "ĠAccess": 6932,
      "##kins": 6933,
      "Over": 6934,
      "Ġgallery": 6935,
      "ĠPac": 6936,
      "Ġshops": 6937,
      "ĠÎ": 6938,
      "##loc": 6939,
      "Ġcute": 6940,
      "##arks": 6941,
      "Ġmembership": 6942,
      "Ġflood": 6943,
      "Ġcandidate": 6944,
      "Ġbeer": 6945,
      "Ġstorm": 6946,
      "Ġindeed": 6947,
      "Ġarchitecture": 6948,
      "].": 6949,
      "Ġdownt": 6950,
      "##ella": 6951,
      "Ġ2003": 6952,
      "Ġsight": 6953,
      "##alle": 6954,
      "Ġreligious": 6955,
      "Ġtiny": 6956,
      "Ġundert": 6957,
      "mail": 6958,
      "cont": 6959,
      "Ġfiled": 6960,
      "Ġrevealed": 6961,
      "Ġnone": 6962,
      "##eller": 6963,
      "Ġworkshop": 6964,
      "ĠChair": 6965,
      "Ġspeech": 6966,
      "Ġprinted": 6967,
      "ĠSecret": 6968,
      "Ġwest": 6969,
      "ĠMiddle": 6970,
      "Ġversions": 6971,
      "Ġ75": 6972,
      "Ġ!": 6973,
      "Ġslot": 6974,
      "ĠCost": 6975,
      "##urd": 6976,
      "##nament": 6977,
      "Ġfitness": 6978,
      "Ġdifferences": 6979,
      "Ġmanufacturers": 6980,
      "ĠFair": 6981,
      "##rans": 6982,
      "Ġnegoti": 6983,
      "Ġforth": 6984,
      "Ġok": 6985,
      "Ġsustainable": 6986,
      "ĠCH": 6987,
      "Ġyesterday": 6988,
      "Ġpapers": 6989,
      "Ġreporting": 6990,
      "##stone": 6991,
      "Ġcapture": 6992,
      "Ġlinked": 6993,
      "Ġabsor": 6994,
      "Ġcontribute": 6995,
      "ĠAR": 6996,
      "Ġhall": 6997,
      "##rack": 6998,
      "##roph": 6999,
      "##away": 7000,
      "##ype": 7001,
      "ĠThomas": 7002,
      "ĠWilliam": 7003,
      "Ġcommunications": 7004,
      "ĠView": 7005,
      "Ġpossibility": 7006,
      "##32": 7007,
      "Ġphotograp": 7008,
      "ĠKey": 7009,
      "Ġfairly": 7010,
      "Ġconfident": 7011,
      "ĠDisc": 7012,
      "Ġgrab": 7013,
      "##cers": 7014,
      "Ġforced": 7015,
      "Ġhang": 7016,
      "ĠBed": 7017,
      "you": 7018,
      "Ġdynamic": 7019,
      "##luded": 7020,
      "Ġphotography": 7021,
      "Ġplatforms": 7022,
      "##35": 7023,
      "Ġpasseng": 7024,
      "ĠChildren": 7025,
      "ĠCab": 7026,
      "Ġperforming": 7027,
      "##berry": 7028,
      "Ġboys": 7029,
      "##achel": 7030,
      "ĠIre": 7031,
      "##asant": 7032,
      "ĠAnother": 7033,
      "un": 7034,
      "Ġhyp": 7035,
      "##bre": 7036,
      "Ġfilms": 7037,
      "Ġsufficient": 7038,
      "##hew": 7039,
      "Ġrecognize": 7040,
      "Ġexplained": 7041,
      "##odel": 7042,
      "Ġreputation": 7043,
      "ĠAT": 7044,
      "Ġdisappoint": 7045,
      "ĠOl": 7046,
      "ĠBal": 7047,
      "Ġinvestigation": 7048,
      "Ġformal": 7049,
      "Ġsuggested": 7050,
      "Ġwhenever": 7051,
      "Ġpoker": 7052,
      "ĠRev": 7053,
      "##gend": 7054,
      "ĠCoast": 7055,
      "##rates": 7056,
      "ĠSpanish": 7057,
      "26": 7058,
      "Ġzone": 7059,
      "Ġletters": 7060,
      "Ġlapt": 7061,
      "Ġspons": 7062,
      "Ġ2nd": 7063,
      "##SP": 7064,
      "Add": 7065,
      "Ġpill": 7066,
      "##oston": 7067,
      "Ġarrive": 7068,
      "ĠExecut": 7069,
      "##bles": 7070,
      "Ġimpossible": 7071,
      "##uction": 7072,
      "ĠSU": 7073,
      "ĠVer": 7074,
      "Ġresistance": 7075,
      "Ġtall": 7076,
      "Ġcompare": 7077,
      "##ban": 7078,
      "##Ã¼": 7079,
      "Ġtelling": 7080,
      "##otton": 7081,
      "Ġcos": 7082,
      "##ether": 7083,
      "Ġcommittee": 7084,
      "Ġgraduate": 7085,
      "##ava": 7086,
      "Ġauthors": 7087,
      "##celer": 7088,
      "Ġaccessories": 7089,
      "Have": 7090,
      "ĠAngeles": 7091,
      "##weight": 7092,
      "Ġtaxes": 7093,
      "Ġbags": 7094,
      "Ġstretch": 7095,
      "Ġpreparation": 7096,
      "Ġattorney": 7097,
      "##uzz": 7098,
      "Com": 7099,
      "Ġsolve": 7100,
      "Ġbottle": 7101,
      "Ġmeals": 7102,
      "Ġgrass": 7103,
      "Ġ34": 7104,
      "Ġrepresents": 7105,
      "##rations": 7106,
      "?âĢĿ": 7107,
      "Ġstim": 7108,
      "##terior": 7109,
      "ĠCond": 7110,
      "ĠSite": 7111,
      "##secut": 7112,
      "ĠUsing": 7113,
      "ĠWild": 7114,
      "ĠLibrary": 7115,
      "Ġconstant": 7116,
      "part": 7117,
      "ĠDu": 7118,
      "so": 7119,
      "Ġtech": 7120,
      "Ġmixture": 7121,
      "ĠEnd": 7122,
      "Ġtreatments": 7123,
      "by": 7124,
      "Ġstored": 7125,
      "Ġoriginally": 7126,
      "##omy": 7127,
      "Ġdealing": 7128,
      "Ġvisited": 7129,
      "Also": 7130,
      "Ġadds": 7131,
      "ĠOpt": 7132,
      "Ġtank": 7133,
      "Ġlistening": 7134,
      "Ġfolks": 7135,
      "Ġmortgage": 7136,
      "related": 7137,
      "Ġproven": 7138,
      "##VD": 7139,
      "##ographic": 7140,
      "Ġclar": 7141,
      "Ġtap": 7142,
      "ĠArab": 7143,
      "Ġofficer": 7144,
      "Ġincorpor": 7145,
      "Ġdefe": 7146,
      "Ġjudge": 7147,
      "##va": 7148,
      "ĠBath": 7149,
      "ĠFarm": 7150,
      "##atoes": 7151,
      "##yers": 7152,
      "ĠLog": 7153,
      "Ġimmediate": 7154,
      "##ailable": 7155,
      "ĠMid": 7156,
      "ĠGar": 7157,
      "ĠCath": 7158,
      "##bur": 7159,
      "Ġgorgeous": 7160,
      "##lights": 7161,
      "ĠBefore": 7162,
      "Ġchief": 7163,
      "Ġhero": 7164,
      "Ġrelief": 7165,
      "##hire": 7166,
      "Ġextension": 7167,
      "Ġpip": 7168,
      "ĠGame": 7169,
      "Ġoffices": 7170,
      "Ġbasket": 7171,
      "Ġcrisis": 7172,
      "##holders": 7173,
      "Ġlogo": 7174,
      "ĠKh": 7175,
      "##astern": 7176,
      "99": 7177,
      "##ystem": 7178,
      "##erning": 7179,
      "##etry": 7180,
      "an": 7181,
      "Ġfasc": 7182,
      "Ġmining": 7183,
      "##ele": 7184,
      "Ġinch": 7185,
      "ĠItaly": 7186,
      "Ġflavor": 7187,
      "##how": 7188,
      "Ġrecording": 7189,
      "Ġther": 7190,
      "Ġdust": 7191,
      "Ġenables": 7192,
      "Dr": 7193,
      "Ġinjuries": 7194,
      "Ġreferred": 7195,
      "Ġsuc": 7196,
      "ĠMen": 7197,
      "ĠAuthor": 7198,
      "Ġped": 7199,
      "Ġstructures": 7200,
      "Ġpod": 7201,
      "Ġsubsequ": 7202,
      "Ġfirms": 7203,
      "Ġteen": 7204,
      "ĠEr": 7205,
      "Ġscan": 7206,
      "Ġhistoric": 7207,
      "##nic": 7208,
      "Ġreduction": 7209,
      "Ġevol": 7210,
      "ĠHope": 7211,
      "ĠFederal": 7212,
      "##ifies": 7213,
      "##asters": 7214,
      "Ġcrack": 7215,
      "##izer": 7216,
      "Ġcounty": 7217,
      "##mary": 7218,
      "ĠBible": 7219,
      "##omin": 7220,
      "Ġathlet": 7221,
      "Ġprimarily": 7222,
      "##GB": 7223,
      "ĠAccount": 7224,
      "Ġanticip": 7225,
      "##riting": 7226,
      "ĠPenn": 7227,
      "Ġcounsel": 7228,
      "Ġshift": 7229,
      "en": 7230,
      "ĠMax": 7231,
      "Ġvul": 7232,
      "##...": 7233,
      "Ġindustries": 7234,
      "##antic": 7235,
      "Ġplanet": 7236,
      "Ġfunctional": 7237,
      "##77": 7238,
      "Ab": 7239,
      "Ġprinting": 7240,
      "##athe": 7241,
      "Ġrice": 7242,
      "Ġspecialist": 7243,
      "ĠJim": 7244,
      "Ġavailability": 7245,
      "Ġattended": 7246,
      "##itution": 7247,
      "Ġreplaced": 7248,
      "##utch": 7249,
      "Ġamounts": 7250,
      "Ġfigures": 7251,
      "Ġtransp": 7252,
      "Ġwidely": 7253,
      "Ġdispos": 7254,
      "Although": 7255,
      "##ura": 7256,
      "Ġempt": 7257,
      "##urning": 7258,
      "Ġfellow": 7259,
      "Ġdevelopers": 7260,
      "Ġfinance": 7261,
      "ĠTimes": 7262,
      "Ġclothing": 7263,
      "Ġsusp": 7264,
      "ĠCross": 7265,
      "Ġprinciples": 7266,
      "Ġinvited": 7267,
      "ĠTru": 7268,
      "ĠTerm": 7269,
      "Ġsmile": 7270,
      "Ġexperiment": 7271,
      "Ġnarrow": 7272,
      "##ogue": 7273,
      "##ulf": 7274,
      "Ġsuperior": 7275,
      "Ġlosing": 7276,
      "ĠSystems": 7277,
      "Ġordered": 7278,
      "##df": 7279,
      "ĠReport": 7280,
      "ĠApplic": 7281,
      "Ġyard": 7282,
      "Ġcodes": 7283,
      "Ġenterprise": 7284,
      "ĠDC": 7285,
      "Ġdescribe": 7286,
      "Ġfrust": 7287,
      "Ġweekly": 7288,
      "Ġtack": 7289,
      "##agues": 7290,
      "Ġepisode": 7291,
      "##inent": 7292,
      "ĠCreat": 7293,
      "Ġgard": 7294,
      "Ġrecipes": 7295,
      "Ġdepends": 7296,
      "##65": 7297,
      "ĠAff": 7298,
      "Ġpricing": 7299,
      "ĠSar": 7300,
      "Ġfacts": 7301,
      "ĠChief": 7302,
      "##ulating": 7303,
      "Ġapplicable": 7304,
      "Ġhidden": 7305,
      "Ġtrick": 7306,
      "Ġhotels": 7307,
      "Ġguitar": 7308,
      "Hi": 7309,
      "Ġattractive": 7310,
      "ĠVirginia": 7311,
      "ĠPrem": 7312,
      "##ran": 7313,
      "Ġaccord": 7314,
      "ĠScot": 7315,
      "Ġprove": 7316,
      "More": 7317,
      "Ġrealized": 7318,
      "##agon": 7319,
      "Ġfounded": 7320,
      "Ġchapter": 7321,
      "Ġcommunicate": 7322,
      "##inity": 7323,
      "##quir": 7324,
      "ĠMcC": 7325,
      "Ġliked": 7326,
      "Ġsky": 7327,
      "##wing": 7328,
      "Ġdent": 7329,
      "Ġguard": 7330,
      "ĠCast": 7331,
      "##elly": 7332,
      "Ġborder": 7333,
      "Ġdrawing": 7334,
      "Ġultimately": 7335,
      "Ġnoise": 7336,
      "##alse": 7337,
      "ĠDoes": 7338,
      "Am": 7339,
      "Ġreducing": 7340,
      "Ġcharm": 7341,
      "Ġcapabilities": 7342,
      "ĠIreland": 7343,
      "Ġofficers": 7344,
      "Ġwash": 7345,
      "ĠPlace": 7346,
      "ĠSign": 7347,
      "Ġpowder": 7348,
      "ĠEp": 7349,
      "##lements": 7350,
      "Ġrig": 7351,
      "##plete": 7352,
      "##igure": 7353,
      "Ġenforce": 7354,
      "Ġpercentage": 7355,
      "##SC": 7356,
      "##iece": 7357,
      "##oured": 7358,
      "Click": 7359,
      "##iences": 7360,
      "Ġeligible": 7361,
      "Ġphen": 7362,
      "Ġbodies": 7363,
      "Ġenem": 7364,
      "ĠStep": 7365,
      "ĠJul": 7366,
      "Ġestimated": 7367,
      "##eration": 7368,
      "Ġduty": 7369,
      "Ġpursu": 7370,
      "Ġultimate": 7371,
      "Ġbrill": 7372,
      "ĠInstagram": 7373,
      "Or": 7374,
      "##iano": 7375,
      "Ġinn": 7376,
      "Ġmuscle": 7377,
      "Ġinner": 7378,
      "##ading": 7379,
      "##33": 7380,
      "ĠCharl": 7381,
      "Ġseriously": 7382,
      "ĠCir": 7383,
      "Ġcompliance": 7384,
      "Ġhandling": 7385,
      "Ġpassing": 7386,
      "ĠSpirit": 7387,
      "ĠId": 7388,
      "Ġsurprised": 7389,
      "Ġawarded": 7390,
      "quality": 7391,
      "ĠVan": 7392,
      "##RI": 7393,
      "Ġillness": 7394,
      "##reate": 7395,
      "Ġwireless": 7396,
      "Ġcriminal": 7397,
      "Ġsubmitted": 7398,
      "ĠMult": 7399,
      "Ġsatisfaction": 7400,
      "##21": 7401,
      "##zer": 7402,
      "##neys": 7403,
      "Ġpermanent": 7404,
      "Ġgenuine": 7405,
      "Ġnutrition": 7406,
      "Whe": 7407,
      "Sc": 7408,
      "Ġsucceed": 7409,
      "Ġsaved": 7410,
      "During": 7411,
      "ĠHospital": 7412,
      "##case": 7413,
      "Ġoverw": 7414,
      "Ġvent": 7415,
      "##laim": 7416,
      "##tle": 7417,
      "ĠZeal": 7418,
      "ĠPA": 7419,
      "Ġmand": 7420,
      "ĠFort": 7421,
      "ĠWebs": 7422,
      "Ġextent": 7423,
      "##inem": 7424,
      "ï¿½": 7425,
      "##MP": 7426,
      "ĠWi": 7427,
      "ĠDigital": 7428,
      "âĢĻ,": 7429,
      "Ġboxes": 7430,
      "Ġscheme": 7431,
      "Ġrequests": 7432,
      "Ġbridge": 7433,
      "Ġgenerated": 7434,
      "Ġsynt": 7435,
      "Ġguidelines": 7436,
      "Ġrecommendations": 7437,
      "ĠLED": 7438,
      "Ġid": 7439,
      "Ġapproval": 7440,
      "ĠSometimes": 7441,
      "Ġseats": 7442,
      "Ġarms": 7443,
      "Ġaccomplish": 7444,
      "Ġconsists": 7445,
      "##45": 7446,
      "Ġmagazine": 7447,
      "Ġconsideration": 7448,
      "Ġmarriage": 7449,
      "28": 7450,
      "Ġdestroy": 7451,
      "Ġportfolio": 7452,
      "##eters": 7453,
      "##ellect": 7454,
      "##iser": 7455,
      "ĠMartin": 7456,
      "Ġphilosoph": 7457,
      "##iche": 7458,
      "##front": 7459,
      "Ġauthorities": 7460,
      "Ġchose": 7461,
      "Ġinsight": 7462,
      "Ġchannels": 7463,
      "##rating": 7464,
      "Ġinvolves": 7465,
      "ĠPoint": 7466,
      "ĠBoston": 7467,
      "Ġcategories": 7468,
      "Ġhabit": 7469,
      "Ġsick": 7470,
      "Ġconnections": 7471,
      "Ġkm": 7472,
      "Ġconfirmed": 7473,
      "##gor": 7474,
      "ĠCR": 7475,
      "ĠInsurance": 7476,
      "ĠCarolina": 7477,
      "ĠObama": 7478,
      "Ġhonor": 7479,
      "Ġensuring": 7480,
      "Ġmanagers": 7481,
      "ĠVill": 7482,
      "Ġproducing": 7483,
      "Ġmerch": 7484,
      "Ġ150": 7485,
      "ĠAssist": 7486,
      "Ġheating": 7487,
      "ãĢ": 7488,
      "Ġfestival": 7489,
      "ĠFOR": 7490,
      "Ġdecade": 7491,
      "Ġattacks": 7492,
      "##PC": 7493,
      "Ġslowly": 7494,
      "Ġmillions": 7495,
      "Ġregions": 7496,
      "Ġthin": 7497,
      "Ġterror": 7498,
      "Ġ<": 7499,
      "Ġincreasingly": 7500,
      "ĠGeorg": 7501,
      "Ġsending": 7502,
      "##____": 7503,
      "ĠSupport": 7504,
      "level": 7505,
      "Ġrating": 7506,
      "Ġpurchasing": 7507,
      "Ġcontrols": 7508,
      "Ġunex": 7509,
      "Ġsoph": 7510,
      "Ġpriority": 7511,
      "Ġcomparison": 7512,
      "Ġsin": 7513,
      "ĠPDF": 7514,
      "Ġgent": 7515,
      "Ġpresents": 7516,
      "Ġarray": 7517,
      "ĠPub": 7518,
      "Ġmemories": 7519,
      "Ġcrime": 7520,
      "ĠLin": 7521,
      "##TH": 7522,
      "Ġinterpret": 7523,
      "ĠEngineering": 7524,
      "##lymp": 7525,
      "Ġmold": 7526,
      "Ġroles": 7527,
      "Ġeast": 7528,
      "ĠSmall": 7529,
      "Ġdisplayed": 7530,
      "Im": 7531,
      "ĠOk": 7532,
      "Ġframework": 7533,
      "ĠZealand": 7534,
      "Ġstatements": 7535,
      "##oir": 7536,
      "21": 7537,
      "##ventional": 7538,
      "ĠExecutive": 7539,
      "ĠNext": 7540,
      "Ġtooth": 7541,
      "Ġtomorrow": 7542,
      "Ġagricult": 7543,
      "ĠTri": 7544,
      "Ġcarpet": 7545,
      "Ġlucky": 7546,
      "Ġelev": 7547,
      "Ġmile": 7548,
      "##ocated": 7549,
      "##ÃŃ": 7550,
      "Ġdeposit": 7551,
      "Ġ2001": 7552,
      "##II": 7553,
      "Ġsamples": 7554,
      "Ġviolence": 7555,
      "Bl": 7556,
      "##rently": 7557,
      "Ġbench": 7558,
      "Ġhospit": 7559,
      "##oster": 7560,
      "Ġhttps": 7561,
      "Ġwithd": 7562,
      "Ġtip": 7563,
      "friendly": 7564,
      "ĠChampions": 7565,
      "Ġhealing": 7566,
      "Ġcompat": 7567,
      "##isters": 7568,
      "ĠKn": 7569,
      "Ġ2002": 7570,
      "ĠThus": 7571,
      "Ġreader": 7572,
      "âĢ²": 7573,
      "Ġviewed": 7574,
      "Ind": 7575,
      "##sters": 7576,
      "##ocation": 7577,
      "Ġsomewhere": 7578,
      "ĠHen": 7579,
      "Ġstreets": 7580,
      "Ġseed": 7581,
      "##Ñĥ": 7582,
      "Ġusage": 7583,
      "ĠLive": 7584,
      "Ġflour": 7585,
      "ĠHistory": 7586,
      "##iments": 7587,
      "Ġreject": 7588,
      "Ġcontest": 7589,
      "Ġwriters": 7590,
      "ĠLittle": 7591,
      "Ġstake": 7592,
      "ĠNote": 7593,
      "Ġlikes": 7594,
      "Ġaside": 7595,
      "ĠIslam": 7596,
      "Ġunderst": 7597,
      "##bi": 7598,
      "Ġraw": 7599,
      "##rick": 7600,
      "##what": 7601,
      "##stal": 7602,
      "ĠChris": 7603,
      "##vi": 7604,
      "##ati": 7605,
      "##95": 7606,
      "##icit": 7607,
      "ĠOS": 7608,
      "Ġenjoying": 7609,
      "Ġ55": 7610,
      "##och": 7611,
      "Ġconflict": 7612,
      "Ġwra": 7613,
      "ĠLib": 7614,
      "Ġ400": 7615,
      "Ġbelieved": 7616,
      "ĠKitchen": 7617,
      "Le": 7618,
      "Ġyounger": 7619,
      "Ġpotentially": 7620,
      "Ġinfect": 7621,
      "Oh": 7622,
      "Ġrose": 7623,
      "Ġwhilst": 7624,
      "ĠStudents": 7625,
      "ĠKen": 7626,
      "##GE": 7627,
      "Ġcommonly": 7628,
      "##ouch": 7629,
      "Ġentit": 7630,
      "##FL": 7631,
      "##duate": 7632,
      "Ġpromise": 7633,
      "##ico": 7634,
      "if": 7635,
      "ĠColumb": 7636,
      "##raction": 7637,
      "Ġpul": 7638,
      "Sp": 7639,
      "ĠEs": 7640,
      "Ġincredibly": 7641,
      "Ġrequirement": 7642,
      "Ġvulner": 7643,
      "Ġmac": 7644,
      "##aded": 7645,
      "##44": 7646,
      "Ġcontrolled": 7647,
      "Ġconcerning": 7648,
      "Ġbehalf": 7649,
      "##inos": 7650,
      "Ġmagic": 7651,
      "##atics": 7652,
      "Ġhoping": 7653,
      "Ġheav": 7654,
      "Ġalongside": 7655,
      "ĠSanta": 7656,
      "Ġawards": 7657,
      "ĠFollow": 7658,
      "Ġvibr": 7659,
      "Ġyield": 7660,
      "##à¸": 7661,
      "Ġblend": 7662,
      "Ġengaged": 7663,
      "Ġintroduction": 7664,
      "##ennis": 7665,
      "Ġexception": 7666,
      "ĠBow": 7667,
      "Ġdivid": 7668,
      "##BI": 7669,
      "ĠSon": 7670,
      "##uling": 7671,
      "ĠComput": 7672,
      "Ġjustice": 7673,
      "Ġshooting": 7674,
      "Ġeggs": 7675,
      "Ġconcepts": 7676,
      "Ġsuffering": 7677,
      "Ġtransaction": 7678,
      "ĠSouthern": 7679,
      "ĠSn": 7680,
      "Ġ3rd": 7681,
      "Ġswimming": 7682,
      "Ġremark": 7683,
      "Ġunw": 7684,
      "!\"": 7685,
      "Ġbuyers": 7686,
      "ĠSky": 7687,
      "Ġintent": 7688,
      "Ġtwe": 7689,
      "##tics": 7690,
      "Ġwooden": 7691,
      "Ġë": 7692,
      "Ġpreferred": 7693,
      "Ġreform": 7694,
      "ĠMike": 7695,
      "Ġtracks": 7696,
      "Ġprospect": 7697,
      "ĠStore": 7698,
      "Ġfeelings": 7699,
      "27": 7700,
      "##known": 7701,
      "ĠTravel": 7702,
      "Ġmoves": 7703,
      "##HS": 7704,
      "##irts": 7705,
      "Ġorganis": 7706,
      "Ġille": 7707,
      "Ġpink": 7708,
      "ĠDub": 7709,
      "##zing": 7710,
      "Ġblocks": 7711,
      "ĠAri": 7712,
      "ĠRoman": 7713,
      "ĠIdeas": 7714,
      "Ġprogramming": 7715,
      "##ATION": 7716,
      "##ppers": 7717,
      "##ns": 7718,
      "Ġblow": 7719,
      "Ġlegs": 7720,
      "##under": 7721,
      "Ġpersons": 7722,
      "##esh": 7723,
      "Ġperm": 7724,
      "ĠRef": 7725,
      "##ogen": 7726,
      "##gers": 7727,
      "##vas": 7728,
      "Ġexhibition": 7729,
      "Ġdefinition": 7730,
      "##UN": 7731,
      "Ġworst": 7732,
      "Ġcausing": 7733,
      "##iverse": 7734,
      "Ġconsumption": 7735,
      "Ġexceptional": 7736,
      "Ġenroll": 7737,
      "Ġbirds": 7738,
      "Ġvisible": 7739,
      "Ġads": 7740,
      "Ġpleasure": 7741,
      "##zil": 7742,
      "se": 7743,
      "##awn": 7744,
      "##anger": 7745,
      "ĠBob": 7746,
      "Ġ800": 7747,
      "Ġsupplement": 7748,
      "##ï¿½": 7749,
      "that": 7750,
      "Even": 7751,
      "Ġfaculty": 7752,
      "ĠFinancial": 7753,
      "Ġsensitive": 7754,
      "##26": 7755,
      "##EST": 7756,
      "Ġprison": 7757,
      "Ġmale": 7758,
      "Ġmaintaining": 7759,
      "ĠJeff": 7760,
      "Ġminimal": 7761,
      "Then": 7762,
      "Ġcritic": 7763,
      "Ġnewly": 7764,
      "Ġsuggestions": 7765,
      "##LY": 7766,
      "Ġsuggests": 7767,
      "Ġbasically": 7768,
      "##weet": 7769,
      "Ġstruggle": 7770,
      "Ġstring": 7771,
      "##Ã¶": 7772,
      "##apore": 7773,
      "Ġpackages": 7774,
      "Ġjoining": 7775,
      "##uster": 7776,
      "ĠSEO": 7777,
      "ĠJersey": 7778,
      "Ġevaluation": 7779,
      "Ġcrazy": 7780,
      "Ġpenal": 7781,
      "Great": 7782,
      "Ġregardless": 7783,
      "Ġsetup": 7784,
      "##ogether": 7785,
      "ĠLee": 7786,
      "Ġ38": 7787,
      "ĠShop": 7788,
      "Ġgraphics": 7789,
      "##pection": 7790,
      "ĠMobile": 7791,
      "Ġupgrade": 7792,
      "ĠHard": 7793,
      "Ġoutl": 7794,
      "Ġhumans": 7795,
      "Ġbars": 7796,
      "Ġconsultation": 7797,
      "Ġoutcomes": 7798,
      "Ġsou": 7799,
      "Ġrecognition": 7800,
      "Ġerrors": 7801,
      "May": 7802,
      "##stery": 7803,
      "##reement": 7804,
      "##iams": 7805,
      "##uct": 7806,
      "Ġcookies": 7807,
      "all": 7808,
      "Ġcareful": 7809,
      "ĠBuy": 7810,
      "Ġdishes": 7811,
      "Ġresume": 7812,
      "Ġpor": 7813,
      "Ġcontinuing": 7814,
      "Ġrenov": 7815,
      "##mail": 7816,
      "ĠLiving": 7817,
      "##unior": 7818,
      "per": 7819,
      "Ġforever": 7820,
      "ĠPacific": 7821,
      "##lywood": 7822,
      "Ġapplying": 7823,
      "Ġmarks": 7824,
      "ĠEnvironment": 7825,
      "ĠGames": 7826,
      "Ġherself": 7827,
      "##ulum": 7828,
      "##RL": 7829,
      "##Tube": 7830,
      "##Ã¤": 7831,
      "Ġdriven": 7832,
      "##iversary": 7833,
      "ĠWeek": 7834,
      "##nda": 7835,
      "ĠSC": 7836,
      "##stream": 7837,
      "Ġrefund": 7838,
      "ĠLow": 7839,
      "##olid": 7840,
      "##etary": 7841,
      "Ġdreams": 7842,
      "ĠWorks": 7843,
      "##Ã³": 7844,
      "##ags": 7845,
      "##tes": 7846,
      "Ġvegetables": 7847,
      "ĠGarden": 7848,
      "ĠMarketing": 7849,
      "Ġlimits": 7850,
      "Ġscored": 7851,
      "Ġnaturally": 7852,
      "Ġintegration": 7853,
      "Ġsplit": 7854,
      "##lessly": 7855,
      "Ġlists": 7856,
      "ĠSports": 7857,
      "Ġblind": 7858,
      "##hops": 7859,
      "Ġsomewhat": 7860,
      "ĠAbout": 7861,
      "##LS": 7862,
      "Ġhole": 7863,
      "line": 7864,
      "Ġpref": 7865,
      "Ġoverwhel": 7866,
      "no": 7867,
      "Ġintelligence": 7868,
      "##amps": 7869,
      "ĠPhys": 7870,
      "##zes": 7871,
      "ĠYoung": 7872,
      "##28": 7873,
      "Ġdispl": 7874,
      "##urse": 7875,
      "Ġcalendar": 7876,
      "ĠOlymp": 7877,
      "##mony": 7878,
      "Ġliability": 7879,
      "including": 7880,
      "ĠSea": 7881,
      "Ġrelative": 7882,
      "Ġgate": 7883,
      "Ġflash": 7884,
      "Ġfollows": 7885,
      "Ġresort": 7886,
      "Ġblank": 7887,
      "##ounter": 7888,
      "##bration": 7889,
      "##itan": 7890,
      "Qu": 7891,
      "ĠWatch": 7892,
      "Ġexport": 7893,
      "Ġanxiety": 7894,
      "ĠIran": 7895,
      "Ġhi": 7896,
      "Ġfru": 7897,
      "##phones": 7898,
      "##EA": 7899,
      "05": 7900,
      "Ġheads": 7901,
      "Ġdoctors": 7902,
      "Ġincident": 7903,
      "60": 7904,
      "Ġtoile": 7905,
      "Ġfactory": 7906,
      "ĠBall": 7907,
      "##uy": 7908,
      "Ġpace": 7909,
      "Ġisol": 7910,
      "Ġcovering": 7911,
      "Ġchecking": 7912,
      "ĠCP": 7913,
      "Ġholidays": 7914,
      "Ġrely": 7915,
      "cl": 7916,
      "ĠVery": 7917,
      "##ument": 7918,
      "##ools": 7919,
      "Ġfighting": 7920,
      "ĠGuide": 7921,
      "ĠPrice": 7922,
      "ĠDie": 7923,
      "Ġ65": 7924,
      "Ġsmell": 7925,
      "min": 7926,
      "Ġacts": 7927,
      "Ġelegant": 7928,
      "##aints": 7929,
      "##ba": 7930,
      "##ls": 7931,
      "ĠMichigan": 7932,
      "##ds": 7933,
      "##illy": 7934,
      "ĠArea": 7935,
      "Ar": 7936,
      "##Ð»": 7937,
      "##yard": 7938,
      "Ġvictory": 7939,
      "Ġsuppliers": 7940,
      "ĠSS": 7941,
      "Ġobserved": 7942,
      "Ġauthentic": 7943,
      "Ġapproaches": 7944,
      "ĠNorthern": 7945,
      "##ansas": 7946,
      "##bridge": 7947,
      "##riers": 7948,
      "Each": 7949,
      "Ġdirected": 7950,
      "Ġmodule": 7951,
      "##redit": 7952,
      "##66": 7953,
      "##eah": 7954,
      "##haust": 7955,
      "##mith": 7956,
      "Ġlib": 7957,
      "##adow": 7958,
      "Ġelectricity": 7959,
      "ĠProper": 7960,
      "Ġbact": 7961,
      "Ġphones": 7962,
      "Ġoutcome": 7963,
      "app": 7964,
      "Ġequival": 7965,
      "ĠPin": 7966,
      "##bing": 7967,
      "##VER": 7968,
      "Ġlicensed": 7969,
      "Ġdropped": 7970,
      "##amental": 7971,
      "ĠUlt": 7972,
      "Ġfib": 7973,
      "ĠDisney": 7974,
      "##ulpt": 7975,
      "Ġstrict": 7976,
      "Ġchances": 7977,
      "##ja": 7978,
      "ĠBox": 7979,
      "##cific": 7980,
      "##cribe": 7981,
      "Ġstuck": 7982,
      "Int": 7983,
      "Ġexpansion": 7984,
      "Ġlad": 7985,
      "Ġshouldn": 7986,
      "ĠAp": 7987,
      "Ġinsert": 7988,
      "Ġlect": 7989,
      "ĠHa": 7990,
      "Ġsections": 7991,
      "ĠPract": 7992,
      "##oes": 7993,
      "##bl": 7994,
      "Ġtracking": 7995,
      "##amber": 7996,
      "Ġpossess": 7997,
      "Ġ37": 7998,
      "ĠUSB": 7999,
      "Ġwalked": 8000,
      "Ġcontainer": 8001,
      "Ġindicate": 8002,
      "Ġinstant": 8003,
      "ĠLine": 8004,
      "Ġbelieves": 8005,
      "Ġfunctionality": 8006,
      "Ġstable": 8007,
      "ĠSmart": 8008,
      "Ġnarr": 8009,
      "Ġlaugh": 8010,
      "Ġloving": 8011,
      "##acious": 8012,
      "Ġcombine": 8013,
      "29": 8014,
      "ĠKnow": 8015,
      "ĠPolice": 8016,
      "Ġlisting": 8017,
      "Ġbeneficial": 8018,
      "##anes": 8019,
      "Ġposting": 8020,
      "ĠFREE": 8021,
      "Ġdebut": 8022,
      "##oors": 8023,
      "Ġamend": 8024,
      "Ġocean": 8025,
      "Ġsurprising": 8026,
      "##aken": 8027,
      "Ġchairs": 8028,
      "ĠLLC": 8029,
      "ĠFrancisco": 8030,
      "ĠSuch": 8031,
      "ĠHor": 8032,
      "Where": 8033,
      "ĠOhio": 8034,
      "ĠFed": 8035,
      "Ġfunny": 8036,
      "##AA": 8037,
      "##bury": 8038,
      "##uls": 8039,
      "Ġshots": 8040,
      "Ġspoke": 8041,
      "Ġpanels": 8042,
      "Ġtor": 8043,
      "Ġdrinking": 8044,
      "ĠUt": 8045,
      "Ġtransactions": 8046,
      "##erving": 8047,
      "Ġlawyer": 8048,
      "Ġbare": 8049,
      "Ġkil": 8050,
      "##iana": 8051,
      "Ġdiseases": 8052,
      "Ġvenue": 8053,
      "Ġpra": 8054,
      "##RS": 8055,
      "Ġabuse": 8056,
      "Ġalumin": 8057,
      "ĠMur": 8058,
      "Ġinstruction": 8059,
      "Ġlift": 8060,
      "ĠWhich": 8061,
      "##igate": 8062,
      "Ġacceler": 8063,
      "Ġlets": 8064,
      "Ġvolunteers": 8065,
      "##ipt": 8066,
      "Ġmic": 8067,
      "Ġtrim": 8068,
      "##cular": 8069,
      "ĠHP": 8070,
      "Ġcenters": 8071,
      "Ġcircuit": 8072,
      "##arters": 8073,
      "##earing": 8074,
      "##athy": 8075,
      "Ġwarranty": 8076,
      "Ġconvert": 8077,
      "ĠSoftware": 8078,
      "Ġspots": 8079,
      "Ġcolours": 8080,
      "Ġcompensation": 8081,
      "Ġaircraft": 8082,
      "ĠAsh": 8083,
      "##izza": 8084,
      "Ġcoal": 8085,
      "ĠJohnson": 8086,
      "##27": 8087,
      "Ġjewel": 8088,
      "Ġcorrectly": 8089,
      "ĠWebsite": 8090,
      "##active": 8091,
      "Ġtissue": 8092,
      "Ġmatches": 8093,
      "Ġacquis": 8094,
      "ĠBon": 8095,
      "Ġproposal": 8096,
      "Ġsubjects": 8097,
      "Ġopposite": 8098,
      "##gorith": 8099,
      "Ġhat": 8100,
      "ĠTry": 8101,
      "##rand": 8102,
      "Ġram": 8103,
      "Ġbreast": 8104,
      "Ġflexibility": 8105,
      "Ġzero": 8106,
      "##lder": 8107,
      "Ġnecessarily": 8108,
      "Ġcriteria": 8109,
      "Ġmm": 8110,
      "##âĢľ": 8111,
      "Ġtraveling": 8112,
      "Ġobjective": 8113,
      "Ġdiagram": 8114,
      "ĠSearch": 8115,
      "Ġeverywhere": 8116,
      "Ġceiling": 8117,
      "Ġresponses": 8118,
      "ĠTraining": 8119,
      "ĠAirport": 8120,
      "Ġcharacteristics": 8121,
      "Ġpolitics": 8122,
      "Ġrecover": 8123,
      "Ġoblig": 8124,
      "Ġhur": 8125,
      "Ġtalks": 8126,
      "##gypt": 8127,
      "Ġempty": 8128,
      "Ġcontained": 8129,
      "Ġtrips": 8130,
      "Ġrequested": 8131,
      "Ġlaptop": 8132,
      "Ġalt": 8133,
      "Ġcontaining": 8134,
      "ĠNight": 8135,
      "##Press": 8136,
      "##eep": 8137,
      "Ġorganisation": 8138,
      "ĠTax": 8139,
      "##onto": 8140,
      "Ġcomplicated": 8141,
      "##MC": 8142,
      "Ġspray": 8143,
      "ĠRight": 8144,
      "##lusive": 8145,
      "Ġhosted": 8146,
      "Ġtill": 8147,
      "##abetes": 8148,
      "Ġskilled": 8149,
      "##onym": 8150,
      "Ġfits": 8151,
      "Ġlesson": 8152,
      "ĠMic": 8153,
      "Ġnuclear": 8154,
      "at": 8155,
      "Ġforum": 8156,
      "See": 8157,
      "##DS": 8158,
      "Ġbuff": 8159,
      "##eras": 8160,
      "Ġrespectively": 8161,
      "Ġpermission": 8162,
      "Ġentrance": 8163,
      "Ġlens": 8164,
      "!)": 8165,
      "Ġbone": 8166,
      "end": 8167,
      "Ġmarked": 8168,
      "##lose": 8169,
      "##gged": 8170,
      "##rible": 8171,
      "##coin": 8172,
      "Ġexposed": 8173,
      "ĠEll": 8174,
      "htt": 8175,
      "Ġanyway": 8176,
      "ĠYouTube": 8177,
      "Ġparticipation": 8178,
      "Ġneut": 8179,
      "Ġhurt": 8180,
      "Ġsharp": 8181,
      "Ġinvolving": 8182,
      "Ġunus": 8183,
      "##uis": 8184,
      "Ġlayout": 8185,
      "Ġpurs": 8186,
      "ĠLearn": 8187,
      "##36": 8188,
      "ĠConf": 8189,
      "Ġneighb": 8190,
      "Ġspecified": 8191,
      "Per": 8192,
      "Ġlegislation": 8193,
      "Ġencouraged": 8194,
      "ĠColorado": 8195,
      "Ġemployer": 8196,
      "Ġautomatic": 8197,
      "Ġcertification": 8198,
      "ĠCook": 8199,
      "Ġfinest": 8200,
      "##ributes": 8201,
      "Ġcouncil": 8202,
      "Ġvert": 8203,
      "ĠBeaut": 8204,
      "ĠEnt": 8205,
      "##AY": 8206,
      "ĠRichard": 8207,
      "75": 8208,
      "Ġdemands": 8209,
      "Ġcarrying": 8210,
      "##aste": 8211,
      "Ġexplan": 8212,
      "Ġinteractive": 8213,
      "Ġretirement": 8214,
      "ĠBuilding": 8215,
      "ĠJon": 8216,
      "Ġstages": 8217,
      "Ġyours": 8218,
      "ĠFre": 8219,
      "ĠHoly": 8220,
      "ĠHon": 8221,
      "Next": 8222,
      "##liament": 8223,
      "Of": 8224,
      "##lyn": 8225,
      "Ġmood": 8226,
      "Ġstaying": 8227,
      "Ġfalse": 8228,
      "Ġpersonality": 8229,
      "Ġliterature": 8230,
      "Ġphr": 8231,
      "Ġimprovements": 8232,
      "Ġpitch": 8233,
      "Ġforecast": 8234,
      "Ġterrit": 8235,
      "Ġrepairs": 8236,
      "'.": 8237,
      "Ġattach": 8238,
      "Ġwave": 8239,
      "Note": 8240,
      "Ġrural": 8241,
      "Ġintellect": 8242,
      "Ġinject": 8243,
      "ĠPot": 8244,
      "Ġ64": 8245,
      "##sen": 8246,
      "##bits": 8247,
      "##38": 8248,
      "ĠLook": 8249,
      "ĠJewish": 8250,
      "Ġfilling": 8251,
      "##arry": 8252,
      "Ġgreatly": 8253,
      "##amic": 8254,
      "##ih": 8255,
      "cent": 8256,
      "Ġhack": 8257,
      "Ġtum": 8258,
      "ĠFun": 8259,
      "Ġemails": 8260,
      "Ġassociation": 8261,
      "Ġadequ": 8262,
      "Ġborrow": 8263,
      "##akistan": 8264,
      "Ġtagged": 8265,
      "##ership": 8266,
      "Ġdrinks": 8267,
      "Ġpride": 8268,
      "Ġoccurs": 8269,
      "Ġexpressed": 8270,
      "Ġdebate": 8271,
      "ĠMountain": 8272,
      "Ġunexpected": 8273,
      "ĠKingdom": 8274,
      "Ġasset": 8275,
      "Ġflower": 8276,
      "Ġdecent": 8277,
      "Ġdamaged": 8278,
      "Ġyards": 8279,
      "##asting": 8280,
      "Ġdivision": 8281,
      "Ġfest": 8282,
      "##iler": 8283,
      "sp": 8284,
      "Ġstir": 8285,
      "ĠCasino": 8286,
      "Ġpocket": 8287,
      "##iances": 8288,
      "##formance": 8289,
      "Ġol": 8290,
      "Ġargument": 8291,
      "ĠSH": 8292,
      "Ġreaction": 8293,
      "ĠFord": 8294,
      "ĠClin": 8295,
      "##iform": 8296,
      "ĠHaving": 8297,
      "ĠConc": 8298,
      "##iti": 8299,
      "Ġcertificate": 8300,
      "Ġleague": 8301,
      "ĠYet": 8302,
      "Ġlake": 8303,
      "##las": 8304,
      "Ġaccommodation": 8305,
      "Ġliterally": 8306,
      "Ġtone": 8307,
      "Ġmaintained": 8308,
      "##AB": 8309,
      "ĠPage": 8310,
      "##odge": 8311,
      "ĠBang": 8312,
      "Ġdesigners": 8313,
      "##ione": 8314,
      "Ġlargely": 8315,
      "Ġroads": 8316,
      "Ġbaking": 8317,
      "ĠJackson": 8318,
      "##oin": 8319,
      "Ġaccordance": 8320,
      "##ults": 8321,
      "##ml": 8322,
      "##iki": 8323,
      "ĠEnjoy": 8324,
      "ĠDivision": 8325,
      "Ġdelivering": 8326,
      "##ificial": 8327,
      "Ġassume": 8328,
      "Ġcoat": 8329,
      "Ġratio": 8330,
      "Ġclock": 8331,
      "##pending": 8332,
      "Rec": 8333,
      "Ġorigin": 8334,
      "Ġfindings": 8335,
      "Ġimplemented": 8336,
      "Ġdrawn": 8337,
      "##ckets": 8338,
      "Ġrecruit": 8339,
      "##aze": 8340,
      "Ġshell": 8341,
      "##ashed": 8342,
      "##estion": 8343,
      "Ġfocuses": 8344,
      "ĠNig": 8345,
      "##ila": 8346,
      "Ġsail": 8347,
      "Ġvess": 8348,
      "Ġera": 8349,
      "ĠWin": 8350,
      "ĠJones": 8351,
      "Ġinitiative": 8352,
      "Ġguaranteed": 8353,
      "ĠØ": 8354,
      "Ġobviously": 8355,
      "##ìĿ": 8356,
      "ĠAuto": 8357,
      "Ġlies": 8358,
      "Ġscores": 8359,
      "Ġpreparing": 8360,
      "##TER": 8361,
      "ĠBul": 8362,
      "Ġtelephone": 8363,
      "Pe": 8364,
      "Ġfaces": 8365,
      "Ġsex": 8366,
      "Ġdiscl": 8367,
      "Ġvintage": 8368,
      "ĠNon": 8369,
      "##ials": 8370,
      "##raid": 8371,
      "Ġlifetime": 8372,
      "Ġcomputers": 8373,
      "##mo": 8374,
      "ĠTer": 8375,
      "Ġque": 8376,
      "##ateful": 8377,
      "##EG": 8378,
      "ĠSilver": 8379,
      "##rage": 8380,
      "Ġbid": 8381,
      "##sis": 8382,
      "Ġphotographs": 8383,
      "Ġsecondary": 8384,
      "ĠSingapore": 8385,
      "##vironments": 8386,
      "Ġgentle": 8387,
      "Ġpublication": 8388,
      "Ġstronger": 8389,
      "Ġscientists": 8390,
      "Ġmeets": 8391,
      "##ologist": 8392,
      "Ġbills": 8393,
      "##ounded": 8394,
      "##ugs": 8395,
      "04": 8396,
      "Ġaims": 8397,
      "ĠAdditionally": 8398,
      "Ġconcert": 8399,
      "Ġspeaker": 8400,
      "Ġpulled": 8401,
      "Ġspectac": 8402,
      "Ġseeds": 8403,
      "##quis": 8404,
      "ĠSpace": 8405,
      "Ġtwenty": 8406,
      "Ġexplains": 8407,
      "Ġoccurred": 8408,
      "ĠArmy": 8409,
      "Ġconvenience": 8410,
      "Ġrecyc": 8411,
      "Ġjuice": 8412,
      "Ġstudying": 8413,
      "ĠSales": 8414,
      "##itches": 8415,
      "ĠOil": 8416,
      "##eek": 8417,
      "##29": 8418,
      "##64": 8419,
      "Ġaddresses": 8420,
      "Ġexistence": 8421,
      "ĠThough": 8422,
      "Ġspeakers": 8423,
      "ĠJoe": 8424,
      "âĢĺ": 8425,
      "Ġstead": 8426,
      "Ġgaming": 8427,
      "Ġsatisfied": 8428,
      "ĠFar": 8429,
      "Ġrepresentative": 8430,
      "Ġinteraction": 8431,
      "Ġspark": 8432,
      "go": 8433,
      "ĠFour": 8434,
      "Ġgym": 8435,
      "ad": 8436,
      "##39": 8437,
      "Ġgap": 8438,
      "##FC": 8439,
      "Ġyoga": 8440,
      "ĠDVD": 8441,
      "ĠSpain": 8442,
      "##osc": 8443,
      "Ġalarm": 8444,
      "ĠMeet": 8445,
      "##una": 8446,
      "Ġobst": 8447,
      "class": 8448,
      "##ali": 8449,
      "Ġdowntown": 8450,
      "##cover": 8451,
      "Ġconscious": 8452,
      "ĠEss": 8453,
      "ĠStock": 8454,
      "##anna": 8455,
      "Ġengaging": 8456,
      "Ġengines": 8457,
      "ĠWilliams": 8458,
      "##utter": 8459,
      "Ġfinds": 8460,
      "##onom": 8461,
      "##iat": 8462,
      "Ġfrequency": 8463,
      "##ruption": 8464,
      "##oom": 8465,
      "Ġcomplim": 8466,
      "ĠShould": 8467,
      "Ġbrilliant": 8468,
      "Ġlowest": 8469,
      "##host": 8470,
      "##inet": 8471,
      "##ESS": 8472,
      "##roke": 8473,
      "Ġnights": 8474,
      "Rem": 8475,
      "Read": 8476,
      "ĠGirl": 8477,
      "ĠSat": 8478,
      "ĠAgreement": 8479,
      "Ġdiamond": 8480,
      "Ġconfiguration": 8481,
      "Ġrevolution": 8482,
      "##afe": 8483,
      "Check": 8484,
      "##empl": 8485,
      "ĠBlo": 8486,
      "##stract": 8487,
      "Ġscrew": 8488,
      "Make": 8489,
      "Ġtransmission": 8490,
      "ĠStudies": 8491,
      "##worth": 8492,
      "Ġelectron": 8493,
      "Ġgained": 8494,
      "Ġforgot": 8495,
      "new": 8496,
      "ĠHun": 8497,
      "Ġentering": 8498,
      "Ġbab": 8499,
      "ĠVeg": 8500,
      "Ġclosing": 8501,
      "Ġvolunteer": 8502,
      "Ġcolleagues": 8503,
      "##riculum": 8504,
      "ĠSteve": 8505,
      "##teen": 8506,
      "01": 8507,
      "Ġfocusing": 8508,
      "Ġexhaust": 8509,
      "##34": 8510,
      "ĠProfessor": 8511,
      "Ġfundamental": 8512,
      "ĠPrint": 8513,
      "ĠUnfortunately": 8514,
      "Ġacting": 8515,
      "##amsung": 8516,
      "ĠBrazil": 8517,
      "Ġcock": 8518,
      "Ġhydro": 8519,
      "##fe": 8520,
      "Ġrepresented": 8521,
      "ĠProfessional": 8522,
      "Ġplot": 8523,
      "ĠGeorgia": 8524,
      "##atile": 8525,
      "##iour": 8526,
      "Ġdurable": 8527,
      "Ġvisits": 8528,
      "ĠEgypt": 8529,
      "Ġexploring": 8530,
      "Ġinvestments": 8531,
      "us": 8532,
      "Ġski": 8533,
      "Ġadvantages": 8534,
      "##ilipp": 8535,
      "##imal": 8536,
      "Ġboot": 8537,
      "ĠPen": 8538,
      "Ġorange": 8539,
      "##otal": 8540,
      "Ġmattress": 8541,
      "ĠQuality": 8542,
      "##uing": 8543,
      "Ġrepeated": 8544,
      "Ġcompletion": 8545,
      "##onic": 8546,
      "ĠVe": 8547,
      "Ġfloors": 8548,
      "Ġneuro": 8549,
      "ĠQueen": 8550,
      "ĠRose": 8551,
      "##rieved": 8552,
      "Ġintroduce": 8553,
      "ĠMedicine": 8554,
      "Ġchecked": 8555,
      "Ġpounds": 8556,
      "ĠLocal": 8557,
      "ĠStat": 8558,
      "Ġstrongly": 8559,
      "Ġtalked": 8560,
      "##37": 8561,
      "Ġstainless": 8562,
      "##ucky": 8563,
      "##elled": 8564,
      "ĠDid": 8565,
      "ĠDaniel": 8566,
      "ĠAsian": 8567,
      "##ampion": 8568,
      "Ġgranted": 8569,
      "Ġscope": 8570,
      "ĠNever": 8571,
      "##uma": 8572,
      "ĠOrder": 8573,
      "ĠHeart": 8574,
      "Ġdrain": 8575,
      "Ġdollar": 8576,
      "ĠRen": 8577,
      "ĠVideo": 8578,
      "Ġlanguages": 8579,
      "Ġfraud": 8580,
      "Ġcabinet": 8581,
      "##CO": 8582,
      "Use": 8583,
      "ĠDri": 8584,
      "ĠRam": 8585,
      "ĠCB": 8586,
      "Ġpacked": 8587,
      "Ġaccuracy": 8588,
      "##orce": 8589,
      "mon": 8590,
      "Ġadvent": 8591,
      "Ġalive": 8592,
      "Ġcotton": 8593,
      "ĠCharles": 8594,
      "Man": 8595,
      "##unicip": 8596,
      "ĠModern": 8597,
      "Ġentitled": 8598,
      "##Ðº": 8599,
      "Ġrapidly": 8600,
      "ĠSteel": 8601,
      "ĠColl": 8602,
      "Ġwarn": 8603,
      "Ġdeeper": 8604,
      "ĠTurn": 8605,
      "Ġflying": 8606,
      "Ġpersonnel": 8607,
      "Ġhes": 8608,
      "Ġimpl": 8609,
      "##rat": 8610,
      "Ġassigned": 8611,
      "Ġbroadcast": 8612,
      "ĠLink": 8613,
      "Ġgod": 8614,
      "Ġcontribution": 8615,
      "Ġequivalent": 8616,
      "Ġarrival": 8617,
      "ĠAgain": 8618,
      "Ġworkshops": 8619,
      "Ġstations": 8620,
      "Ġcreativity": 8621,
      "Ġenvironments": 8622,
      "Ġrising": 8623,
      "Ġprovision": 8624,
      "Ġremained": 8625,
      "ĠMuslim": 8626,
      "Ġestimate": 8627,
      "Ġtutorial": 8628,
      "Ġ1999": 8629,
      "Ġmur": 8630,
      "Ġlie": 8631,
      "Ġdemonstrate": 8632,
      "Ġvisitor": 8633,
      "Ġalgorith": 8634,
      "Before": 8635,
      "Americ": 8636,
      "ĠSci": 8637,
      "##sem": 8638,
      "Ġtexture": 8639,
      "Go": 8640,
      "##agen": 8641,
      "Ġmole": 8642,
      "Ġhasn": 8643,
      "Ġorient": 8644,
      "ĠCult": 8645,
      "Ġlayers": 8646,
      "Ġpad": 8647,
      "ĠWH": 8648,
      "Ġattending": 8649,
      "ind": 8650,
      "Ġalter": 8651,
      "ĠStation": 8652,
      "Ġgiant": 8653,
      "Ġhaz": 8654,
      "Ġdism": 8655,
      "Ġrefresh": 8656,
      "Ġtape": 8657,
      "Ġopens": 8658,
      "Ġranking": 8659,
      "ĠFL": 8660,
      "Ġresidence": 8661,
      "Ġhyper": 8662,
      "##riger": 8663,
      "ĠAndrew": 8664,
      "Ġfinger": 8665,
      "##wan": 8666,
      "ĠAwards": 8667,
      "ĠMachine": 8668,
      "##itate": 8669,
      "Ġsegment": 8670,
      "##pass": 8671,
      "Ġstudied": 8672,
      "ĠWalk": 8673,
      "Ġpackaging": 8674,
      "Ġalign": 8675,
      "Ġintense": 8676,
      "##ifting": 8677,
      "##then": 8678,
      "Ġmirror": 8679,
      "##RC": 8680,
      "##eren": 8681,
      "Ġtemporary": 8682,
      "Ġprayer": 8683,
      "Ġceremony": 8684,
      "##bar": 8685,
      "Ġhook": 8686,
      "Ġheaded": 8687,
      "##brid": 8688,
      "Ġprotocol": 8689,
      "Ġfalling": 8690,
      "Ġsofa": 8691,
      "Ġstrange": 8692,
      "Ġresid": 8693,
      "Ġ44": 8694,
      "Ġdrag": 8695,
      "Ġtherap": 8696,
      "Mr": 8697,
      "Ġenthusi": 8698,
      "Ġwaters": 8699,
      "Ġclicking": 8700,
      "Ġharder": 8701,
      "Ġhoriz": 8702,
      "Ġmg": 8703,
      "Ġdefine": 8704,
      "##anted": 8705,
      "Ġtro": 8706,
      "ĠThree": 8707,
      "Ġcurrency": 8708,
      "##itis": 8709,
      "##lace": 8710,
      "ĠSummer": 8711,
      "Ġafraid": 8712,
      "Ġreaching": 8713,
      "##ERS": 8714,
      "Whether": 8715,
      "##criptions": 8716,
      "##oof": 8717,
      "##can": 8718,
      "ĠCatholic": 8719,
      "##mart": 8720,
      "Ġru": 8721,
      "Ġcush": 8722,
      "Ġservers": 8723,
      "ĠRights": 8724,
      "net": 8725,
      "Ġloyal": 8726,
      "Ġflooring": 8727,
      "##iac": 8728,
      "Ġtemperatures": 8729,
      "Ġloose": 8730,
      "Ġinitially": 8731,
      "##anned": 8732,
      "##igen": 8733,
      "##uous": 8734,
      "Ġstatistics": 8735,
      "Take": 8736,
      "##inyl": 8737,
      "ĠGuys": 8738,
      "Ġfaced": 8739,
      "Ġkeyword": 8740,
      "Ġcomprom": 8741,
      "Ġdiscip": 8742,
      "ĠMah": 8743,
      "##sts": 8744,
      "ĠDrive": 8745,
      "##ubs": 8746,
      "Ġanymore": 8747,
      "Ġunderstood": 8748,
      "ĠStone": 8749,
      "Ġhomeown": 8750,
      "ĠSale": 8751,
      "Ġcelebration": 8752,
      "Ġinventory": 8753,
      "Ġbranch": 8754,
      "Who": 8755,
      "Ġspin": 8756,
      "Ġsurve": 8757,
      "Ġscreens": 8758,
      "ĠJac": 8759,
      "Ġacquired": 8760,
      "Ġheading": 8761,
      "ĠHelp": 8762,
      "Ġdad": 8763,
      "Ġobjectives": 8764,
      "##isa": 8765,
      "##mers": 8766,
      "Ġgene": 8767,
      "Ġham": 8768,
      "ĠProcess": 8769,
      "##heast": 8770,
      "Ġ39": 8771,
      "Ġsuspect": 8772,
      "ĠPolicy": 8773,
      "is": 8774,
      "Ġaccounting": 8775,
      "Ġunknown": 8776,
      "ĠKorea": 8777,
      "Ġdual": 8778,
      "Ġpubl": 8779,
      "Ġtact": 8780,
      "##stall": 8781,
      "ĠSafety": 8782,
      "ĠAdministration": 8783,
      "Ġpromotion": 8784,
      "##lude": 8785,
      "ĠProm": 8786,
      "Ġsensor": 8787,
      "Ġappointed": 8788,
      "bl": 8789,
      "ĠCru": 8790,
      "Ġcontracts": 8791,
      "199": 8792,
      "ĠSM": 8793,
      "Ġmaps": 8794,
      "Ġthemes": 8795,
      "Ġquotes": 8796,
      "Ġlaid": 8797,
      "##78": 8798,
      "Ġdiversity": 8799,
      "2018": 8800,
      "ĠTele": 8801,
      "ĠDI": 8802,
      "Ġassembly": 8803,
      "##adium": 8804,
      "ĠCountry": 8805,
      "Ġequally": 8806,
      "ĠPS": 8807,
      "Ġprize": 8808,
      "Ġmit": 8809,
      "Ġriding": 8810,
      "ĠBritain": 8811,
      "ĠPo": 8812,
      "Ġfarmers": 8813,
      "Ġinitiatives": 8814,
      "Ġpeak": 8815,
      "##zed": 8816,
      "##rooms": 8817,
      "ĠCON": 8818,
      "##ervations": 8819,
      "##sey": 8820,
      "##fall": 8821,
      "##ensus": 8822,
      "Ġsuffer": 8823,
      "ĠPersonal": 8824,
      "Ġboards": 8825,
      "Ġpainted": 8826,
      "Ġsubstantial": 8827,
      "ĠFather": 8828,
      "Ġwithdraw": 8829,
      "Ġperiods": 8830,
      "##ormal": 8831,
      "Ġensures": 8832,
      "Ġcontinuous": 8833,
      "Ġhits": 8834,
      "ĠDO": 8835,
      "ĠCorporation": 8836,
      "##isdom": 8837,
      "##ommun": 8838,
      "##otive": 8839,
      "ĠSher": 8840,
      "Ġhoney": 8841,
      "ĠPakistan": 8842,
      "Ġhate": 8843,
      "Ġconsent": 8844,
      "ĠLA": 8845,
      "ĠSection": 8846,
      "Ġconsequences": 8847,
      "ĠCloud": 8848,
      "##annel": 8849,
      "Ġdepression": 8850,
      "ĠPop": 8851,
      "Ġviewing": 8852,
      "Ġbrush": 8853,
      "Ġadopted": 8854,
      "Ġpig": 8855,
      "##icket": 8856,
      "ĠBit": 8857,
      "Ġ42": 8858,
      "Ġneither": 8859,
      "##chester": 8860,
      "Ġinsights": 8861,
      "Ġending": 8862,
      "Ġflights": 8863,
      "Ġtired": 8864,
      "ĠKent": 8865,
      "Ġwanting": 8866,
      "Ġbreaking": 8867,
      "##rich": 8868,
      "##cue": 8869,
      "Ġfing": 8870,
      "Ġreturning": 8871,
      "Ġdocumentation": 8872,
      "Ġcasual": 8873,
      "##aylor": 8874,
      "##ILL": 8875,
      "Ġconventional": 8876,
      "ĠGallery": 8877,
      "##aters": 8878,
      "Ġbedrooms": 8879,
      "Ġpp": 8880,
      "ĠLimited": 8881,
      "Ġpatio": 8882,
      "Ġdisplays": 8883,
      "Ġutilize": 8884,
      "Ġlaser": 8885,
      "##gent": 8886,
      "Ġ4th": 8887,
      "##win": 8888,
      "Ġorganisations": 8889,
      "Ġparticipating": 8890,
      "Ġchronic": 8891,
      "Ġwise": 8892,
      "##ceived": 8893,
      "ĠSav": 8894,
      "Ġcameras": 8895,
      "Ġinse": 8896,
      "col": 8897,
      "ĠSus": 8898,
      "ĠLearning": 8899,
      "Ġcontributions": 8900,
      "Ġsignature": 8901,
      "Ġoperated": 8902,
      "##encing": 8903,
      "##ludes": 8904,
      "ĠWordPress": 8905,
      "##eto": 8906,
      "ĠFact": 8907,
      "##athered": 8908,
      "Ġclaimed": 8909,
      "Ġplane": 8910,
      "Ġstylish": 8911,
      "ĠSwed": 8912,
      "Ġhopes": 8913,
      "##DP": 8914,
      "ĠBa": 8915,
      "##tyle": 8916,
      "Ġdeeply": 8917,
      "Ġtons": 8918,
      "##orks": 8919,
      "##ulator": 8920,
      "Ġinstitution": 8921,
      "Ġchildhood": 8922,
      "ĠSecretary": 8923,
      "ĠAgency": 8924,
      "Ġdirections": 8925,
      "Ġescape": 8926,
      "Ġkeys": 8927,
      "%,": 8928,
      "##ashes": 8929,
      "ĠExam": 8930,
      "Ġchampions": 8931,
      "Ġstability": 8932,
      "Ġexists": 8933,
      "tra": 8934,
      "Ġdesktop": 8935,
      "Ġcalm": 8936,
      "Ġphenomen": 8937,
      "Ġ120": 8938,
      "ĠFinally": 8939,
      "##andon": 8940,
      "Ġillegal": 8941,
      "##zona": 8942,
      "##eties": 8943,
      "##friend": 8944,
      "ĠCustomer": 8945,
      "##ervice": 8946,
      "ĠAPI": 8947,
      "##racy": 8948,
      "##erman": 8949,
      "ĠLeg": 8950,
      "Welcome": 8951,
      "Ġproductivity": 8952,
      "##BM": 8953,
      "##rite": 8954,
      "Find": 8955,
      "Ġsculpt": 8956,
      "Ġimplic": 8957,
      "Ġtrusted": 8958,
      "Ġindicated": 8959,
      "##rint": 8960,
      "ĠHou": 8961,
      "Ġplain": 8962,
      "##aws": 8963,
      "Ġinvite": 8964,
      "ĠCro": 8965,
      "Ġbunch": 8966,
      "Ġmedication": 8967,
      "Ġacquire": 8968,
      "Ġintention": 8969,
      "Ġseam": 8970,
      "Ġwatched": 8971,
      "Ġsought": 8972,
      "Ġlatter": 8973,
      "ĠSup": 8974,
      "Will": 8975,
      "Ġconversion": 8976,
      "Other": 8977,
      "Ġcod": 8978,
      "Ġsouthern": 8979,
      "ĠIrish": 8980,
      "ĠKim": 8981,
      "Ġgrace": 8982,
      "ĠVi": 8983,
      "##raq": 8984,
      "ĠPrime": 8985,
      "##85": 8986,
      "Ġmountains": 8987,
      "Ġimportantly": 8988,
      "ĠSE": 8989,
      "Ġcul": 8990,
      "ĠLabor": 8991,
      "Ġouts": 8992,
      "ĠCa": 8993,
      "##CD": 8994,
      "##net": 8995,
      "Ġvolt": 8996,
      "Ġreveal": 8997,
      "Ġdeveloper": 8998,
      "ĠAL": 8999,
      "##orld": 9000,
      "Ġpromoting": 9001,
      "ĠGreek": 9002,
      "##aya": 9003,
      "##leep": 9004,
      "Ġcompact": 9005,
      "Ġdevot": 9006,
      "ĠCreek": 9007,
      "ĠFac": 9008,
      "Ġindoor": 9009,
      "32": 9010,
      "Ġhiring": 9011,
      "##ellite": 9012,
      "ĠBE": 9013,
      "known": 9014,
      "##orous": 9015,
      "Ġtournament": 9016,
      "Ġperformances": 9017,
      "ĠBrand": 9018,
      "Ġamen": 9019,
      "##inois": 9020,
      "##inery": 9021,
      "ĠJoseph": 9022,
      "##ador": 9023,
      "##rell": 9024,
      "Ġknock": 9025,
      "##days": 9026,
      "##athan": 9027,
      "Ġutility": 9028,
      "ĠLO": 9029,
      "Ġsafely": 9030,
      "Ġcuts": 9031,
      "##pan": 9032,
      "Ġownership": 9033,
      "Ġinjured": 9034,
      "Ġhanging": 9035,
      "Ġtie": 9036,
      "##inals": 9037,
      "Ġwondering": 9038,
      "Ġpassionate": 9039,
      "##UL": 9040,
      "ĠDog": 9041,
      "Ġemotions": 9042,
      "Ġasp": 9043,
      "Ġholes": 9044,
      "Good": 9045,
      "ĠBan": 9046,
      "ĠNO": 9047,
      "ĠPut": 9048,
      "Because": 9049,
      "##urious": 9050,
      "Ġphilosophy": 9051,
      "ĠAutom": 9052,
      "Ġattitude": 9053,
      "ĠOx": 9054,
      "##âĢ²": 9055,
      "Ġtile": 9056,
      "Ġax": 9057,
      "Ġgraphic": 9058,
      "ĠCapital": 9059,
      "Ġevolution": 9060,
      "Ġcong": 9061,
      "##tery": 9062,
      "Ġspecialists": 9063,
      "Ġgram": 9064,
      "ĠMembers": 9065,
      "Ġsink": 9066,
      "Ġsemi": 9067,
      "Ġdistributed": 9068,
      "Ġprofessor": 9069,
      "ĠVegas": 9070,
      "##tical": 9071,
      "Ġpollut": 9072,
      "ĠToronto": 9073,
      "Ġemployers": 9074,
      "Ġemployed": 9075,
      "ĠViet": 9076,
[...]
