{
  "version": "1.0",
  "truncation": null,
  "padding": null,
  "added_tokens": [
    {
      "id": 0,
      "content": "<unk>",
      "single_word": false,
      "lstrip": false,
      "rstrip": false,
      "normalized": false,
      "special": true
    },
    {
      "id": 1,
      "content": "<s>",
      "single_word": false,
      "lstrip": false,
      "rstrip": false,
      "normalized": false,
      "special": true
    },
    {
      "id": 2,
      "content": "</s>",
      "single_word": false,
      "lstrip": false,
      "rstrip": false,
      "normalized": false,
      "special": true
    }
  ],
  "normalizer": {
    "type": "Sequence",
    "normalizers": [
      {
        "type": "NFKC"
      }
    ]
  },
  "pre_tokenizer": {
    "type": "Sequence",
    "pretokenizers": [
      {
        "type": "Split",
        "pattern": {
          "Regex": " "
        },
        "behavior": "MergedWithNext",
        "invert": false
      },
      {
        "type": "Split",
        "pattern": {
          "Regex": " *(\\w+|[^\\w\\s]+)"
        },
        "behavior": "Isolated",
        "invert": false
      },
      {
        "type": "ByteLevel",
        "add_prefix_space": false,
        "trim_offsets": true,
        "use_regex": false
      }
    ]
  },
  "post_processor": null,
  "decoder": {
    "type": "Sequence",
    "decoders": [
      {
        "type": "ByteLevel",
        "add_prefix_space": true,
        "trim_offsets": true,
        "use_regex": true
      }
    ]
  },
  "model": {
    "type": "BPE",
    "dropout": null,
    "unk_token": "<unk>",
    "continuing_subword_prefix": null,
    "end_of_word_suffix": null,
    "fuse_unk": true,
    "byte_fallback": false,
    "vocab": {
      "<unk>": 0,
      "<s>": 1,
      "</s>": 2,
      "!": 3,
      "\"": 4,
      "#": 5,
      "$": 6,
      "%": 7,
      "&": 8,
      "'": 9,
      "(": 10,
      ")": 11,
      "*": 12,
      "+": 13,
      ",": 14,
      "-": 15,
      ".": 16,
      "/": 17,
      "0": 18,
      "1": 19,
      "2": 20,
      "3": 21,
      "4": 22,
      "5": 23,
      "6": 24,
      "7": 25,
      "8": 26,
      "9": 27,
      ":": 28,
      ";": 29,
      "<": 30,
      "=": 31,
      ">": 32,
      "?": 33,
      "@": 34,
      "A": 35,
      "B": 36,
      "C": 37,
      "D": 38,
      "E": 39,
      "F": 40,
      "G": 41,
      "H": 42,
      "I": 43,
      "J": 44,
      "K": 45,
      "L": 46,
      "M": 47,
      "N": 48,
      "O": 49,
      "P": 50,
      "Q": 51,
      "R": 52,
      "S": 53,
      "T": 54,
      "U": 55,
      "V": 56,
      "W": 57,
      "X": 58,
      "Y": 59,
      "Z": 60,
      "[": 61,
      "\\": 62,
      "]": 63,
      "^": 64,
      "_": 65,
      "`": 66,
      "a": 67,
      "b": 68,
      "c": 69,
      "d": 70,
      "e": 71,
      "f": 72,
      "g": 73,
      "h": 74,
      "i": 75,
      "j": 76,
      "k": 77,
      "l": 78,
      "m": 79,
      "n": 80,
      "o": 81,
      "p": 82,
      "q": 83,
      "r": 84,
      "s": 85,
      "t": 86,
      "u": 87,
      "v": 88,
      "w": 89,
      "x": 90,
      "y": 91,
      "z": 92,
      "{": 93,
      "|": 94,
      "}": 95,
      "~": 96,
      "¡": 97,
      "¢": 98,
      "£": 99,
      "¤": 100,
      "¥": 101,
      "¦": 102,
      "§": 103,
      "¨": 104,
      "©": 105,
      "ª": 106,
      "«": 107,
      "¬": 108,
      "®": 109,
      "¯": 110,
      "°": 111,
      "±": 112,
      "²": 113,
      "³": 114,
      "´": 115,
      "µ": 116,
      "¶": 117,
      "·": 118,
      "¸": 119,
      "¹": 120,
      "º": 121,
      "»": 122,
      "¼": 123,
      "½": 124,
      "¾": 125,
      "¿": 126,
      "À": 127,
      "Á": 128,
      "Â": 129,
      "Ã": 130,
      "Ä": 131,
      "Å": 132,
      "Æ": 133,
      "Ç": 134,
      "È": 135,
      "É": 136,
      "Ê": 137,
      "Ë": 138,
      "Ì": 139,
      "Í": 140,
      "Î": 141,
      "Ï": 142,
      "Ð": 143,
      "Ñ": 144,
      "Ò": 145,
      "Ó": 146,
      "Ô": 147,
      "Õ": 148,
      "Ö": 149,
      "×": 150,
      "Ø": 151,
      "Ù": 152,
      "Ú": 153,
      "Û": 154,
      "Ü": 155,
      "Ý": 156,
      "Þ": 157,
      "ß": 158,
      "à": 159,
      "á": 160,
      "â": 161,
      "ã": 162,
      "ä": 163,
      "å": 164,
      "æ": 165,
      "ç": 166,
      "è": 167,
      "é": 168,
      "ê": 169,
      "ë": 170,
      "ì": 171,
      "í": 172,
      "î": 173,
      "ï": 174,
      "ð": 175,
      "ñ": 176,
      "ò": 177,
      "ó": 178,
      "ô": 179,
      "õ": 180,
      "ö": 181,
      "÷": 182,
      "ø": 183,
      "ù": 184,
      "ú": 185,
      "û": 186,
      "ü": 187,
      "ý": 188,
      "þ": 189,
      "ÿ": 190,
      "Ā": 191,
      "ā": 192,
      "Ă": 193,
      "ă": 194,
      "Ą": 195,
      "ą": 196,
      "Ć": 197,
      "ć": 198,
      "Ĉ": 199,
      "ĉ": 200,
      "Ċ": 201,
      "ċ": 202,
      "Č": 203,
      "č": 204,
      "Ď": 205,
      "ď": 206,
      "Đ": 207,
      "đ": 208,
      "Ē": 209,
      "ē": 210,
      "Ĕ": 211,
      "ĕ": 212,
      "Ė": 213,
      "ė": 214,
      "Ę": 215,
      "ę": 216,
      "Ě": 217,
      "ě": 218,
      "Ĝ": 219,
      "ĝ": 220,
      "Ğ": 221,
      "ğ": 222,
      "Ġ": 223,
      "ġ": 224,
      "Ģ": 225,
      "ģ": 226,
      "Ĥ": 227,
      "ĥ": 228,
      "Ħ": 229,
      "ħ": 230,
      "Ĩ": 231,
      "ĩ": 232,
      "Ī": 233,
      "ī": 234,
      "Ĭ": 235,
      "ĭ": 236,
      "Į": 237,
      "į": 238,
      "İ": 239,
      "ı": 240,
      "Ĳ": 241,
      "ĳ": 242,
      "Ĵ": 243,
      "ĵ": 244,
      "Ķ": 245,
      "ķ": 246,
      "ĸ": 247,
      "Ĺ": 248,
      "ĺ": 249,
      "Ļ": 250,
      "ļ": 251,
      "Ľ": 252,
      "ľ": 253,
      "Ŀ": 254,
      "ŀ": 255,
      "Ł": 256,
      "ł": 257,
      "Ń": 258,
      "Ġå": 259,
      "Ġæ": 260,
      "Ġä": 261,
      "Ġç": 262,
      "Ġè": 263,
      "Ġé": 264,
      "Ġä¸": 265,
      "Ġ,": 266,
      "ãĢ": 267,
      "ĠãĢ": 268,
      "Ġçļ": 269,
      "ĠçļĦ": 270,
      "Ġäº": 271,
      "ĠãĢĤ": 272,
      "Ġåħ": 273,
      "Ġæľ": 274,
      "Ġä»": 275,
      "Ġå¤": 276,
      "Ġåı": 277,
      "ĠåĽ": 278,
      "Ġåľ": 279,
      "ĠåĪ": 280,
      "Ġå®": 281,
      "Ġè¿": 282,
      "ĠåĲ": 283,
      "ĠåĽ½": 284,
      "ĠåĬ": 285,
      "Ġç»": 286,
      "Ġæĺ": 287,
      "Ġå¹": 288,
      "ĠãĢģ": 289,
      "Ġä½": 290,
      "Ġæĸ": 291,
      "âĢ": 292,
      "Ġä¸Ģ": 293,
      "Ġä¼": 294,
      "ĠæĹ": 295,
      "ĠçĶ": 296,
      "Ġå°": 297,
      "Ġè®": 298,
      "Ġä¹": 299,
      "ĠâĢ": 300,
      "Ġåį": 301,
      "ĠæĪ": 302,
      "Ġåľ¨": 303,
      "Ġä¸Ń": 304,
      "Ġè¯": 305,
      "ĠåĨ": 306,
      "ĠæĿ": 307,
      "ĠäºĨ": 308,
      "Ġæĺ¯": 309,
      "ĠåŃ": 310,
      "Ġäºº": 311,
      "Ġå·": 312,
      "ĠåĴ": 313,
      "Ġéĩ": 314,
      "ĠåĴĮ": 315,
      "Ġæľī": 316,
      "Ġåĩ": 317,
      "Ġå¸": 318,
      "ĠæĬ": 319,
      "Ġè¡": 320,
      "ĠæĶ": 321,
      "Ġå¤§": 322,
      "Ġå¼": 323,
      "Ġèµ": 324,
      "ĠåĮ": 325,
      "Ġåº": 326,
      "Ġå¯": 327,
      "Ġæī": 328,
      "Ġå±": 329,
      "Ġ1": 330,
      "ĠèĢ": 331,
      "Ġä¸į": 332,
      "Ġè´": 333,
      "Ġç§": 334,
      "Ġå¹´": 335,
      "Ġ0": 336,
      "Ġä¼ļ": 337,
      "Ġæ°": 338,
      "Ġä¸º": 339,
      "Ġå¾": 340,
      "Ġéĺ": 341,
      "ĠéĢ": 342,
      "Ġéĥ": 343,
      "Ġå¥": 344,
      "Ġåĳ": 345,
      "Ġåİ": 346,
      "ĠæĢ": 347,
      "Ġè§": 348,
      "ĠçĽ": 349,
      "Ġæµ": 350,
      "Ġæķ": 351,
      "Ġæł": 352,
      "ĠéĿ": 353,
      "ĠéĹ": 354,
      "Ġçİ": 355,
      "Ġåĩº": 356,
      "Ġä¸Ĭ": 357,
      "ĠåŃ¦": 358,
      "Ġçī": 359,
      "ĠæŃ": 360,
      "Ġåıĳ": 361,
      "Ġä¸ļ": 362,
      "¦ģ": 363,
      "ĠâĢľ": 364,
      "Ġå½": 365,
      "Ġå®¶": 366,
      "Ġåľ°": 367,
      "Ġå¿": 368,
      "ĠâĢĿ": 369,
      "Ġä½ľ": 370,
      "ĠéĻ": 371,
      "Ġçº": 372,
      "Ġä¸ª": 373,
      "Ġé¢": 374,
      "Ġè¡Į": 375,
      "ĠæĹ¥": 376,
      "Ġè¦ģ": 377,
      "Ġåī": 378,
      "Ġä»¥": 379,
      "ĠçĶŁ": 380,
      "Ġ2": 381,
      "ĠçĲ": 382,
      "ĠåĪ°": 383,
      "Ġèĥ": 384,
      "Ġæ²": 385,
      "Ġå¯¹": 386,
      "Ġæ³": 387,
      "Ġ9": 388,
      "Ġèĩ": 389,
      "Ġè¿Ļ": 390,
      "Ġæŀ": 391,
      "ĠæĪĲ": 392,
      "Ġç»ı": 393,
      "ĠæĹ¶": 394,
      "Ġå¤ļ": 395,
      "ĠæĿ¥": 396,
      "Ġæ¯": 397,
      "Ġå·¥": 398,
      "ĠæĮ": 399,
      "Ġéķ": 400,
      "Ġä¿": 401,
      "ĠçŃ": 402,
      "Ġä»¬": 403,
      "Ġéĥ¨": 404,
      "ĠåŁ": 405,
      "Ġæĭ": 406,
      "Ġè¿Ľ": 407,
      "Ġæİ": 408,
      "Ġç¾": 409,
      "Ġæ±": 410,
      "Ġæ´": 411,
      "Ġè¾": 412,
      "Ġä¸ĭ": 413,
      "Ġæ¬": 414,
      "ĠæĶ¿": 415,
      "Ġåħ¨": 416,
      "Ġå¸Ĥ": 417,
      "Ġäºİ": 418,
      "ĠéĺŁ": 419,
      "Ġæ°ĳ": 420,
      "Ġçľ": 421,
      "ĠåĬĽ": 422,
      "Ġæĸ¹": 423,
      "Ġç«": 424,
      "Ġç¤": 425,
      "Ġä¸»": 426,
      "Ġéķ¿": 427,
      "Ġå°±": 428,
      "ĠæĦ": 429,
      "Ġæĸ°": 430,
      "Ġ5": 431,
      "Ġçİ°": 432,
      "Ġåīį": 433,
      "Ġåĳĺ": 434,
      "Ġèĥ½": 435,
      "Ġå®ŀ": 436,
      "«ĺ": 437,
      "Ġåĵ": 438,
      "Ġæĥ": 439,
      "Ġè½": 440,
      "ĠæĪĳ": 441,
      "ĠçĲĨ": 442,
      "Ġé«ĺ": 443,
      "ĠåĲĮ": 444,
      "ĠèĢħ": 445,
      "Ġå»": 446,
      "Ġå¤©": 447,
      "Ġå§": 448,
      "ĠçĶ¨": 449,
      "Ġäº§": 450,
      "Ġèģ": 451,
      "ĠæľĪ": 452,
      "Ġåľº": 453,
      "ĠæĬ¥": 454,
      "Ġè¯´": 455,
      "Ġä»ĸ": 456,
      "Ġ3": 457,
      "Ġè°": 458,
      "Ġåħ¬": 459,
      "Ġèĩª": 460,
      "ĠåĪĨ": 461,
      "Ġæı": 462,
      "ĠåĬ¨": 463,
      "ĠåĲİ": 464,
      "Ġå±ķ": 465,
      "ĠéĽ": 466,
      "Ġç¾İ": 467,
      "Ġæ³ķ": 468,
      "Ġéĩį": 469,
      "Ġçķ": 470,
      "Ġæľ¬": 471,
      "ĠåĬł": 472,
      "Ġå°Ĩ": 473,
      "Ġéģ": 474,
      "Ġå¼Ģ": 475,
      "Ġæĸĩ": 476,
      "Ġåħ³": 477,
      "Ġä¹ĭ": 478,
      "Ġå®ļ": 479,
      "Ġä¸İ": 480,
      "ĠåĲĪ": 481,
      "ĠçŃī": 482,
      "Ġä¹Ł": 483,
      "Ġç¨": 484,
      "Ġå¾Ĺ": 485,
      "Ġè¿ĩ": 486,
      "Ġç§ĳ": 487,
      "ĠéĿ¢": 488,
      "ĠèĤ": 489,
      "Ġæľº": 490,
      "ĠåĮº": 491,
      "ĠèĢĮ": 492,
      "ĠåĿ": 493,
      "Ġèī": 494,
      "Ġ4": 495,
      "Ġå¹³": 496,
      "Ġæµİ": 497,
      "Ġæ¸": 498,
      "Ġå»º": 499,
      "Ġä½ĵ": 500,
      "Ġé¡": 501,
      "Ġç¬": 502,
      "Ġäºĭ": 503,
      "Ġä»£": 504,
      "Ġå¢": 505,
      "ĠéĹ®": 506,
      "ĠåĨħ": 507,
      "Ġ6": 508,
      "Ġä¸¤": 509,
      "ĠåĮĸ": 510,
      "Ġç¤¾": 511,
      "ĠçĿ": 512,
      "ĠèµĽ": 513,
      "ä¸": 514,
      "ĠåĪ¶": 515,
      "Ġè¡¨": 516,
      "Ġé¢ĺ": 517,
      "Ġåº¦": 518,
      "ĠæıĲ": 519,
      "Ġå°ı": 520,
      "Ġä¾": 521,
      "ĠåŃĲ": 522,
      "Ġç©": 523,
      "Ġ:": 524,
      "¥¿": 525,
      "Ġåı¯": 526,
      "Ġçł": 527,
      "ĠåĪ©": 528,
      "Ġå¥½": 529,
      "Ġé¦": 530,
      "Ġåħ¥": 531,
      "Ġå¿ĥ": 532,
      "Ġæ¬¡": 533,
      "Ġç§į": 534,
      "Ġè¥¿": 535,
      "Ġç®": 536,
      "Ġè·": 537,
      "Ġ8": 538,
      "ĠæĻ": 539,
      "Ġç½": 540,
      "Ġé£": 541,
      "Ġå§Ķ": 542,
      "Ġæľ¯": 543,
      "Ġè¶": 544,
      "ĠåĢ": 545,
      "ĠæľĢ": 546,
      "Ġæĺİ": 547,
      "ĠçŁ": 548,
      "Ġæ¯Ķ": 549,
      "³»": 550,
      "ĠãĢĬ": 551,
      "ĠãĢĭ": 552,
      "Ġåħĥ": 553,
      "ĠçĶµ": 554,
      "Ġéĥ½": 555,
      "Ġä¸ĸ": 556,
      "Ġéĩĳ": 557,
      "ĠæĢ»": 558,
      "Ġ7": 559,
      "Ġç¥": 560,
      "ĠéĤ": 561,
      "ĠæīĢ": 562,
      "ĠæĽ": 563,
      "Ġç³»": 564,
      "Ġä¸ĩ": 565,
      "Ġçī¹": 566,
      "ĠâĢĶ": 567,
      "Ġèµ·": 568,
      "ĠåĮĹ": 569,
      "Ġéļ": 570,
      "Ġåģ": 571,
      "Ġè¿ĺ": 572,
      "Ġç¬¬": 573,
      "Ġåħļ": 574,
      "ĠéĩĮ": 575,
      "Ġå¦": 576,
      "Ġåįģ": 577,
      "Ġæį": 578,
      "Ġå½ĵ": 579,
      "Ġå²": 580,
      "Ġåħ¶": 581,
      "Ġä»İ": 582,
      "ĠåĲį": 583,
      "Ġå¹¶": 584,
      "ĠèĲ": 585,
      "ĠåĬ¡": 586,
      "ĠæĬĢ": 587,
      "Ġä»»": 588,
      "ĠæĦı": 589,
      "ĠçĿĢ": 590,
      "Ġä»Ĭ": 591,
      "Ġå¤ĸ": 592,
      "ĠåĲĳ": 593,
      "Ġä¼ģ": 594,
      "ä»": 595,
      "Ġä¸ī": 596,
      "Ġæ·": 597,
      "ĠçĤ": 598,
      "Ġå¼º": 599,
      "Ġä¿Ŀ": 600,
      "Ġ;": 601,
      "ĠæķĻ": 602,
      "Ġèĭ": 603,
      "ĠäºĽ": 604,
      "Ġå·²": 605,
      "ĠèµĦ": 606,
      "ĠçĽ®": 607,
      "Ġä¹¦": 608,
      "ĠçĻ": 609,
      "ĠåĲĦ": 610,
      "Ġéĩı": 611,
      "ĠæĢ§": 612,
      "Ġåĵģ": 613,
      "Ġä½¿": 614,
      "ĠæŁ": 615,
      "Ġç»Ħ": 616,
      "Ġè®º": 617,
      "ĠçķĮ": 618,
      "ĠåĨľ": 619,
      "Ġä½į": 620,
      "Ġç²": 621,
      "Ġèį": 622,
      "ĠåŁº": 623,
      "ĠåĨ³": 624,
      "Ġç´": 625,
      "ĠåıĬ": 626,
      "Ġçģ": 627,
      "Ġæĸ¯": 628,
      "ĠåĨĽ": 629,
      "Ġç«ĭ": 630,
      "Ġé©": 631,
      "Ġè®°": 632,
      "Ġå£": 633,
      "Ġå®ī": 634,
      "Ġç»Ł": 635,
      "Ġå¹²": 636,
      "ĠéĻħ": 637,
      "ĠæľŁ": 638,
      "Ġè®¾": 639,
      "ĠæŃ£": 640,
      "Ġç¡": 641,
      "Ġé¢Ĩ": 642,
      "Ġè®®": 643,
      "ĠæĪĺ": 644,
      "ĠéĢļ": 645,
      "ĠçłĶ": 646,
      "Ġäº¬": 647,
      "è¿": 648,
      "Ġæ°´": 649,
      "Ġæµ·": 650,
      "Ġéģĵ": 651,
      "Ġåºľ": 652,
      "Ġä¸¾": 653,
      "ĠçĲĥ": 654,
      "Ġ.": 655,
      "Ġè¢": 656,
      "Ġåįİ": 657,
      "ĠéĹ¨": 658,
      "Ġåħĭ": 659,
      "ĠèģĶ": 660,
      "ĠéĶ": 661,
      "ĠåºĶ": 662,
      "ĠèĪ": 663,
      "Ġæ´»": 664,
      "Ġäºļ": 665,
      "ĠæĶ¹": 666,
      "Ġçī©": 667,
      "Ġæ¶": 668,
      "ĠæĹł": 669,
      "Ġå¯¼": 670,
      "ĠåİŁ": 671,
      "ĠÂ": 672,
      "ĠéĹ´": 673,
      "ĠæĮģ": 674,
      "Ġ(": 675,
      "Ġ)": 676,
      "ĠçĶ±": 677,
      "ĠæŃ¤": 678,
      "ĠåĽł": 679,
      "Ġè®¡": 680,
      "Ġåİ»": 681,
      "Ġç±": 682,
      "Ġå¦Ĥ": 683,
      "Ġåı¸": 684,
      "Ġè¾¾": 685,
      "Ġè¿ĳ": 686,
      "Ġæĥħ": 687,
      "Ġè´¨": 688,
      "Ġèİ": 689,
      "Ġéľ": 690,
      "ĠäºĮ": 691,
      "Ġå±Ģ": 692,
      "Ġè§£": 693,
      "Ġç¨ĭ": 694,
      "ĠçĤ¹": 695,
      "Ġæģ": 696,
      "Ġå¤Ħ": 697,
      "æľ": 698,
      "ĠåħĪ": 699,
      "ĠæĿĳ": 700,
      "Ġå¢ŀ": 701,
      "ĠèĬ": 702,
      "Ġéĵ": 703,
      "ĠåįĹ": 704,
      "ĠèģĮ": 705,
      "ĠèĤ²": 706,
      "ĠåĬŀ": 707,
      "ĠçĦ": 708,
      "ĠåıĤ": 709,
      "Ġæ²»": 710,
      "ĠéĴ": 711,
      "Ġè®¤": 712,
      "Ġè§Ĥ": 713,
      "Ġè¢«": 714,
      "Ġåħ±": 715,
      "ĠéĢī": 716,
      "Ġäº¤": 717,
      "Ġæĥ³": 718,
      "ĠéĽĨ": 719,
      "Ġé£İ": 720,
      "Ġç¼": 721,
      "Ġçĥ": 722,
      "Ġç»ĵ": 723,
      "Ġæīĭ": 724,
      "Ġå¥³": 725,
      "ĠæĬĬ": 726,
      "Ġæ¡": 727,
      "Ġç©¶": 728,
      "Ġç®¡": 729,
      "ĠåıĹ": 730,
      "Ġæ±Ĥ": 731,
      "Ġè°ĥ": 732,
      "ĠæĽ´": 733,
      "Ġå°ĳ": 734,
      "Ġæ²¡": 735,
      "ĠåĽ¢": 736,
      "ĠéĿ©": 737,
      "Ġé©¬": 738,
      "Ġéħ": 739,
      "Ġåıª": 740,
      "Ġæķ°": 741,
      "Ġæŀľ": 742,
      "ĠæĮĩ": 743,
      "Ġè½¦": 744,
      "ĠæĶ¶": 745,
      "Ġç²¾": 746,
      "è¿Ļ": 747,
      "Ġä¹ī": 748,
      "Ġå¸¸": 749,
      "ĠéĢł": 750,
      "Ġåķ": 751,
      "ĠèĢģ": 752,
      "Ġæĭī": 753,
      "ĠçĦ¶": 754,
      "Ġä»¶": 755,
      "Ġåıĸ": 756,
      "ĠåĪĽ": 757,
      "Ġå°Ķ": 758,
      "Ġå±±": 759,
      "Ġä¿¡": 760,
      "Ġçľĭ": 761,
      "åľ": 762,
      "ĠåĽĽ": 763,
      "Ġè¯Ĩ": 764,
      "Ġå½¢": 765,
      "Ġæ»": 766,
      "Ġå¼ł": 767,
      "åľ¨": 768,
      "ĠçĽ¸": 769,
      "ĠæŀĹ": 770,
      "Ġéļ¾": 771,
      "Ġæ·±": 772,
      "Ġæ£": 773,
      "Ġä¸ĵ": 774,
      "ĠåĪ«": 775,
      "Ġä½Ĩ": 776,
      "ĠæĶ¯": 777,
      "Ġå¼ı": 778,
      "Ġæł·": 779,
      "ĠåŁİ": 780,
      "ĠçŁ¥": 781,
      "Ġåıĺ": 782,
      "Ġæłĩ": 783,
      "Ġè½¬": 784,
      "Ġæ®": 785,
      "Ġç»ĩ": 786,
      "ĠæĢĿ": 787,
      "Ġæł¡": 788,
      "ĠéĿŀ": 789,
      "Ġæİ¥": 790,
      "Ġè±": 791,
      "Ġæ°Ķ": 792,
      "Ġæµģ": 793,
      "Ġé¦ĸ": 794,
      "Ġè·¯": 795,
      "ĠäºĶ": 796,
      "Ġç»Ļ": 797,
      "Ġåĩł": 798,
      "Ġçº§": 799,
      "ä»ĸ": 800,
      "Ġèº": 801,
      "Ġå·±": 802,
      "ĠæŃ¥": 803,
      "ĠéĤ£": 804,
      "Ġè£": 805,
      "Ġé»": 806,
      "Ġä¸ľ": 807,
      "Ġåı²": 808,
      "Ġåį°": 809,
      "ĠçĻ¾": 810,
      "Ġåĸ": 811,
      "Ġåı£": 812,
      "Ġä¼Ĺ": 813,
      "ĠçľŁ": 814,
      "ĠåĽ¾": 815,
      "Ġåįı": 816,
      "Ġè§Ħ": 817,
      "Ġå½±": 818,
      "Ġçľģ": 819,
      "ĠÂ°": 820,
      "Ġéª": 821,
      "Ġæĸ½": 822,
      "Ġè¯Ŀ": 823,
      "ĠéĻ¢": 824,
      "ĠèĲ¥": 825,
      "ĠåķĨ": 826,
      "Ġèº«": 827,
      "Ġ%": 828,
      "Ġåıį": 829,
      "ĠåİĨ": 830,
      "Ġç¾¤": 831,
      "Ġé¡¹": 832,
      "ĠçĪ": 833,
      "ĠåıĪ": 834,
      "Ġå±Ĭ": 835,
      "Ġå¾Ī": 836,
      "ĠæĬķ": 837,
      "Ġè§ģ": 838,
      "Ġå¿Ĺ": 839,
      "Ġèĩ³": 840,
      "Ġç¤º": 841,
      "Ġæ¼": 842,
      "Ġæĳ": 843,
      "ĠèĮ": 844,
      "ĠåĨį": 845,
      "Ġç§¯": 846,
      "Ġåī¯": 847,
      "Ġç¥ŀ": 848,
      "Ġä¹¡": 849,
      "Ġå·´": 850,
      "Ġåİ¿": 851,
      "Ġçºª": 852,
      "ĠæĦŁ": 853,
      "ĠåĦ": 854,
      "Ġçĸ": 855,
      "ĠåĽŀ": 856,
      "Ġè¿Ĳ": 857,
      "Ġè®¿": 858,
      "ĠæĿ¡": 859,
      "Ġå²Ĺ": 860,
      "ĠçĹ": 861,
      "Ġæľį": 862,
      "ĠæĶ¾": 863,
      "Ġè´¹": 864,
      "æľ¬": 865,
      "Ġåŀ": 866,
      "Ġå¹¿": 867,
      "Ġæŀģ": 868,
      "Ġæİ¨": 869,
      "ĠåĦ¿": 870,
      "Ġèŀ": 871,
      "ĠéŁ": 872,
      "Ġå°¼": 873,
      "Ġå¸ĥ": 874,
      "Ġåĳ½": 875,
      "Ġèīº": 876,
      "Ġåģļ": 877,
      "Ġæ±Ł": 878,
      "Ġèī²": 879,
      "Ġç¡®": 880,
      "ĠèĦ": 881,
      "Ġå¤´": 882,
      "Ġè¶³": 883,
      "Ġè±¡": 884,
      "Ġåħ·": 885,
      "Ġä»·": 886,
      "ĠåĪĻ": 887,
      "Ġä¹ł": 888,
      "Ġè¯¥": 889,
      "Ġè§Ĩ": 890,
      "ĠçīĪ": 891,
      "Ġèŀį": 892,
      "Ġå¸Ń": 893,
      "Ġçİ¯": 894,
      "ĠéľĢ": 895,
      "ĠåĬ¿": 896,
      "Ġæį®": 897,
      "Ġçı": 898,
      "Ġå¤ĩ": 899,
      "Ġä¼ł": 900,
      "Ġåħī": 901,
      "ĠåĨµ": 902,
      "Ġéĩĩ": 903,
      "Ġå¥¹": 904,
      "Ġæł¼": 905,
      "Ġä¾Ľ": 906,
      "Ġçª": 907,
      "ĠçĮ": 908,
      "Ġäºī": 909,
      "Ġæīį": 910,
      "Ġåĳ¨": 911,
      "ĠçĽĬ": 912,
      "Ġè°Ī": 913,
      "Ġå¡": 914,
      "Ġæº": 915,
      "ĠçĬ": 916,
      "Ġä»ħ": 917,
      "Ġå¤±": 918,
      "ĠæĹı": 919,
      "Ġåįķ": 920,
      "Ġèµ°": 921,
      "ĠçŃĸ": 922,
      "Ġç¦": 923,
      "ĠæķĪ": 924,
      "Ġæł¸": 925,
      "Ġçº¦": 926,
      "Ġæ´²": 927,
      "åħ": 928,
      "Ġä¸¥": 929,
      "Ġæīĵ": 930,
      "ĠæŀĦ": 931,
      "Ġæ¯ı": 932,
      "Ġèİ·": 933,
      "æį": 934,
      "Ġ/": 935,
      "Ġå¨": 936,
      "Ġæł¹": 937,
      "ĠæŃ¦": 938,
      "Ġåħ»": 939,
      "Ġç»Ń": 940,
      "ĠæĪĸ": 941,
      "Ġè¯Ħ": 942,
      "ĠåĮħ": 943,
      "Ġç©º": 944,
      "ĠæŁ¥": 945,
      "Ġçģ«": 946,
      "Ġæ¹": 947,
      "Ġç¯": 948,
      "Ġçĭ": 949,
      "Ġåıĭ": 950,
      "Ġä½ķ": 951,
      "Ġè¯ģ": 952,
      "ĠåĩĨ": 953,
      "ĠåĳĬ": 954,
      "Ġåĵį": 955,
      "Ġå¢ĥ": 956,
      "æį®": 957,
      "ĠæĺŁ": 958,
      "ĠæĿĥ": 959,
      "Ġçİĩ": 960,
      "Ġç±³": 961,
      "Ġéĵ¶": 962,
      "ĠåĶ": 963,
      "ĠæľĽ": 964,
      "Ġåı°": 965,
      "Ġå®Į": 966,
      "ĠåĬŁ": 967,
      "ĠæĸŃ": 968,
      "Ġè®©": 969,
      "ĠæĿ¯": 970,
      "Ġå¯Į": 971,
      "Ġå¾·": 972,
      "ĠéĢŁ": 973,
      "Ġèĭ±": 974,
      "Ġèĳ": 975,
      "ĠåĽ°": 976,
      "ĠçĽ´": 977,
      "ĠéĿĴ": 978,
      "Ġçİĭ": 979,
      "Ġçīĩ": 980,
      "ĠåĿļ": 981,
      "Ġå¤®": 982,
      "Ġå®ĥ": 983,
      "Ġä¼ĺ": 984,
      "Ġå¸¦": 985,
      "Ġè´£": 986,
      "Ġéĺ²": 987,
      "Ġæķ´": 988,
      "Ġè¾ĥ": 989,
      "Ġç´ł": 990,
      "ĠèĻ": 991,
      "Ġåħ°": 992,
      "ĠåıĮ": 993,
      "ĠåĪĹ": 994,
      "Ġæĺĵ": 995,
      "ĠçĶ»": 996,
      "Ġåį³": 997,
      "Ġå£«": 998,
      "ä½": 999,
      "åĽ": 1000,
      "ĠæĴ": 1001,
      "Ġçħ": 1002,
      "ĠåĪĴ": 1003,
      "Ġè®¯": 1004,
      "Ġæģ¯": 1005,
      "Ń¦": 1006,
      "ĠåĬ©": 1007,
      "Ġå¿«": 1008,
      "Ġæ²³": 1009,
      "ĠéĽ¨": 1010,
      "Ġè¿ľ": 1011,
      "Ġè¿ŀ": 1012,
      "ĠæĿİ": 1013,
      "Ġå¼ķ": 1014,
      "ĠåİĤ": 1015,
      "Ġéķĩ": 1016,
      "Ġè¾¹": 1017,
      "Ġç½Ĺ": 1018,
      "Ġæ¶Ī": 1019,
      "ĠçĥŃ": 1020,
      "Ġåŀĭ": 1021,
      "ĠåĻ": 1022,
      "ĠåĿĩ": 1023,
      "Ġæ¸ħ": 1024,
      "¨Ģ": 1025,
      "Ġè¨Ģ": 1026,
      "Ġäº¿": 1027,
      "Ġå®¢": 1028,
      "Ġè´¸": 1029,
      "ĠéĻ©": 1030,
      "Ġçº¿": 1031,
      "Ġæ¸¯": 1032,
      "Ġç±»": 1033,
      "Ġè£ħ": 1034,
      "ĠæºĲ": 1035,
      "ĠæĲ": 1036,
      "Ġåħ´": 1037,
      "Ġå·ŀ": 1038,
      "ĠåĢ¼": 1039,
      "ĠéªĮ": 1040,
      "ĠçĹħ": 1041,
      "åı": 1042,
      "Ġæ¨": 1043,
      "ĠæĢģ": 1044,
      "Ġå¿ħ": 1045,
      "Ġèĩ´": 1046,
      "Ġäºĳ": 1047,
      "Ġå¤į": 1048,
      "Ġå®¹": 1049,
      "Ġä¹Ī": 1050,
      "Ġåįĥ": 1051,
      "Ġéĺ¿": 1052,
      "Ġç¥¨": 1053,
      "ĠåĻ¨": 1054,
      "Ġæ½": 1055,
      "Ġé¾": 1056,
      "Ġå®£": 1057,
      "Ġè®¸": 1058,
      "ĠåĮ»": 1059,
      "Ġå¾Ģ": 1060,
      "ĠåŁ¹": 1061,
      "Ġå§ĭ": 1062,
      "Ġç¨³": 1063,
      "Ġè¶Ĭ": 1064,
      "ĠèĬ±": 1065,
      "Ġæ®µ": 1066,
      "ĠçĪ±": 1067,
      "æĪ": 1068,
      "Ĺı": 1069,
      "Ġå¤ª": 1070,
      "Ġåį«": 1071,
      "ĠåŃĺ": 1072,
      "ĠæĬ¤": 1073,
      "Ġæī¹": 1074,
      "Ġè´Ł": 1075,
      "ä¸Ń": 1076,
      "Ġé¦Ļ": 1077,
      "Ġèį¯": 1078,
      "Ġå£°": 1079,
      "Ġæ»¡": 1080,
      "ĠæĤ": 1081,
      "Ġæħ": 1082,
      "Ġèı": 1083,
      "ĠèŃ¦": 1084,
      "Ġç»Ī": 1085,
      "Ġè®²": 1086,
      "Ġåįł": 1087,
      "Ġå¿µ": 1088,
      "ĠéĻį": 1089,
      "Ġä¾¿": 1090,
      "Ġé¦Ĩ": 1091,
      "ĠèĲ½": 1092,
      "Ġç¡Ģ": 1093,
      "Ġåĭ": 1094,
      "ĠåĪĩ": 1095,
      "Ġè´¢": 1096,
      "Ġå¥ĸ": 1097,
      "ĠæİĴ": 1098,
      "ĠèĮĥ": 1099,
      "ĠçĮ®": 1100,
      "Ġåĥ": 1101,
      "Ġå¤«": 1102,
      "Ġå¸Į": 1103,
      "Ġéĺ³": 1104,
      "Ġæĭħ": 1105,
      "Ġæ¼Ķ": 1106,
      "Ġæľª": 1107,
      "Ġç»´": 1108,
      "Ġæĺ¾": 1109,
      "âĢĿ": 1110,
      "Ġè¯ķ": 1111,
      "Ġæĭ¬": 1112,
      "Ġç®Ĺ": 1113,
      "Ġéħį": 1114,
      "Ġå¨ģ": 1115,
      "Ġé²": 1116,
      "ĠåĽ´": 1117,
      "Ġä½İ": 1118,
      "ĠæĸĻ": 1119,
      "Ġè®Ń": 1120,
      "Ġåį±": 1121,
      "ĠæĪ·": 1122,
      "ĠèĢĥ": 1123,
      "ĠåŁŁ": 1124,
      "ĠæĦ¿": 1125,
      "ĠçŁ³": 1126,
      "ĠÂ·": 1127,
      "Ġæ¢": 1128,
      "ĠèĹı": 1129,
      "Ġé¥": 1130,
      "Ġå¸Ī": 1131,
      "Ġéĺ¶": 1132,
      "ĠæŃ¢": 1133,
      "Ġæ¬§": 1134,
      "Ġç«¥": 1135,
      "ä¸Ģ": 1136,
      "ĠçıŃ": 1137,
      "ĠçĬ¶": 1138,
      "..": 1139,
      "Ġä¸Ķ": 1140,
      "Ġäº²": 1141,
      "Ġåº§": 1142,
      "Ġç§°": 1143,
      "Ġèĥľ": 1144,
      "Ġæ¬¾": 1145,
      "ĠæĻ®": 1146,
      "Ġ...": 1147,
      "ĠåĸĦ": 1148,
      "Ġæ¿": 1149,
      "Ġåħ«": 1150,
      "Ġä½ı": 1151,
      "Ġä¹Ĳ": 1152,
      "ĠåŃĹ": 1153,
      "Ġåĩ»": 1154,
      "Ġæī§": 1155,
      "Ġæķĳ": 1156,
      "Ġçº¢": 1157,
      "Ġé¢Ħ": 1158,
      "Ġæ²¹": 1159,
      "Ġæ±ī": 1160,
      "ĠèĬĤ": 1161,
      "Ġæ¡Ī": 1162,
      "Ġæ¾": 1163,
      "ĠåħŃ": 1164,
      "ĠåĬª": 1165,
      "ĠåįĬ": 1166,
      "Ġçº·": 1167,
      "Ġç«ŀ": 1168,
      "ĠåĢĻ": 1169,
      "Ġçªģ": 1170,
      "Ġå¤Ł": 1171,
      "Ġç»§": 1172,
      "Ġç»ĥ": 1173,
      "Ġåĩı": 1174,
      "ĠéĢģ": 1175,
      "Ġç¨İ": 1176,
      "Ġé¡¿": 1177,
      "Ġçł´": 1178,
      "æĪĳ": 1179,
      "Ġåł": 1180,
      "Ġèħ": 1181,
      "Ġä»į": 1182,
      "Ġè¯»": 1183,
      "ĠåŃ©": 1184,
      "Ġå±ħ": 1185,
      "Ġå¾ĭ": 1186,
      "Ġæłĳ": 1187,
      "ĠèĤ¡": 1188,
      "Ġé£Ł": 1189,
      "ĠçĻ½": 1190,
      "Ġçħ§": 1191,
      "Ġæ¨¡": 1192,
      "Ġä»¤": 1193,
      "ĠåĬ³": 1194,
      "Ġä½Ļ": 1195,
      "Ġä¼Ĭ": 1196,
      "ĠæĹ©": 1197,
      "Ġè®¨": 1198,
      "Ġä¹Ŀ": 1199,
      "Ġè´«": 1200,
      "Ġæ³¨": 1201,
      "ĠçķĻ": 1202,
      "Ġå²ģ": 1203,
      "Ġçģ¾": 1204,
      "Ġåĥı": 1205,
      "Ġæ¾³": 1206,
      "Ġæļ": 1207,
      "Ġçĵ": 1208,
      "Ġéº": 1209,
      "ĠåĪĿ": 1210,
      "ĠåįĪ": 1211,
      "ĠæĪ¿": 1212,
      "ĠåĨ²": 1213,
      "Ġå±Ĥ": 1214,
      "ĠçĽĳ": 1215,
      "ĠæĮī": 1216,
      "Ġåĵ¥": 1217,
      "Ġæ¿Ģ": 1218,
      "Ġä¸´": 1219,
      "Ġåı¤": 1220,
      "Ġå®ĺ": 1221,
      "Ġè¯¾": 1222,
      "Ġåī§": 1223,
      "Ġé£ŀ": 1224,
      "äº": 1225,
      "æĸ": 1226,
      "æŃ": 1227,
      "Ġæī©": 1228,
      "Ġçº³": 1229,
      "Ġæ¯Ĵ": 1230,
      "Ġä¿ĥ": 1231,
      "Ġçľ¼": 1232,
      "Ġèī¯": 1233,
      "Ġæ¸¸": 1234,
      "Ġé¡¾": 1235,
      "ä¸º": 1236,
      "Ġç´§": 1237,
      "ĠéĴ±": 1238,
      "ä½Ĩ": 1239,
      "Ġåı·": 1240,
      "ĠçĶ°": 1241,
      "Ġå°½": 1242,
      "Ġæī¿": 1243,
      "ĠéĿł": 1244,
      "ĠéĻ¤": 1245,
      "Ġä¾Ŀ": 1246,
      "Ġç½ĳ": 1247,
      "Ġèįī": 1248,
      "Ġæ£Ģ": 1249,
      "Ġé»Ħ": 1250,
      "Ġé»ĳ": 1251,
      "å½": 1252,
      "åĲ": 1253,
      "Ġ?": 1254,
      "ĠèĴ": 1255,
      "Ġä»ĭ": 1256,
      "Ġå®Ī": 1257,
      "Ġä¹°": 1258,
      "Ġå¾ħ": 1259,
      "Ġæİª": 1260,
      "Ġæ±ĩ": 1261,
      "Ġæ´¾": 1262,
      "Ġèĭ¦": 1263,
      "ĠéŁ©": 1264,
      "Ġç¦»": 1265,
      "çĶ": 1266,
      "Ġç¢": 1267,
      "Ġç¦ģ": 1268,
      "Ġé¼": 1269,
      "ĠåľŁ": 1270,
      "Ġç»į": 1271,
      "âĢľ": 1272,
      "Ġåį¡": 1273,
      "ĠåĨĻ": 1274,
      "Ġå·®": 1275,
      "Ġåº·": 1276,
      "Ġç§Ģ": 1277,
      "Ġå¥ĩ": 1278,
      "Ġéģĩ": 1279,
      "Ġæ¸©": 1280,
      "ĠæĻº": 1281,
      "Ġç½®": 1282,
      "Ġèĭı": 1283,
      "ĠæŁĵ": 1284,
      "Ġç´¢": 1285,
      "ĠéĶĢ": 1286,
      "ĠåĤ": 1287,
      "Ġæ¤": 1288,
      "Ġåħħ": 1289,
      "Ġä»½": 1290,
      "Ġè¯·": 1291,
      "Ġåºķ": 1292,
      "Ġè§ī": 1293,
      "ĠçĽŁ": 1294,
      "Ġä¿Ħ": 1295,
      "Ġå»¶": 1296,
      "ĠæĻ¯": 1297,
      "Ġè¶ħ": 1298,
      "Ġåģ¥": 1299,
      "ĠèĪª": 1300,
      "ĠçĥĪ": 1301,
      "ĠéŁ³": 1302,
      "æĹ": 1303,
      "Ġåħį": 1304,
      "Ġä»Ģ": 1305,
      "Ġè¿İ": 1306,
      "ĠæĹħ": 1307,
      "Ġè¯Ń": 1308,
      "Ġè´§": 1309,
      "Ġæķħ": 1310,
      "ĠåĿ¦": 1311,
      "ĠéĤĵ": 1312,
      "ĠæĽ¾": 1313,
      "ä»Ĭ": 1314,
      "Ġéĵģ": 1315,
      "Ġçĭ¬": 1316,
      "ĠèĳĹ": 1317,
      "Ġé¾Ļ": 1318,
      "å½ĵ": 1319,
      "Ġç¿": 1320,
      "Ġçĳ": 1321,
      "ĠåĪ»": 1322,
      "ĠåĪĺ": 1323,
      "Ġåį´": 1324,
      "ĠåºĨ": 1325,
      "ĠéĢĤ": 1326,
      "Ġæ±¡": 1327,
      "Ġæį¢": 1328,
      "ĠæŁĲ": 1329,
      "çİ": 1330,
      "ĠD": 1331,
      "ĠåĪļ": 1332,
      "Ġå®³": 1333,
      "Ġå¹ħ": 1334,
      "Ġä¹±": 1335,
      "Ġå¾ģ": 1336,
      "Ġæµĭ": 1337,
      "Ġé¢Ŀ": 1338,
      "ĠæĮ¥": 1339,
      "Ġæĭ¿": 1340,
      "Ġæ¬¢": 1341,
      "Ġç«ł": 1342,
      "Ġé¡»": 1343,
      "Ġä¾ĭ": 1344,
      "ä»İ": 1345,
      "ç¾": 1346,
      "çĽ": 1347,
      "Ġ!": 1348,
      "Ġæ¥": 1349,
      "Ġå®Ŀ": 1350,
      "ĠåĲ¦": 1351,
      "ĠåĲ¬": 1352,
      "Ġç»©": 1353,
      "ĠæĸĹ": 1354,
      "Ġä¹ħ": 1355,
      "Ġåįļ": 1356,
      "Ġæ°¸": 1357,
      "Ġå½©": 1358,
      "ĠéĻĲ": 1359,
      "Ġæ²Ļ": 1360,
      "Ġè½»": 1361,
      "Ġçķ¥": 1362,
      "ĠéĴĪ": 1363,
      "ĠéħĴ": 1364,
      "Ġå¡Ķ": 1365,
      "¦Ĥ": 1366,
      "å¤": 1367,
      "Ġå³": 1368,
      "Ġä¸ĥ": 1369,
      "ĠåĽº": 1370,
      "ĠåĬ±": 1371,
      "ĠæĬĵ": 1372,
      "Ġè¡Ģ": 1373,
      "Ġå¯Ł": 1374,
      "Ġéĺµ": 1375,
      "ĠéĹ»": 1376,
      "Ġå½Ĵ": 1377,
      "Ġæ³¢": 1378,
      "Ġæ³½": 1379,
      "ĠæİĪ": 1380,
      "æľī": 1381,
      "Ġç¼ĸ": 1382,
      "Ġæ£ĭ": 1383,
      "åħ¶": 1384,
      "Ġé¼ĵ": 1385,
      "Ġæ¤į": 1386,
      "å®": 1387,
      "è¯": 1388,
      "ĠãĢı": 1389,
      "Ġè¿·": 1390,
      "Ġç»Ĩ": 1391,
      "Ġå°¤": 1392,
      "Ġå¯Ĩ": 1393,
      "Ġè´¥": 1394,
      "Ġç«Ļ": 1395,
      "Ġåģľ": 1396,
      "ĠèĦĳ": 1397,
      "Ġç¦ı": 1398,
      "Ġæ¹ĸ": 1399,
      "Ġç¯ĩ": 1400,
      "Ġé²ľ": 1401,
      "æĸ°": 1402,
      "åĪ": 1403,
      "ç»": 1404,
      "Ġé¸": 1405,
      "Ġçļ®": 1406,
      "Ġç»Ŀ": 1407,
      "Ġä¼¤": 1408,
      "Ġå°Ħ": 1409,
      "ĠæĿĤ": 1410,
      "ĠæĿŁ": 1411,
      "Ġå±ŀ": 1412,
      "Ġè´Ń": 1413,
      "ĠéĢĲ": 1414,
      "Ġåİĭ": 1415,
      "Ġå½ķ": 1416,
      "Ġä¿®": 1417,
      "ĠçŃ¾": 1418,
      "ĠåŁĥ": 1419,
      "Ġè½®": 1420,
      "ĠæĻļ": 1421,
      "ĠèĪŀ": 1422,
      "Ġæ½®": 1423,
      "çĶ±": 1424,
      "æĿ": 1425,
      "ĠC": 1426,
      "Ġâ": 1427,
      "ĠãĢİ": 1428,
      "ĠäºĪ": 1429,
      "ĠäºĴ": 1430,
      "Ġåħ¼": 1431,
      "ĠåĪĬ": 1432,
      "ĠåĲ¸": 1433,
      "Ġæĺ¥": 1434,
      "Ġå°ģ": 1435,
      "Ġåįĩ": 1436,
      "ĠæĿĲ": 1437,
      "Ġå¸ģ": 1438,
      "ĠåºĹ": 1439,
      "Ġå¥ĭ": 1440,
      "Ġæķ£": 1441,
      "ĠéĻĪ": 1442,
      "ĠæĭĽ": 1443,
      "Ġæİ§": 1444,
      "ĠçĿ£": 1445,
      "ĠæĻ´": 1446,
      "Ġéļı": 1447,
      "ĠçĻ»": 1448,
      "Ġç¯®": 1449,
      "ĠåłĤ": 1450,
      "ç¾İ": 1451,
      "Ġé¹": 1452,
      "ĠéŃ": 1453,
      "Ġä¸°": 1454,
      "ĠåĲĥ": 1455,
      "ĠåĲī": 1456,
      "Ġå¸®": 1457,
      "ĠæĶ»": 1458,
      "Ġå¥¥": 1459,
      "Ġåİļ": 1460,
      "Ġæ´ĭ": 1461,
      "ĠéĽ·": 1462,
      "Ġç¬Ķ": 1463,
      "Ġæ¡¥": 1464,
      "åĽł": 1465,
      "çĽ®": 1466,
      "å°": 1467,
      "åĮ": 1468,
      "èĢ": 1469,
      "Ġä¸½": 1470,
      "Ġåħµ": 1471,
      "ĠåĪ¤": 1472,
      "Ġå®ģ": 1473,
      "Ġè¿Ŀ": 1474,
      "ĠæĹ¢": 1475,
      "Ġå°ļ": 1476,
      "ĠåºŃ": 1477,
      "ĠæĢĢ": 1478,
      "Ġå½»": 1479,
      "Ġèĥ¡": 1480,
      "Ġæ¯ķ": 1481,
      "Ġæ´Ľ": 1482,
      "ĠéģĹ": 1483,
      "Ġç½ª": 1484,
      "Ġç¥ĸ": 1485,
      "ĠèĪ¹": 1486,
      "ĠçĬ¯": 1487,
      "ĠèĻ½": 1488,
      "ĠæĲŀ": 1489,
      "Ġçĵ¦": 1490,
      "å¯": 1491,
      "åį": 1492,
      "Ī¶": 1493,
      "ĠåĲ¯": 1494,
      "Ġå¹ķ": 1495,
      "Ġä½ł": 1496,
      "Ġä¼¼": 1497,
      "ĠçĶ·": 1498,
      "ĠçĶļ": 1499,
      "Ġè¯º": 1500,
      "Ġè¡¥": 1501,
      "Ġæī¾": 1502,
      "Ġè´¯": 1503,
      "Ġè§Ĵ": 1504,
      "Ġæ³°": 1505,
      "Ġæ¯ģ": 1506,
      "Ġæ¯į": 1507,
      "Ġå²¸": 1508,
      "Ġèį£": 1509,
      "Ġç¼º": 1510,
      "åĽ½": 1511,
      "Ġéº¦": 1512,
      "Ġçĳŀ": 1513,
      "çİ°": 1514,
      "ĠâĪ¶": 1515,
      "åİ": 1516,
      "ĠA": 1517,
      "ĠE": 1518,
      "Ġåħ¸": 1519,
      "Ġæľ¨": 1520,
      "Ġä»ĺ": 1521,
      "Ġæĺł": 1522,
      "Ġä¼į": 1523,
      "ĠåĨł": 1524,
      "Ġè´¡": 1525,
      "Ġå¾Ħ": 1526,
      "ĠçīĻ": 1527,
      "Ġèĥģ": 1528,
      "Ġå¢¨": 1529,
      "Ġè·Į": 1530,
      "ĠåĢº": 1531,
      "ĠåĢĴ": 1532,
      "ĠéĶ¦": 1533,
      "ĠèĪ¬": 1534,
      "Ġèİ«": 1535,
      "Ġåĸľ": 1536,
      "Ġçĸ¾": 1537,
      "ĠåĶ®": 1538,
      "å¯¹": 1539,
      "¹ģ": 1540,
      "åĨ": 1541,
      "æī": 1542,
      "Ġå´": 1543,
      "Ġç¹ģ": 1544,
      "Ġäº©": 1545,
      "Ġå¤ľ": 1546,
      "Ġè¿ħ": 1547,
      "ĠåŃ£": 1548,
      "Ġå¼¹": 1549,
      "ĠçĽĽ": 1550,
      "Ġèī¾": 1551,
      "ĠæįŁ": 1552,
      "Ġèĭ¥": 1553,
      "Ġè£ģ": 1554,
      "æŃ¤": 1555,
      "ç¬": 1556,
      "Ġåı¬": 1557,
      "Ġå®¡": 1558,
      "Ġå®¤": 1559,
      "Ġè¿°": 1560,
      "Ġç»¼": 1561,
      "Ġç»¿": 1562,
      "Ġä¼Ł": 1563,
      "ĠåĨĮ": 1564,
      "ĠæĿ¾": 1565,
      "Ġå·¨": 1566,
      "ĠæĬĹ": 1567,
      "Ġè¡Ĺ": 1568,
      "Ġèµŀ": 1569,
      "Ġè´µ": 1570,
      "Ġç§ģ": 1571,
      "Ġå¾®": 1572,
      "ĠéĻĦ": 1573,
      "Ġçº¸": 1574,
      "ĠéĽĦ": 1575,
      "ĠèĲ¨": 1576,
      "Ġç²®": 1577,
      "Ġæ¶ī": 1578,
      "ĠéĴŁ": 1579,
      "ĠçĸĹ": 1580,
      "ĠçĹĽ": 1581,
      "Ġèıľ": 1582,
      "è¯¥": 1583,
      "æĬ": 1584,
      "Ġå«": 1585,
      "Ġçĩ": 1586,
      "Ġä¸¹": 1587,
      "Ġäº¡": 1588,
      "ĠåĨ·": 1589,
      "ĠæĿľ": 1590,
      "Ġæī¬": 1591,
      "Ġè´·": 1592,
      "Ġå¥Ĺ": 1593,
      "Ġåĳ³": 1594,
      "Ġåĳ¼": 1595,
      "Ġè§Ī": 1596,
      "Ġçİī": 1597,
      "ĠæŃ»": 1598,
      "ĠæĮĳ": 1599,
      "ĠçŃ¹": 1600,
      "Ġæ±½": 1601,
      "Ġæ´¥": 1602,
      "Ġè¾ĵ": 1603,
      "Ġè½¯": 1604,
      "Ġç½²": 1605,
      "ĠçŁŃ": 1606,
      "Ġå¦ĩ": 1607,
      "ĠéĶ®": 1608,
      "Ġèİ±": 1609,
      "Ġæ£®": 1610,
      "Ġé²ģ": 1611,
      "ĠèĴĻ": 1612,
      "èĢĮ": 1613,
      "ç¬¬": 1614,
      "±¼": 1615,
      "ä¼": 1616,
      "å¸": 1617,
      "æ¯": 1618,
      "æĺ": 1619,
      "Ġå©": 1620,
      "ĠçĨ": 1621,
      "Ġèĵ": 1622,
      "Ġé±¼": 1623,
      "Ġä»ª": 1624,
      "Ġå¤ı": 1625,
      "Ġä¼¯": 1626,
      "Ġä¼´": 1627,
      "Ġå·Ŀ": 1628,
      "Ġæīĺ": 1629,
      "Ġç§»": 1630,
      "Ġåİħ": 1631,
      "ĠçĽĺ": 1632,
      "ĠéĻĨ": 1633,
      "Ġæİ¢": 1634,
      "Ġç¤¼": 1635,
      "Ġè°ģ": 1636,
      "Ġæı¡": 1637,
      "Ġéģį": 1638,
      "ĠåĿĹ": 1639,
      "Ġç¥Ŀ": 1640,
      "ĠæĽ²": 1641,
      "Ġéľ²": 1642,
      "Ġæ»ĭ": 1643,
      "Ġæ®ĭ": 1644,
      "ĠæĳĦ": 1645,
      "Ġèı²": 1646,
      "Ġé¥Ń": 1647,
      "æĹ¥": 1648,
      "Ġè¸": 1649,
      "Ġé½": 1650,
      "ĠæľĹ": 1651,
      "ĠæľĿ": 1652,
      "Ġåı¶": 1653,
      "Ġè¿ª": 1654,
      "Ġè¿½": 1655,
      "Ġä¼Ļ": 1656,
      "Ġä¹İ": 1657,
      "Ġä¹ı": 1658,
      "Ġè¯Ĺ": 1659,
      "Ġéĩİ": 1660,
      "ĠæĬ¢": 1661,
      "Ġå¼±": 1662,
      "Ġèµ´": 1663,
      "Ġåºĵ": 1664,
      "ĠæĢ¥": 1665,
      "ĠçĽĸ": 1666,
      "Ġæķı": 1667,
      "Ġæ²ī": 1668,
      "ĠçŃĳ": 1669,
      "Ġæ´ģ": 1670,
      "Ġæĥł": 1671,
      "Ġå»·": 1672,
      "Ġèī°": 1673,
      "Ġè·Ł": 1674,
      "Ġè¶ĭ": 1675,
      "Ġéļľ": 1676,
      "Ġåģ¿": 1677,
      "Ġå²Ľ": 1678,
      "ĠèįĴ": 1679,
      "Ġç´¯": 1680,
      "Ġçģµ": 1681,
      "è¿ĳ": 1682,
      "ĠéĶĻ": 1683,
      "Ġæģ¶": 1684,
      "Ġç¼ĵ": 1685,
      "ĠæĳĨ": 1686,
      "Ġçĸĳ": 1687,
      "ĠèĦ±": 1688,
      "Ġçıį": 1689,
      "Ġå¡ŀ": 1690,
      "ĠèĻĳ": 1691,
      "ĠæĴŃ": 1692,
      "Ġæħ¢": 1693,
      "ĠåĤ¨": 1694,
      "åĮĹ": 1695,
      "å¦Ĥ": 1696,
      "éĤ": 1697,
      "Ġç£": 1698,
      "Ġèª": 1699,
      "Ġæľĭ": 1700,
      "ĠåĽŃ": 1701,
      "Ġå®¾": 1702,
      "Ġè¿«": 1703,
      "Ġä¼¦": 1704,
      "ĠæĹ¦": 1705,
      "ĠçĶ³": 1706,
      "Ġä¹ĺ": 1707,
      "Ġåįĸ": 1708,
      "ĠæĪ´": 1709,
      "ĠæĪı": 1710,
      "ĠåŃĻ": 1711,
      "Ġå¼Ĥ": 1712,
      "Ġèµ¢": 1713,
      "Ġæī¶": 1714,
      "ĠéĢı": 1715,
      "ĠçīĮ": 1716,
      "Ġèĥŀ": 1717,
      "Ġæ¯Ľ": 1718,
      "Ġæĭ©": 1719,
      "ĠåĵĪ": 1720,
      "ĠéĽħ": 1721,
      "ä¸į": 1722,
      "Ġç½ļ": 1723,
      "ĠåĢŁ": 1724,
      "ĠéĤ»": 1725,
      "Ġç¡¬": 1726,
      "Ġé»İ": 1727,
      "ĠåĶĲ": 1728,
      "Ġæļ´": 1729,
      "ç»ı": 1730,
      "ä¹": 1731,
      "å¥": 1732,
      "èĩ": 1733,
      "Ġçŀ": 1734,
      "ĠèĶ": 1735,
      "Ġäº®": 1736,
      "Ġæľ«": 1737,
      "Ġå®½": 1738,
      "Ġè¿¹": 1739,
      "Ġè¯ļ": 1740,
      "ĠæĿ¨": 1741,
      "ĠæĿ¿": 1742,
      "Ġå¼ĥ": 1743,
      "Ġåºı": 1744,
      "ĠåºŁ": 1745,
      "ĠæĢķ": 1746,
      "Ġæķ¬": 1747,
      "Ġçī§": 1748,
      "Ġæ²¿": 1749,
      "Ġæ¯«": 1750,
      "Ġèģļ": 1751,
      "Ġçķª": 1752,
      "Ġç¬¦": 1753,
      "Ġç®Ń": 1754,
      "Ġè·Ŀ": 1755,
      "ĠéļĨ": 1756,
      "ĠæįĲ": 1757,
      "Ġçģ¯": 1758,
      "Ġé©»": 1759,
      "ĠéĶĭ": 1760,
      "Ġæ¶Ľ": 1761,
      "Ġéħ¸": 1762,
      "Ġæ¹¾": 1763,
      "ĠåĶ±": 1764,
      "ĠæĴ¤": 1765,
      "ĠåĭĴ": 1766,
      "Ġæ¢ħ": 1767,
      "æŃ£": 1768,
      "Ġæ¥¼": 1769,
      "²Į": 1770,
      "åĩ": 1771,
      "Ġåĺ": 1772,
      "Ġè²Į": 1773,
      "Ġæľ±": 1774,
      "Ġæľ´": 1775,
      "Ġåı¦": 1776,
      "Ġåľ³": 1777,
      "Ġæĸ¤": 1778,
      "ĠæĹ§": 1779,
      "ĠçĶ²": 1780,
      "Ġè¯¯": 1781,
      "Ġè¡£": 1782,
      "Ġå¯»": 1783,
      "ĠéĢĢ": 1784,
      "ĠæĢİ": 1785,
      "ĠçĽ¾": 1786,
      "Ġå½¦": 1787,
      "Ġå¿ĺ": 1788,
      "ĠèĥĮ": 1789,
      "Ġæĭ¥": 1790,
      "Ġæ±¤": 1791,
      "Ġæ´Ĺ": 1792,
      "Ġè°ĭ": 1793,
      "Ġéģ¿": 1794,
      "ĠåĿı": 1795,
      "Ġç®Ģ": 1796,
      "Ġè·µ": 1797,
      "ĠéĤ¦": 1798,
      "ĠéĤĢ": 1799,
      "Ġæ·®": 1800,
      "Ġæ¡Ĥ": 1801,
      "Ġæĳ©": 1802,
      "Ġå¡ĳ": 1803,
      "Ġé¾Ħ": 1804,
      "Ġæ¢ģ": 1805,
      "Ġé½Ĳ": 1806,
      "å¼": 1807,
      "æ²": 1808,
      "è®": 1809,
      "è¦ģ": 1810,
      "Ġæ¦Ĥ": 1811,
      "ĠèĨ": 1812,
      "Ġäºķ": 1813,
      "Ġåı«": 1814,
      "Ġå®Ĺ": 1815,
      "ĠåĲ¨": 1816,
      "Ġç»ķ": 1817,
      "Ġç»ľ": 1818,
      "Ġä½³": 1819,
      "Ġå°Ĭ": 1820,
      "Ġè¯¸": 1821,
      "ĠåĩĢ": 1822,
      "ĠæĬµ": 1823,
      "Ġå¼Ł": 1824,
      "Ġèµ¶": 1825,
      "Ġæīİ": 1826,
      "ĠéĢĶ": 1827,
      "ĠéĹŃ": 1828,
      "ĠæŃĮ": 1829,
      "Ġå¿§": 1830,
      "Ġæ²Ī": 1831,
      "Ġæŀ¶": 1832,
      "Ġæ¯ħ": 1833,
      "Ġæĭį": 1834,
      "Ġæĭĵ": 1835,
      "ĠæİĮ": 1836,
      "Ġæ±ł": 1837,
      "Ġæı´": 1838,
      "ĠæıŃ": 1839,
      "Ġç¨¿": 1840,
      "Ġé¡º": 1841,
      "Ġè¶£": 1842,
      "ĠåĢį": 1843,
      "ĠçŁ¿": 1844,
      "ĠçŁĽ": 1845,
      "Ġåģĩ": 1846,
      "ĠçĤ¼": 1847,
      "Ġå£ģ": 1848,
      "Ġéľŀ": 1849,
      "ĠçĪ¶": 1850,
      "ĠçĸĨ": 1851,
      "åħ¨": 1852,
      "Ġèĳ£": 1853,
      "ä½ľ": 1854,
      "Ġçĵľ": 1855,
      "åĲĮ": 1856,
      "æīĢ": 1857,
      "Ġèªī": 1858,
      "æ³": 1859,
      "æł": 1860,
      "éĢ": 1861,
      "ĠP": 1862,
      "Ġåª": 1863,
      "Ġæ¦": 1864,
      "Ġåľ£": 1865,
      "Ġå®ı": 1866,
      "Ġå®ľ": 1867,
      "ĠåĲ´": 1868,
      "Ġä¼ĳ": 1869,
      "Ġè®¢": 1870,
      "Ġåį·": 1871,
      "Ġå·¦": 1872,
      "Ġè¡¡": 1873,
      "Ġè´´": 1874,
      "Ġè´Ŀ": 1875,
      "Ġç§Ł": 1876,
      "Ġæ°§": 1877,
      "Ġéĥĳ": 1878,
      "ĠåĳĪ": 1879,
      "Ġæµª": 1880,
      "ĠçīĽ": 1881,
      "Ġé¢ĩ": 1882,
      "Ġé¢ĳ": 1883,
      "Ġæ³ī": 1884,
      "Ġæ³Ľ": 1885,
      "ĠæŀĲ": 1886,
      "Ġæŀļ": 1887,
      "ĠæĮª": 1888,
      "ĠæĮĤ": 1889,
      "Ġæĭ¼": 1890,
      "Ġæİī": 1891,
      "Ġè¾Ĩ": 1892,
      "Ġè¾ī": 1893,
      "Ġè¾ŀ": 1894,
      "Ġæ¬£": 1895,
      "Ġç«¯": 1896,
      "Ġå»ī": 1897,
      "Ġå§ĵ": 1898,
      "ĠèĤ¯": 1899,
      "ĠåĿĽ": 1900,
      "Ġæ¸¡": 1901,
      "ä¸İ": 1902,
      "Ġç®±": 1903,
      "ĠæĻĵ": 1904,
      "ĠæĽ¼": 1905,
      "Ġæįķ": 1906,
      "Ġå£®": 1907,
      "ĠéĴ¢": 1908,
      "ĠçĪĨ": 1909,
      "Ġæĳĩ": 1910,
      "åı¯": 1911,
      "Ġåĭ¤": 1912,
      "Ġé¥®": 1913,
      "Ġéº»": 1914,
      "Ġç¿»": 1915,
      "å¤§": 1916,
      "Ġå³¡": 1917,
      "Ġå³°": 1918,
      "Ġçĩĥ": 1919,
      "å·": 1920,
      "åĬ": 1921,
      "æ±": 1922,
      "é¦": 1923,
      "ĠR": 1924,
      "Ġæĵ": 1925,
      "Ġä¸Ŀ": 1926,
      "Ġçļĩ": 1927,
      "Ġå¤º": 1928,
      "Ġåı¥": 1929,
      "ĠåľĪ": 1930,
      "ĠåĪ¸": 1931,
      "Ġå®«": 1932,
      "Ġè¿Ł": 1933,
      "ĠåĲ«": 1934,
      "ĠåĬ²": 1935,
      "Ġç»ĺ": 1936,
      "ĠæĺĮ": 1937,
      "ĠæĹĹ": 1938,
      "Ġè¯¢": 1939,
      "Ġè¯į": 1940,
      "Ġè¯ŀ": 1941,
      "ĠåĨ°": 1942,
      "ĠåĩŃ": 1943,
      "ĠæĬ½": 1944,
      "Ġè¡·": 1945,
      "Ġèµµ": 1946,
      "Ġèµł": 1947,
      "Ġç§ĭ": 1948,
      "Ġç§ĺ": 1949,
      "Ġå¾Ĵ": 1950,
      "Ġéĺ´": 1951,
      "Ġå¿ł": 1952,
      "Ġçº¯": 1953,
      "ĠåīĤ": 1954,
      "Ġåīĳ": 1955,
      "Ġæŀª": 1956,
      "ĠæĭĴ": 1957,
      "Ġæĭĸ": 1958,
      "Ġæ´ª": 1959,
      "Ġè¾ĳ": 1960,
      "Ġè°ĵ": 1961,
      "ĠèĤ¥": 1962,
      "ĠåĿ¡": 1963,
      "Ġè·¨": 1964,
      "Ġè·ĥ": 1965,
      "ĠåĢ¡": 1966,
      "Ġèį¡": 1967,
      "ĠéĶĲ": 1968,
      "ĠèĪĨ": 1969,
      "Ġæ¶²": 1970,
      "Ġæģ¢": 1971,
      "æľĢ": 1972,
      "Ġç¼ĺ": 1973,
      "Ġæ®Ĭ": 1974,
      "Ġæ®ĸ": 1975,
      "Ġè±Ĩ": 1976,
      "ĠèĮ¶": 1977,
      "Ġæ¹¿": 1978,
      "Ġæ¨ª": 1979,
      "ĠèħĲ": 1980,
      "äºº": 1981,
      "å®ĥ": 1982,
      "æł¹": 1983,
      "ä¿": 1984,
      "å¾": 1985,
      "æĽ": 1986,
      "ç§": 1987,
      "çĦ": 1988,
      "çľ": 1989,
      "éĥ": 1990,
      "éĹ": 1991,
      "éļ": 1992,
      "ĠæĨ": 1993,
      "Ġæĩ": 1994,
      "ĠåĪĳ": 1995,
      "Ġå®ĩ": 1996,
      "Ġæĺ¨": 1997,
      "Ġå¹¸": 1998,
      "ĠæĹ±": 1999,
      "Ġä¹Į": 2000,
      "Ġåį¢": 2001,
      "Ġè¯ī": 2002,
      "ĠåĨĪ": 2003,
      "ĠåŃĶ": 2004,
      "ĠéĩĬ": 2005,
      "Ġåĩ¡": 2006,
      "Ġèµı": 2007,
      "Ġèµĸ": 2008,
      "ĠåºĦ": 2009,
      "Ġè´¦": 2010,
      "Ġéĺ»": 2011,
      "Ġå¥ī": 2012,
      "Ġæµ®": 2013,
      "Ġæķ¦": 2014,
      "Ġæłı": 2015,
      "Ġé¢ĸ": 2016,
      "Ġåī©": 2017,
      "ĠçĲ´": 2018,
      "Ġæ²Ł": 2019,
      "Ġæ´ŀ": 2020,
      "Ġæ¬º": 2021,
      "Ġç«Ł": 2022,
      "Ġæĥľ": 2023,
      "Ġè°Ĭ": 2024,
      "Ġæıı": 2025,
      "ĠèĤĥ": 2026,
      "Ġé¡¶": 2027,
      "Ġç©¿": 2028,
      "ĠéĤ®": 2029,
      "ä»¥": 2030,
      "Ġæ·¡": 2031,
      "ĠæģĲ": 2032,
      "Ġæ¡ĳ": 2033,
      "Ġéª¨": 2034,
      "Ġæ¼«": 2035,
      "ĠèĦļ": 2036,
      "ĠçªĹ": 2037,
      "Ġæ¹ĺ": 2038,
      "Ġç¯·": 2039,
      "Ġçħ¤": 2040,
      "åı¦": 2041,
      "Ġæ½ľ": 2042,
      "ĠæĤ£": 2043,
      "Ġæļĸ": 2044,
      "Ġæ¥ļ": 2045,
      "Ġé¸Ł": 2046,
      "æ¯ı": 2047,
      "éĤ£": 2048,
      "èĩª": 2049,
      "éĢļ": 2050,
      "çĦ¶": 2051,
      "éļı": 2052,
      "¤Ĳ": 2053,
      "ä¾": 2054,
      "å¹": 2055,
      "æ¬": 2056,
      "æĢ": 2057,
      "çĻ": 2058,
      "è´": 2059,
      "èĭ": 2060,
      "éĻ": 2061,
      "ĠO": 2062,
      "ĠX": 2063,
      "ĠçĴ": 2064,
      "ĠèĽ": 2065,
      "ĠéĨ": 2066,
      "Ġä¸Ī": 2067,
      "Ġä¸Ľ": 2068,
      "Ġäº«": 2069,
      "Ġäºı": 2070,
      "Ġåı¹": 2071,
      "ĠåĲĹ": 2072,
      "ĠæĹ¬": 2073,
      "ĠæĹĭ": 2074,
      "ĠæĪĪ": 2075,
      "ĠæĿ°": 2076,
      "ĠæĿĢ": 2077,
      "ĠèµĶ": 2078,
      "ĠæīŃ": 2079,
      "ĠèĢ¶": 2080,
      "Ġè´©": 2081,
      "Ġè´ª": 2082,
      "Ġæ°Ľ": 2083,
      "ĠéĥŃ": 2084,
      "Ġå¥Ī": 2085,
      "Ġåĳ¢": 2086,
      "ĠçĽ²": 2087,
      "Ġå½¬": 2088,
      "Ġå½Ń": 2089,
      "Ġçºµ": 2090,
      "Ġæ²ĥ": 2091,
      "Ġæ±Ĺ": 2092,
      "Ġè¾½": 2093,
      "Ġè¾Ľ": 2094,
      "ĠæĥĬ": 2095,
      "Ġè°¢": 2096,
      "ĠèĤī": 2097,
      "ĠåĿĲ": 2098,
      "Ġç©·": 2099,
      "Ġé¦¨": 2100,
      "ĠæĻ¨": 2101,
      "ĠåĢ¾": 2102,
      "Ġæ··": 2103,
      "ĠçĤ¸": 2104,
      "ĠèĪį": 2105,
      "Ġç±į": 2106,
      "ĠèĬ³": 2107,
      "Ġç¼©": 2108,
      "ĠçĥŁ": 2109,
      "Ġæ¡£": 2110,
      "Ġåķ¤": 2111,
      "Ġæ»©": 2112,
      "Ġæ£ļ": 2113,
      "ĠèĮĤ": 2114,
      "Ġçĭ¼": 2115,
      "ĠåĶ¯": 2116,
      "Ġèĳ¡": 2117,
      "ĠæĴ°": 2118,
      "ĠæĲı": 2119,
      "Ġåĭĥ": 2120,
      "Ġæ¢¦": 2121,
      "ĠèĴĤ": 2122,
      "åĪĺ": 2123,
      "æĿİ": 2124,
      "ĠéŃı": 2125,
      "å°½": 2126,
      "åį°": 2127,
      "åİ»": 2128,
      "Ġå´ĩ": 2129,
      "ĠçĨŁ": 2130,
      "å¥¹": 2131,
      "ĠåªĴ": 2132,
      "éĹ®": 2133,
      "åģ": 2134,
      "åŁ": 2135,
      "æµ": 2136,
      "çī": 2137,
      "è°": 2138,
      "éĺ": 2139,
      "Ġ\"": 2140,
      "Ġ<": 2141,
      "Ġ>": 2142,
      "ĠB": 2143,
      "ĠF": 2144,
      "ĠT": 2145,
      "ī´": 2146,
      "Ġéŀ": 2147,
      "ĠçļĨ": 2148,
      "Ġä»ģ": 2149,
      "Ġå¤ķ": 2150,
      "Ġåı³": 2151,
      "ĠåĪº": 2152,
      "ĠåĪĢ": 2153,
      "Ġå®¿": 2154,
      "Ġå®ĭ": 2155,
      "Ġè¿Ī": 2156,
      "ĠåĲģ": 2157,
      "ĠåĲĽ": 2158,
      "ĠåĲŀ": 2159,
      "Ġå¹¼": 2160,
      "ĠæĸĮ": 2161,
      "Ġä¼°": 2162,
      "Ġä¼Ĳ": 2163,
      "Ġä¹ĥ": 2164,
      "Ġä¹Ĵ": 2165,
      "ĠåŃ¤": 2166,
      "ĠæĬ±": 2167,
      "Ġèµ¤": 2168,
      "Ġå±Ī": 2169,
      "Ġå±ĭ": 2170,
      "ĠèĢķ": 2171,
      "Ġå¾ª": 2172,
      "Ġå¾Ĳ": 2173,
      "Ġå¥ı": 2174,
      "Ġæµ©": 2175,
      "Ġæµĵ": 2176,
      "Ġæķ¢": 2177,
      "ĠéĿĻ": 2178,
      "Ġå¿½": 2179,
      "Ġå¿Ļ": 2180,
      "Ġçºº": 2181,
      "Ġçºł": 2182,
      "Ġé¢Ĺ": 2183,
      "Ġæ³¥": 2184,
      "Ġæ³ª": 2185,
      "ĠæĮĸ": 2186,
      "ĠçŃĶ": 2187,
      "Ġåĵª": 2188,
      "Ġè½°": 2189,
      "Ġè½½": 2190,
      "Ġè°·": 2191,
      "Ġçķľ": 2192,
      "Ġéģ¥": 2193,
      "ĠéģŃ": 2194,
      "Ġç©Ĩ": 2195,
      "Ġè·ĳ": 2196,
      "Ġå¦¥": 2197,
      "Ġæ·¤": 2198,
      "Ġç²ī": 2199,
      "è¿ĺ": 2200,
      "ĠéĶ»": 2201,
      "Ġæ¶¦": 2202,
      "Ġèİ²": 2203,
      "Ġéľĩ": 2204,
      "Ġç¼´": 2205,
      "Ġçĥ§": 2206,
      "Ġæ¼Ĥ": 2207,
      "Ġæĳĺ": 2208,
      "Ġçıł": 2209,
      "ĠçĮª": 2210,
      "åĽ¾": 2211,
      "ĠçħĮ": 2212,
      "ĠæĲŃ": 2213,
      "ĠæĤī": 2214,
      "Ġæħ§": 2215,
      "Ġæħ°": 2216,
      "Ġåĭĩ": 2217,
      "Ġèħ°": 2218,
      "çİĭ": 2219,
      "æĿ¥": 2220,
      "ä¼ļ": 2221,
      "æĺİ": 2222,
      "Ġæ¦ľ": 2223,
      "æ±Ł": 2224,
      "é¦ĸ": 2225,
      "Ġæĵį": 2226,
      "éĥĳ": 2227,
      "åº": 2228,
      "èģ": 2229,
      "èĥ": 2230,
      "è¥¿": 2231,
      "é»": 2232,
      "Ġçĺ": 2233,
      "Ġè¹": 2234,
      "Ġèĸ": 2235,
      "Ġé¤Ĳ": 2236,
      "Ġéī´": 2237,
      "Ġä»°": 2238,
      "ĠåľĨ": 2239,
      "ĠæĺĤ": 2240,
      "Ġå¹»": 2241,
      "Ġä½©": 2242,
      "âĢĶ": 2243,
      "ĠæĹº": 2244,
      "Ġä¹ĵ": 2245,
      "ĠâĢĺ": 2246,
      "ĠâĢĻ": 2247,
      "ĠåĨ¬": 2248,
      "ĠæĿŃ": 2249,
      "ĠåĴ¨": 2250,
      "ĠåĩĿ": 2251,
      "Ġå¸Ĳ": 2252,
      "ĠæĬĽ": 2253,
      "Ġå¯¨": 2254,
      "Ġå±¥": 2255,
      "Ġè´¬": 2256,
      "Ġéĺħ": 2257,
      "ĠéĢ¼": 2258,
      "ĠåİĦ": 2259,
      "Ġè§¦": 2260,
      "ĠçĽĨ": 2261,
      "ĠéĹ²": 2262,
      "ĠéĻ·": 2263,
      "Ġé¢ģ": 2264,
      "ĠæŀĿ": 2265,
      "ĠæĮ¯": 2266,
      "Ġä¿Ĭ": 2267,
      "ĠæĭĶ": 2268,
      "Ġè¾Ł": 2269,
      "Ġçľī": 2270,
      "Ġæĥ¯": 2271,
      "Ġå§Ĩ": 2272,
      "Ġå§Ĳ": 2273,
      "Ġç¨Ģ": 2274,
      "ĠèĤĿ": 2275,
      "Ġæ¸Ĳ": 2276,
      "Ġå¢ĵ": 2277,
      "Ġå¢Ļ": 2278,
      "ĠçĿ¦": 2279,
      "ĠçĿĽ": 2280,
      "ä¸¤": 2281,
      "ä¸»": 2282,
      "ä¸Ĭ": 2283,
      "Ġä¾µ": 2284,
      "ĠæĻĭ": 2285,
      "Ġå¦»": 2286,
      "Ġæį§": 2287,
      "ĠèĲĦ": 2288,
      "Ġæ·ĺ": 2289,
      "ĠæŁ³": 2290,
      "ĠçģŃ": 2291,
      "Ġè¢Ń": 2292,
      "Ġæģ°": 2293,
      "Ġç¼ħ": 2294,
      "Ġéħ·": 2295,
      "Ġè±ª": 2296,
      "ĠåĸĿ": 2297,
      "Ġéªĳ": 2298,
      "Ġæ¼ı": 2299,
      "Ġæ¼ł": 2300,
      "ĠæĳĬ": 2301,
      "Ġçĭ±": 2302,
      "ĠæĴĳ": 2303,
      "ĠæĴŀ": 2304,
      "Ġæħķ": 2305,
      "Ġé¥±": 2306,
      "Ġç¢°": 2307,
      "Ġç¢ĳ": 2308,
      "Ġç¿°": 2309,
      "åĪ°": 2310,
      "ĠéŃħ": 2311,
      "åĨį": 2312,
      "æĬ¥": 2313,
      "Ġå«©": 2314,
      "Ġçĩķ": 2315,
      "å¸Ĥ": 2316,
      "åĩł": 2317,
      "å·´": 2318,
      "ç§ĳ": 2319,
      "çľĭ": 2320,
      "æ¬§": 2321,
      "¦Ĩ": 2322,
      "§Ĳ": 2323,
      "åī": 2324,
      "åŃ¦": 2325,
      "æ·": 2326,
      "æ¸": 2327,
      "æĮ": 2328,
      "æķ": 2329,
      "é¢": 2330,
      "éķ": 2331,
      "éĿ": 2332,
      "éŁ": 2333,
      "ĠI": 2334,
      "ĠS": 2335,
      "ĠV": 2336,
      "ĠY": 2337,
      "Ġå³»": 2338,
      "Ġç³": 2339,
      "Ġè¦Ĩ": 2340,
      "ĠåĬ£": 2341,
      "ĠåĬ«": 2342,
      "Ġç»ĳ": 2343,
      "ĠæĺĨ": 2344,
      "ĠæĹ¨": 2345,
      "Ġå°ĸ": 2346,
      "Ġè¯±": 2347,
      "Ġè¯ĳ": 2348,
      "ĠåĨ»": 2349,
      "Ġå·§": 2350,
      "Ġå¸ľ": 2351,
      "ĠæĬĺ": 2352,
      "Ġå¼ĺ": 2353,
      "ĠåºĬ": 2354,
      "ĠåºĻ": 2355,
      "Ġå¯¿": 2356,
      "Ġå¯Ĵ": 2357,
      "Ġæī£": 2358,
      "Ġè´¿": 2359,
      "Ġå¾¡": 2360,
      "Ġéĺģ": 2361,
      "ĠéĻķ": 2362,
      "Ġçº²": 2363,
      "Ġèĥ¶": 2364,
      "Ġèĩ£": 2365,
      "Ġä¿±": 2366,
      "Ġæİĺ": 2367,
      "Ġç¾Ĭ": 2368,
      "Ġæ±°": 2369,
      "Ġæ´Ĵ": 2370,
      "Ġæ¬ł": 2371,
      "Ġè½¨": 2372,
      "ĠéĽª": 2373,
      "ĠéĽķ": 2374,
      "Ġéģµ": 2375,
      "ĠèĤĸ": 2376,
      "Ġæ¸Ķ": 2377,
      "Ġæ¸ł": 2378,
      "Ġç¬ĳ": 2379,
      "ä¸¹": 2380,
      "ä¸ī": 2381,
      "ä¸ĵ": 2382,
      "Ġä¾§": 2383,
      "Ġä¾¯": 2384,
      "Ġçłģ": 2385,
      "Ġè·³": 2386,
      "Ġç½ķ": 2387,
      "Ġç¥¥": 2388,
      "ĠéļĲ": 2389,
      "ĠéļĶ": 2390,
      "Ġå¦¹": 2391,
      "Ġå²³": 2392,
      "Ġæ·»": 2393,
      "Ġèį·": 2394,
      "Ġå£³": 2395,
      "ĠèĪŁ": 2396,
      "Ġæ¶¨": 2397,
      "Ġæģ©": 2398,
      "ĠèĬ¬": 2399,
      "Ġæ¡Į": 2400,
      "Ġæ£ī": 2401,
      "ĠåĸĬ": 2402,
      "Ġåŀ¦": 2403,
      "ĠéŁ¦": 2404,
      "ĠèĦ¸": 2405,
      "ĠèĦı": 2406,
      "Ġçªĥ": 2407,
      "Ġæºª": 2408,
      "åħ¬": 2409,
      "Ġå¨ĺ": 2410,
      "Ġå¨ľ": 2411,
      "ĠçĭĤ": 2412,
      "ĠèĳĽ": 2413,
      "ĠèĻİ": 2414,
      "ĠèĻļ": 2415,
      "ĠæĴĴ": 2416,
      "ĠæĲº": 2417,
      "åıª": 2418,
      "ĠæĤ¬": 2419,
      "ĠèıĮ": 2420,
      "Ġæ¢°": 2421,
      "æĸĩ": 2422,
      "åĲĦ": 2423,
      "ĠåĤ¬": 2424,
      "æĹł": 2425,
      "å¤©": 2426,
      "Ġé¹ı": 2427,
      "å°±": 2428,
      "Ġå«Į": 2429,
      "Ġå©´": 2430,
      "Ġèĵ¬": 2431,
      "Ġè¸ı": 2432,
      "Ġç£¨": 2433,
      "Ġç£ĭ": 2434,
      "è®°": 2435,
      "ĠèĨı": 2436,
      "æ³ķ": 2437,
      "åĬł": 2438,
      "æĢ»": 2439,
      "ĠçĴĩ": 2440,
      "çī¹": 2441,
      "èģĶ": 2442,
      "åīį": 2443,
      "éķ¿": 2444,
      "éŁ©": 2445,
      "âĹı": 2446,
      "å¡": 2447,
      "å±": 2448,
      "åĵ": 2449,
      "åŃ": 2450,
      "æĦ": 2451,
      "æŀ": 2452,
      "èµ": 2453,
      "èĻ": 2454,
      "é©": 2455,
      "é²": 2456,
      "éĩ": 2457,
      "éĴ": 2458,
      "é«ĺ": 2459,
      "ĠN": 2460,
      "Ġæ§Ĳ": 2461,
      "Ġèķ": 2462,
      "Ġèľ": 2463,
      "ĠéĦ": 2464,
      "Ġä¸¢": 2465,
      "Ġä¸ģ": 2466,
      "Ġäº¦": 2467,
      "Ġåħģ": 2468,
      "Ġä»ĵ": 2469,
      "Ġåľ¾": 2470,
      "ĠåĪ·": 2471,
      "ĠåĪĥ": 2472,
      "Ġå®ª": 2473,
      "Ġè¿ģ": 2474,
      "Ġè¿Ħ": 2475,
      "Ġè¿Ķ": 2476,
      "ĠåĲ§": 2477,
      "ĠåĲķ": 2478,
      "Ġä½Ľ": 2479,
      "Ġä¼¸": 2480,
      "Ġä¼ı": 2481,
      "ĠçĶ¸": 2482,
      "ĠçĶĺ": 2483,
      "ĠçĶľ": 2484,
      "Ġå°º": 2485,
      "Ġå°ĺ": 2486,
      "Ġå°Ŀ": 2487,
      "Ġä¹Ļ": 2488,
      "ĠæĪª": 2489,
      "Ġå·¡": 2490,
      "Ġåĩ¤": 2491,
      "ĠåĩĮ": 2492,
      "ĠåºĲ": 2493,
      "Ġå±¡": 2494,
      "ĠéĢĨ": 2495,
      "ĠéĥĬ": 2496,
      "Ġéĥİ": 2497,
      "Ġå¥¶": 2498,
      "Ġåİ¦": 2499,
      "ĠæĢ¨": 2500,
      "ĠæµĻ": 2501,
      "Ġæł½": 2502,
      "ĠéĹ¯": 2503,
      "Ġçīµ": 2504,
      "ĠéĻ¶": 2505,
      "Ġçº½": 2506,
      "Ġåī¥": 2507,
      "ĠçĲĽ": 2508,
      "ĠèĥĨ": 2509,
      "Ġæŀ¯": 2510,
      "ĠæĮ£": 2511,
      "Ġéķľ": 2512,
      "Ġæĭ¨": 2513,
      "ĠæİĢ": 2514,
      "Ġç¾½": 2515,
      "ĠæĦĪ": 2516,
      "Ġæĥ¨": 2517,
      "Ġå§¿": 2518,
      "Ġèģĺ": 2519,
      "ĠéĽģ": 2520,
      "Ġçķħ": 2521,
      "ĠèĤ¤": 2522,
      "ĠåĿª": 2523,
      "ĠåĿĢ": 2524,
      "Ġé¡½": 2525,
      "ä¸ĭ": 2526,
      "ä¸ĸ": 2527,
      "Ġçłĸ": 2528,
      "ĠæĻ¤": 2529,
      "Ġéļ§": 2530,
      "Ġåģ·": 2531,
      "Ġæįŀ": 2532,
      "Ġæ·Į": 2533,
      "ĠçĤ¯": 2534,
      "ĠèĭĹ": 2535,
      "ĠæŁ±": 2536,
      "Ġç²Ĵ": 2537,
      "ĠèįĲ": 2538,
      "Ġç´«": 2539,
      "Ġé©±": 2540,
      "Ġé©¾": 2541,
      "Ġè¢ĭ": 2542,
      "Ġæ¶Į": 2543,
      "Ġéľ¸": 2544,
      "ĠçĦ¦": 2545,
      "ĠéĴ¦": 2546,
      "Ġç¼Ķ": 2547,
      "Ġéħµ": 2548,
      "Ġæ»¥": 2549,
      "Ġè£Ķ": 2550,
      "Ġé»ĺ": 2551,
      "Ġéª¤": 2552,
      "ĠèĮħ": 2553,
      "Ġçĸ«": 2554,
      "ĠçĹĩ": 2555,
      "Ġåŀĥ": 2556,
      "ĠèĦī": 2557,
      "Ġçªĳ": 2558,
      "Ġå¡ĺ": 2559,
      "Ġç¦½": 2560,
      "åħĭ": 2561,
      "ĠèĻ«": 2562,
      "åıĤ": 2563,
      "Ġæ½Ń": 2564,
      "ĠæĤ¦": 2565,
      "ĠæĤ²": 2566,
      "ĠæĤĶ": 2567,
      "Ġèıĩ": 2568,
      "Ġé¥°": 2569,
      "Ġåłª": 2570,
      "Ġèħ¾": 2571,
      "Ġèħ¿": 2572,
      "ĠéºŁ": 2573,
      "äºĭ": 2574,
      "äºĮ": 2575,
      "äºİ": 2576,
      "ĠèĴĭ": 2577,
      "Ġç¢į": 2578,
      "ĠåĤħ": 2579,
      "Ġç¿¼": 2580,
      "å®ī": 2581,
      "å®ŀ": 2582,
      "Ġé¸¡": 2583,
      "Ġé¸£": 2584,
      "èĢģ": 2585,
      "åİĨ": 2586,
      "åİŁ": 2587,
      "Ġå´Ľ": 2588,
      "æĬĬ": 2589,
      "Ġå«Ĥ": 2590,
      "å¸ĥ": 2591,
      "Ġå©ļ": 2592,
      "ĠèĵĦ": 2593,
      "èĩ³": 2594,
      "å¼Ģ": 2595,
      "å¼ł": 2596,
      "è®¸": 2597,
      "ä¿Ħ": 2598,
      "å¾·": 2599,
      "ĠæĨ¾": 2600,
      "ĠæĩĪ": 2601,
      "åŁº": 2602,
      "æµ·": 2603,
      "åºĶ": 2604,
      "æ·±": 2605,
      "èĻ½": 2606,
      "»º": 2607,
      "å¢": 2608,
      "åĢ": 2609,
      "åĶ": 2610,
      "å»º": 2611,
      "æ¢": 2612,
      "æĶ": 2613,
      "æĻ": 2614,
      "æŁ": 2615,
      "ç©": 2616,
      "ç®": 2617,
      "çº": 2618,
      "çĲ": 2619,
      "çŁ": 2620,
      "è§": 2621,
      "èī": 2622,
      "é¡": 2623,
      "Ġ-": 2624,
      "Ġ=": 2625,
      "ĠH": 2626,
      "Ġo": 2627,
      "Ĺĭ": 2628,
      "Ġèĺ": 2629,
      "Ġèļ": 2630,
      "Ġä¸§": 2631,
      "Ġåħ®": 2632,
      "ĠåħĦ": 2633,
      "Ġä»²": 2634,
      "Ġä»¿": 2635,
      "ĠåĲĬ": 2636,
      "Ġç»ª": 2637,
      "Ġæĸľ": 2638,
      "ĠæĹģ": 2639,
      "Ġå°¾": 2640,
      "Ġä¹Ķ": 2641,
      "ĠåĨĢ": 2642,
      "ĠåŃķ": 2643,
      "Ġå·©": 2644,
      "Ġåĩ¯": 2645,
      "Ġåĩ¿": 2646,
      "Ġå¸ķ": 2647,
      "ĠæĬ«": 2648,
      "Ġè¡«": 2649,
      "Ġè¡¬": 2650,
      "Ġå¼¥": 2651,
      "Ġå¼Ĭ": 2652,
      "Ġåº¸": 2653,
      "Ġå¯ħ": 2654,
      "Ġæī°": 2655,
      "Ġæīĳ": 2656,
      "ĠèĢ³": 2657,
      "Ġè´¾": 2658,
      "Ġç§¦": 2659,
      "Ġç§Ĵ": 2660,
      "Ġæ°¢": 2661,
      "Ġæ°ı": 2662,
      "ĠéĢĥ": 2663,
      "ĠéĢĴ": 2664,
      "ĠéĢĿ": 2665,
      "Ġå¥¢": 2666,
      "Ġå¥Ķ": 2667,
      "Ġå¥ł": 2668,
      "ĠçĽĪ": 2669,
      "ĠçĽĴ": 2670,
      "Ġæµħ": 2671,
      "ĠæķĮ": 2672,
      "ĠéĿĸ": 2673,
      "Ġçİ©": 2674,
      "ĠçİĽ": 2675,
      "Ġçī²": 2676,
      "Ġå½°": 2677,
      "Ġå½¹": 2678,
      "Ġå¿į": 2679,
      "ĠéĻª": 2680,
      "Ġçº¹": 2681,
      "ĠåīĬ": 2682,
      "Ġèĥİ": 2683,
      "Ġæ³¡": 2684,
      "ĠæĮ¤": 2685,
      "ĠæĮº": 2686,
      "ĠæĮ½": 2687,
      "Ġè¾Ī": 2688,
      "Ġè¾ĸ": 2689,
      "Ġç«¹": 2690,
      "ĠæĦģ": 2691,
      "Ġåĵ²": 2692,
      "Ġæĥĳ": 2693,
      "Ġè°±": 2694,
      "Ġè°´": 2695,
      "ĠéĽ¾": 2696,
      "Ġæ¸Ĭ": 2697,
      "Ġæ¸Ń": 2698,
      "Ġé¡µ": 2699,
      "Ġé¡·": 2700,
      "ĠçĿ¡": 2701,
      "Ġçłį": 2702,
      "Ġè·»": 2703,
      "ĠæĽ¹": 2704,
      "ĠæĽ¿": 2705,
      "Ġåģı": 2706,
      "Ġå¦Ī": 2707,
      "Ġæ·¹": 2708,
      "ĠçĤİ": 2709,
      "ĠçĻĮ": 2710,
      "ĠæŁı": 2711,
      "Ġç²¹": 2712,
      "Ġé©¶": 2713,
      "Ġè¢ģ": 2714,
      "Ġéľĸ": 2715,
      "Ġæģª": 2716,
      "Ġæģ¼": 2717,
      "Ġéĵ²": 2718,
      "Ġéĵľ": 2719,
      "ĠçĦī": 2720,
      "Ġæ¡¶": 2721,
      "ĠåķĬ": 2722,
      "Ġæ»¨": 2723,
      "Ġæ»ĳ": 2724,
      "Ġæ»ŀ": 2725,
      "Ġè£Ĥ": 2726,
      "Ġè£ķ": 2727,
      "Ġæĳ¸": 2728,
      "ĠèĮ¨": 2729,
      "ĠåŀĦ": 2730,
      "ĠåŀĴ": 2731,
      "ĠçĮľ": 2732,
      "åħĪ": 2733,
      "Ġæ¹Ľ": 2734,
      "ĠçĭŃ": 2735,
      "ĠåĶ¤": 2736,
      "ä½ķ": 2737,
      "ĠæĲ¬": 2738,
      "ĠæĲľ": 2739,
      "åıĮ": 2740,
      "åıĳ": 2741,
      "åıĹ": 2742,
      "Ġæ½ĺ": 2743,
      "æĪª": 2744,
      "æĪĲ": 2745,
      "ĠæĤł": 2746,
      "Ġæħ¨": 2747,
      "Ġåĥµ": 2748,
      "Ġåł¡": 2749,
      "ĠåłĨ": 2750,
      "ĠèħĶ": 2751,
      "Ġæļĳ": 2752,
      "ĠæļĹ": 2753,
      "äº¬": 2754,
      "Ġç¢Ĺ": 2755,
      "Ġé¼ł": 2756,
      "å¤ĸ": 2757,
      "å®¶": 2758,
      "åĪĽ": 2759,
      "Ġé¸Ń": 2760,
      "æĿĳ": 2761,
      "Ġé¹¤": 2762,
      "ĠéŃĤ": 2763,
      "å°ı": 2764,
      "åįģ": 2765,
      "ä¼Ĭ": 2766,
      "æĺ¯": 2767,
      "ĠèĵĿ": 2768,
      "Ġè¸ª": 2769,
      "Ġç£ģ": 2770,
      "ä¹¡": 2771,
      "ä¹Ł": 2772,
      "å¥³": 2773,
      "Ġçŀ©": 2774,
      "ĠèĶ¬": 2775,
      "ĠèĶĵ": 2776,
      "ĠèĶļ": 2777,
      "Ġåĺ´": 2778,
      "Ġåĺī": 2779,
      "æ²¡": 2780,
      "æ³°": 2781,
      "æĽ¾": 2782,
      "ĠæĨ¨": 2783,
      "ä¾ĭ": 2784,
      "çĻ½": 2785,
      "èĭı": 2786,
      "éĻĪ": 2787,
      "ĠéĨĴ": 2788,
      "åģĩ": 2789,
      "éĺ¿": 2790,
      "Ġéŀĭ": 2791,
      "èĥ¡": 2792,
      "Ġè¹Ī": 2793,
      "åĵĪ": 2794,
      "æŀľ": 2795,
      "é©¬": 2796,
      "é²ģ": 2797,
      "¤¾": 2798,
      "¦ı": 2799,
      "§Ķ": 2800,
      "©¡": 2801,
      "¬¼": 2802,
      "°ĳ": 2803,
      "µ®": 2804,
      "½Ĺ": 2805,
      "å£": 2806,
      "å§Ķ": 2807,
      "æ´": 2808,
      "æı": 2809,
      "æŃ¦": 2810,
      "æ°ĳ": 2811,
      "ç«": 2812,
      "çĥ": 2813,
      "çı": 2814,
      "ç¤¾": 2815,
      "ç¦ı": 2816,
      "ç½Ĺ": 2817,
      "èį": 2818,
      "Ġw": 2819,
      "Ġæ©¡": 2820,
      "Ġçµ®": 2821,
      "Ġè¤": 2822,
      "ĠèĿ": 2823,
      "Ġé«": 2824,
      "Ġé¬¼": 2825,
      "ãĢİ": 2826,
      "ĠåħĶ": 2827,
      "Ġæľµ": 2828,
      "Ġä»ĳ": 2829,
      "Ġä»Ĺ": 2830,
      "Ġå¤¹": 2831,
      "Ġåıł": 2832,
      "ĠåĲ¹": 2833,
      "Ġæĺ¼": 2834,
      "Ġå¹½": 2835,
      "Ġä¼ª": 2836,
      "ĠçĶº": 2837,
      "Ġåį¤": 2838,
      "Ġåį§": 2839,
      "Ġåį¸": 2840,
      "Ġåį¿": 2841,
      "Ġåįĵ": 2842,
      "Ġåįľ": 2843,
      "Ġè¯Ĭ": 2844,
      "ĠåĨ¯": 2845,
      "ĠåĴ¬": 2846,
      "ĠåĴ¸": 2847,
      "Ġåĩ½": 2848,
      "Ġåĩĳ": 2849,
      "Ġå¸Ŀ": 2850,
      "ĠæĬ¼": 2851,
      "ĠæĬļ": 2852,
      "Ġå¼Ī": 2853,
      "Ġå¼Ĺ": 2854,
      "Ġèµ«": 2855,
      "ĠåĮ¹": 2856,
      "Ġå¯ĩ": 2857,
      "Ġæī«": 2858,
      "Ġæī¯": 2859,
      "ĠæīĶ": 2860,
      "ĠèĢĢ": 2861,
      "ĠèĢĲ": 2862,
      "Ġè´º": 2863,
      "Ġæ°¨": 2864,
      "Ġæ°®": 2865,
      "ĠéĺĶ": 2866,
      "ĠéĢ¢": 2867,
      "Ġå¥´": 2868,
      "ĠåĳĨ": 2869,
      "Ġåİī": 2870,
      "ĠæĢĴ": 2871,
      "ĠçĽ¯": 2872,
      "ĠçĽĲ": 2873,
      "ĠçĽĹ": 2874,
      "Ġæµ¦": 2875,
      "Ġæµı": 2876,
      "Ġæłª": 2877,
      "Ġçī¢": 2878,
      "ĠæŃ§": 2879,
      "ĠæŃ¹": 2880,
      "ĠæŃĩ": 2881,
      "Ġå½¼": 2882,
      "Ġå¿Ĩ": 2883,
      "ĠéĻ¡": 2884,
      "Ġé¢Ī": 2885,
      "Ġé¢ľ": 2886,
      "ĠçĲª": 2887,
      "ĠçĲ³": 2888,
      "ĠçĲ¼": 2889,
      "Ġèĥĸ": 2890,
      "Ġæ²§": 2891,
      "Ġæ²ª": 2892,
      "Ġæ²¼": 2893,
      "Ġæ²Ľ": 2894,
      "Ġæ³¼": 2895,
      "ĠèĩŃ": 2896,
      "ĠæĮ¨": 2897,
      "ĠæĮ«": 2898,
      "ĠéķĢ": 2899,
      "Ġä¿ı": 2900,
      "Ġä¿ŀ": 2901,
      "ĠçŃĭ": 2902,
      "ĠåŁĶ": 2903,
      "Ġæĭ³": 2904,
      "ĠæĭĨ": 2905,
      "Ġæĭĺ": 2906,
      "ĠæĭŁ": 2907,
      "Ġæ±Ŀ": 2908,
      "Ġè¾°": 2909,
      "Ġè¾ħ": 2910,
      "Ġè¾Ĳ": 2911,
      "Ġç«Ń": 2912,
      "ĠæĦ§": 2913,
      "ĠæĦī": 2914,
      "ĠæĦļ": 2915,
      "Ġæĥ©": 2916,
      "Ġå»Ĭ": 2917,
      "Ġå§ĳ": 2918,
      "Ġèģª": 2919,
      "Ġè°£": 2920,
      "Ġæı½": 2921,
      "ĠæıĴ": 2922,
      "ĠéĽ¶": 2923,
      "ĠéĽ¹": 2924,
      "ĠéĽĢ": 2925,
      "ĠéĽĩ": 2926,
      "Ġçķı": 2927,
      "Ġéģ£": 2928,
      "Ġéģı": 2929,
      "Ġç¨į": 2930,
      "ĠèĤ¢": 2931,
      "ĠèĤ©": 2932,
      "ĠèĤº": 2933,
      "ĠèĤ¿": 2934,
      "ĠèĤļ": 2935,
      "Ġèīĩ": 2936,
      "Ġæ¸Ĺ": 2937,
      "Ġç¬¼": 2938,
      "Ġä¾¨": 2939,
      "Ġç©´": 2940,
      "Ġç½¢": 2941,
      "Ġç½©": 2942,
      "Ġç½Ĳ": 2943,
      "Ġé£ĺ": 2944,
      "ĠéĤµ": 2945,
      "Ġéļ¶": 2946,
      "Ġåģ¶": 2947,
      "Ġå¦Ļ": 2948,
      "ĠæįĨ": 2949,
      "Ġå²©": 2950,
      "Ġå²ļ": 2951,
      "ĠèĲį": 2952,
      "ĠèĲİ": 2953,
      "ä»ħ": 2954,
      "ĠçĤĴ": 2955,
      "ĠèĭŁ": 2956,
      "ĠæŁ¬": 2957,
      "ĠæŁ´": 2958,
      "ĠæŁĶ": 2959,
      "ĠæŁľ": 2960,
      "Ġç²Ĺ": 2961,
      "Ġèį§": 2962,
      "ĠèįĶ": 2963,
      "Ġçģ°": 2964,
      "ĠçģĮ": 2965,
      "Ġå£¤": 2966,
      "Ġå£ĳ": 2967,
      "Ġç¡ķ": 2968,
      "è¿ŀ": 2969,
      "Ġè¢į": 2970,
      "ĠéĶ¡": 2971,
      "ĠéĶ¯": 2972,
      "ĠèĪĴ": 2973,
      "Ġæ¶µ": 2974,
      "Ġæ¶Ĥ": 2975,
      "Ġèİī": 2976,
      "Ġèİİ": 2977,
      "ĠæģŃ": 2978,
      "æľº": 2979,
      "ĠèĬĴ": 2980,
      "Ġéĵ¾": 2981,
      "Ġéĵħ": 2982,
      "ĠéĵŃ": 2983,
      "ĠéĴī": 2984,
      "ĠéĴĬ": 2985,
      "åľ°": 2986,
      "Ġæ»´": 2987,
      "Ġæ»ļ": 2988,
      "Ġåĸ»": 2989,
      "ĠéªĦ": 2990,
      "ĠçĪ¬": 2991,
      "Ġæ¼ĵ": 2992,
      "ĠæĳĴ": 2993,
      "ĠéŁ§": 2994,
      "ĠéŁµ": 2995,
      "ĠèĦĨ": 2996,
      "ĠçªĿ": 2997,
      "ĠçĮİ": 2998,
      "ĠçĮĽ": 2999,
      "Ġå¡«": 3000,
      "Ġå¡Į": 3001,
      "åħ±": 3002,
      "åħļ": 3003,
      "Ġå¨ĥ": 3004,
      "Ġçĭ®": 3005,
      "åĽĽ": 3006,
      "åı¸": 3007,
      "Ġæ¨±": 3008,
      "Ġæ½ĩ": 3009,
      "Ġé¾ļ": 3010,
      "ĠæĤ¨": 3011,
      "ĠæĤŁ": 3012,
      "Ġé¥¶": 3013,
      "Ġæ¿Ĵ": 3014,
      "ĠèħĬ": 3015,
      "ĠæļĤ": 3016,
      "Ġçĵ¶": 3017,
      "äºĳ": 3018,
      "æĸ¹": 3019,
      "åĲ¬": 3020,
      "åĲİ": 3021,
      "åĲĳ": 3022,
      "Ġç¢§": 3023,
      "Ġç¢³": 3024,
      "æĹ©": 3025,
      "çĽ¸": 3026,
      "Ġæ¥·": 3027,
      "ç»ĵ": 3028,
      "æĿ¨": 3029,
      "ĠâĹĭ": 3030,
      "Ġé¹°": 3031,
      "Ġé¹¿": 3032,
      "ĠéŃĶ": 3033,
      "åĮº": 3034,
      "åįĹ": 3035,
      "åĨ³": 3036,
      "åĨħ": 3037,
      "åĨľ": 3038,
      "æīĵ": 3039,
      "Ġå´Ń": 3040,
      "å¸Į": 3041,
      "æĺ¨": 3042,
      "Ġå©Ĩ": 3043,
      "ĠçĨĬ": 3044,
      "Ġè¸¢": 3045,
      "Ġé½¿": 3046,
      "Ġèªĵ": 3047,
      "Ġçŀ»": 3048,
      "åĩº": 3049,
      "æ²³": 3050,
      "å·¥": 3051,
      "é¦Ļ": 3052,
      "å¾Ĺ": 3053,
      "çľģ": 3054,
      "ĠæĩĤ": 3055,
      "ä¾Ŀ": 3056,
      "å¹³": 3057,
      "å¹¿": 3058,
      "çĻ¾": 3059,
      "è´Ŀ": 3060,
      "ĠéĨī": 3061,
      "åģļ": 3062,
      "åŁĥ": 3063,
      "è°¢": 3064,
      "éĺ³": 3065,
      "ĠèĸĦ": 3066,
      "ĠèĸĽ": 3067,
      "æĮī": 3068,
      "é¢Ħ": 3069,
      "éĿ¢": 3070,
      "Ġç³ĸ": 3071,
      "å±±": 3072,
      "æĦı": 3073,
      "èµ°": 3074,
      "éĴĪ": 3075,
      "Ġèķ´": 3076,
      "ĠéĦĤ": 3077,
      "æ¢ģ": 3078,
      "çĲĨ": 3079,
      "æıĲ": 3080,
      "II": 3081,
      "¡Ĥ": 3082,
      "¨ģ": 3083,
      "©¹": 3084,
      "¶Ī": 3085,
      "·¯": 3086,
      "¹ĸ": 3087,
      "º¦": 3088,
      "¼ĸ": 3089,
      "½ĺ": 3090,
      "¾³": 3091,
      "¾½": 3092,
      "¾Ļ": 3093,
      "å¿": 3094,
      "åĥ": 3095,
      "å¨ģ": 3096,
      "æģ": 3097,
      "æĳ": 3098,
      "æ¡Ĥ": 3099,
      "æ¶Ī": 3100,
      "æ¹ĸ": 3101,
      "æ½ĺ": 3102,
      "æ¾³": 3103,
      "ç¥": 3104,
      "ç¨": 3105,
      "ç²": 3106,
      "çĩ": 3107,
      "çļ": 3108,
      "çł": 3109,
      "çŃ": 3110,
      "ç¼ĸ": 3111,
      "è¶": 3112,
      "èĤ": 3113,
      "èĲ": 3114,
      "èĳ": 3115,
      "è·¯": 3116,
      "è¾½": 3117,
      "é£": 3118,
      "éº¦": 3119,
      "é¾Ļ": 3120,
      "ĠL": 3121,
      "Ġh": 3122,
      "Ġn": 3123,
      "ĳ«": 3124,
      "łķ": 3125,
      "ĠèĹ": 3126,
      "Ġè¤Ĳ": 3127,
      "Ġèłķ": 3128,
      "Ġéĳ«": 3129,
      "Ġä¸²": 3130,
      "Ġä¸Ļ": 3131,
      "ĠäºŃ": 3132,
      "Ġåħ½": 3133,
      "Ġåħĳ": 3134,
      "Ġæľ½": 3135,
      "Ġä»Ĩ": 3136,
      "Ġä»ĩ": 3137,
      "Ġä»ķ": 3138,
      "Ġå¤¸": 3139,
      "ĠåıĻ": 3140,
      "ĠåıĽ": 3141,
      "ĠåıŃ": 3142,
      "ĠåĽĬ": 3143,
      "ĠåĽļ": 3144,
      "ĠåľŃ": 3145,
      "ĠåĪ®": 3146,
      "Ġè¿Ń": 3147,
      "ĠåĲ¾": 3148,
      "ĠåĲĲ": 3149,
      "Ġç»°": 3150,
      "Ġç»³": 3151,
      "Ġæĺ§": 3152,
      "ĠæĺĢ": 3153,
      "ĠæĺĬ": 3154,
      "ĠæĺŃ": 3155,
      "Ġæĸĳ": 3156,
      "Ġæĸĵ": 3157,
      "Ġå°¹": 3158,
      "Ġå°¿": 3159,
      "Ġè®¼": 3160,
      "Ġåį¦": 3161,
      "ĠæĪİ": 3162,
      "ĠæĪļ": 3163,
      "Ġè¯¦": 3164,
      "Ġè¯«": 3165,
      "ĠåĨĴ": 3166,
      "ĠåĨķ": 3167,
      "ĠæĿī": 3168,
      "ĠåŃļ": 3169,
      "ĠåŃľ": 3170,
      "ĠåŃĿ": 3171,
      "ĠåŃŁ": 3172,
      "Ġå·¢": 3173,
      "Ġå·¾": 3174,
      "ĠåĴ½": 3175,
      "ĠåĴı": 3176,
      "Ġåĩ¸": 3177,
      "Ġåĩī": 3178,
      "Ġå¸Ĩ": 3179,
      "Ġå¸ĸ": 3180,
      "ĠæĬĳ": 3181,
      "Ġè¡į": 3182,
      "Ġè¡Ķ": 3183,
      "ĠæĶĢ": 3184,
      "Ġå¼Ħ": 3185,
      "Ġèµ£": 3186,
      "Ġèµģ": 3187,
      "ĠèµĤ": 3188,
      "Ġèµĥ": 3189,
      "Ġèµĭ": 3190,
      "Ġèµļ": 3191,
      "ĠåĮª": 3192,
      "ĠåĮĢ": 3193,
      "Ġåºŀ": 3194,
      "Ġå¯¥": 3195,
      "Ġå¯¸": 3196,
      "Ġå¯Ħ": 3197,
      "Ġæī®": 3198,
      "Ġæī³": 3199,
      "Ġæī¼": 3200,
      "ĠèĢĹ": 3201,
      "Ġç§ī": 3202,
      "Ġå¾½": 3203,
      "Ġéĺ®": 3204,
      "ĠéĺĢ": 3205,
      "Ġéĺİ": 3206,
      "ĠéĢ®": 3207,
      "ĠéĢ»": 3208,
      "ĠéĢ¾": 3209,
      "Ġéĥģ": 3210,
      "Ġå¥¸": 3211,
      "ĠåĳĢ": 3212,
      "ĠåĳĲ": 3213,
      "Ġåİ¢": 3214,
      "Ġåİķ": 3215,
      "Ġåİĺ": 3216,
      "ĠæĢ¡": 3217,
      "ĠæĢľ": 3218,
      "Ġè§ħ": 3219,
      "Ġæµ´": 3220,
      "ĠæµĨ": 3221,
      "Ġæµĩ": 3222,
      "Ġæµĳ": 3223,
      "Ġæķĸ": 3224,
      "Ġæłĭ": 3225,
      "ĠéĹª": 3226,
      "ĠéĹ¹": 3227,
      "ĠéĹ½": 3228,
      "Ġçİ²": 3229,
      "Ġçİº": 3230,
      "Ġçİ»": 3231,
      "Ġçīº": 3232,
      "ĠéĻĭ": 3233,
      "Ġçº¤": 3234,
      "Ġçº±": 3235,
      "Ġåī²": 3236,
      "Ġèĥ¸": 3237,
      "ĠèĥĢ": 3238,
      "Ġèĥĥ": 3239,
      "Ġæ²«": 3240,
      "Ġæ²¾": 3241,
      "Ġæ²Ń": 3242,
      "Ġæ³£": 3243,
      "Ġæ³³": 3244,
      "Ġæ³Ĭ": 3245,
      "ĠèĩĤ": 3246,
      "Ġæŀī": 3247,
      "Ġæ¯Ļ": 3248,
      "ĠæĮ¡": 3249,
      "ĠæĮļ": 3250,
      "ĠæĮł": 3251,
      "Ġéķĳ": 3252,
      "Ġéķķ": 3253,
      "Ġä¿©": 3254,
      "Ġä¿Ĺ": 3255,
      "Ġä¿Ń": 3256,
      "ĠåŁĭ": 3257,
      "Ġæĭ£": 3258,
      "Ġæĭ¯": 3259,
      "Ġæĭ¾": 3260,
      "ĠæĭĹ": 3261,
      "Ġæİ©": 3262,
      "Ġæİ·": 3263,
      "Ġæİº": 3264,
      "Ġç¾¡": 3265,
      "Ġç¾Ķ": 3266,
      "Ġæ±²": 3267,
      "Ġè¾¨": 3268,
      "Ġæ¬²": 3269,
      "Ġçľ¶": 3270,
      "Ġç«¿": 3271,
      "Ġç¤ģ": 3272,
      "ĠåĵĢ": 3273,
      "ĠåĵĦ": 3274,
      "Ġå§¥": 3275,
      "Ġå§»": 3276,
      "Ġå§ļ": 3277,
      "Ġå§ľ": 3278,
      "ĠèģĬ": 3279,
      "Ġè°¦": 3280,
      "Ġè°¨": 3281,
      "Ġè°¶": 3282,
      "Ġçķ´": 3283,
      "Ġçķ¹": 3284,
      "ĠèĤĮ": 3285,
      "ĠåĿĤ": 3286,
      "ĠåĿĬ": 3287,
      "ĠåĿİ": 3288,
      "ĠåĿĳ": 3289,
      "ĠåĿĿ": 3290,
      "ĠåĿł": 3291,
      "Ġèī³": 3292,
      "Ġæ¸£": 3293,
      "Ġæ¸²": 3294,
      "Ġæ¸´": 3295,
      "ĠçĿ¹": 3296,
      "ĠçĿģ": 3297,
      "ä¸ª": 3298,
      "ä¸°": 3299,
      "ä¸ģ": 3300,
      "ä¸ĥ": 3301,
      "Ġä¾Ī": 3302,
      "Ġç©Ĺ": 3303,
      "ĠæĻĥ": 3304,
      "ĠæĻĸ": 3305,
      "Ġç½Ĥ": 3306,
      "Ġè¶ģ": 3307,
      "Ġè¶Ł": 3308,
      "ĠåĢª": 3309,
      "ĠåĢĺ": 3310,
      "ĠçŁ®": 3311,
      "ĠéĤ¹": 3312,
      "Ġéļĺ": 3313,
      "Ġæį¡": 3314,
      "Ġæį£": 3315,
      "Ġæį·": 3316,
      "ĠæįĤ": 3317,
      "Ġæįī": 3318,
      "Ġå²Ń": 3319,
      "ĠèĲĮ": 3320,
      "ä»»": 3321,
      "Ġæ·Ħ": 3322,
      "Ġæ·ĭ": 3323,
      "ĠçĤ®": 3324,
      "ĠçĤī": 3325,
      "ĠçĤľ": 3326,
      "Ġèĭį": 3327,
      "ĠçĻľ": 3328,
      "Ġç²¤": 3329,
      "Ġç²¥": 3330,
      "Ġç²Ł": 3331,
      "ĠèįĨ": 3332,
      "Ġçģ¿": 3333,
      "Ġé©°": 3334,
      "Ġé©¹": 3335,
      "Ġé©¿": 3336,
      "Ġå£¶": 3337,
      "è¿ĩ": 3338,
      "è¿Ĳ": 3339,
      "è¿Ľ": 3340,
      "Ġè¢Ĵ": 3341,
      "ĠéĶ£": 3342,
      "ĠéĶ°": 3343,
      "ĠéĶģ": 3344,
      "ĠéĶħ": 3345,
      "ĠèĪ°": 3346,
      "ĠèĪ±": 3347,
      "Ġæ¶©": 3348,
      "Ġç±½": 3349,
      "ĠèİĴ": 3350,
      "Ġèİŀ": 3351,
      "Ġéľį": 3352,
      "Ġéľı": 3353,
      "ĠæģĴ": 3354,
      "ĠèĬľ": 3355,
      "ĠèĬĿ": 3356,
      "Ġéĵ¢": 3357,
      "Ġéĵ¸": 3358,
      "Ġéĵº": 3359,
      "ĠéĵĿ": 3360,
      "ĠçĦ°": 3361,
      "ĠçĦķ": 3362,
      "ĠéĴ»": 3363,
      "ĠéĴĵ": 3364,
      "ĠéĴŀ": 3365,
      "ĠéĴł": 3366,
      "Ġç¼Ģ": 3367,
      "Ġç¼ķ": 3368,
      "Ġç¼ļ": 3369,
      "Ġç¼Ŀ": 3370,
      "Ġçĥ¦": 3371,
      "Ġçĥ½": 3372,
      "ĠçĥĤ": 3373,
      "Ġæ¡ĥ": 3374,
      "Ġæ¡Ĩ": 3375,
      "Ġéħ±": 3376,
      "Ġéħ½": 3377,
      "Ġéħļ": 3378,
      "Ġåķ¥": 3379,
      "Ġåķ¦": 3380,
      "Ġåķ§": 3381,
      "Ġæ»ķ": 3382,
      "Ġæ£į": 3383,
      "Ġæ®ī": 3384,
      "Ġèºº": 3385,
      "Ġè£¸": 3386,
      "Ġåĸ§": 3387,
      "ĠåĸĢ": 3388,
      "Ġåĸĩ": 3389,
      "Ġéª¼": 3390,
      "ĠéªĨ": 3391,
      "ĠéªĹ": 3392,
      "ĠçĪ·": 3393,
      "ĠçĪ½": 3394,
      "ĠæĳĶ": 3395,
      "ĠèĮ«": 3396,
      "ĠåĦĴ": 3397,
      "Ġçĸ²": 3398,
      "Ġçĸ¼": 3399,
      "ĠçĸŁ": 3400,
      "Ġåŀ£": 3401,
      "ĠåŀĤ": 3402,
      "Ġèŀº": 3403,
      "ĠèĦĤ": 3404,
      "ĠèĦĬ": 3405,
      "Ġçªį": 3406,
      "ĠçªŁ": 3407,
      "ĠçĮ©": 3408,
      "Ġæº¢": 3409,
      "Ġæº¶": 3410,
      "ĠçĬ¹": 3411,
      "Ġç¦ħ": 3412,
      "åħ«": 3413,
      "åħŃ": 3414,
      "Ġå¨Ł": 3415,
      "Ġç¯Ĩ": 3416,
      "Ġèĳ¬": 3417,
      "ĠèĻ¹": 3418,
      "ä½Ľ": 3419,
      "ĠåĻª": 3420,
      "ĠåĻ¬": 3421,
      "åı¤": 3422,
      "åıį": 3423,
      "Ġæ½¢": 3424,
      "Ġé¾Ł": 3425,
      "ĠæĤĦ": 3426,
      "ĠæħĪ": 3427,
      "ĠæħĮ": 3428,
      "Ġæħİ": 3429,
      "ĠèıĬ": 3430,
      "Ġåĭī": 3431,
      "Ġåĭĺ": 3432,
      "Ġåĥ»": 3433,
      "Ġåłµ": 3434,
      "Ġèħ¹": 3435,
      "Ġèħ»": 3436,
      "Ġæļ¨": 3437,
      "äºĶ": 3438,
      "æŃ¹": 3439,
      "å½Ń": 3440,
      "åĲ´": 3441,
      "ĠèĴľ": 3442,
      "çĶ»": 3443,
      "çĶŁ": 3444,
      "Ġç¢İ": 3445,
      "Ġé¼»": 3446,
      "ĠåĤ£": 3447,
      "ĠåĤ²": 3448,
      "æĹ¢": 3449,
      "æĹ§": 3450,
      "Ġç¿ģ": 3451,
      "Ġç¿Ķ": 3452,
      "Ġç¿ł": 3453,
      "Ġçĳ°": 3454,
      "Ġçĳ¾": 3455,
      "ç¾¤": 3456,
      "Ġæ¥ł": 3457,
      "å¤«": 3458,
      "å¤į": 3459,
      "Ġå³¦": 3460,
      "Ġå³¨": 3461,
      "å®ĭ": 3462,
      "è¯´": 3463,
      "è¯·": 3464,
      "è¯»": 3465,
      "åĪ©": 3466,
      "åĪļ": 3467,
      "åĪĿ": 3468,
      "ç»¼": 3469,
      "ç»Ł": 3470,
      "Ġé¹ħ": 3471,
      "Ġé¹Ń": 3472,
      "å°¤": 3473,
      "å°¼": 3474,
      "åĮ»": 3475,
      "åĮħ": 3476,
      "åįİ": 3477,
      "åİ¿": 3478,
      "æī¶": 3479,
      "æīİ": 3480,
      "Ġå´ĸ": 3481,
      "æĬ±": 3482,
      "æĬķ": 3483,
      "æĬĹ": 3484,
      "ä¼´": 3485,
      "ä¼ģ": 3486,
      "å¸¸": 3487,
      "æ¯Ķ": 3488,
      "æ¯Ľ": 3489,
      "Ġå©¿": 3490,
      "ĠçĨ¬": 3491,
      "Ġèĵī": 3492,
      "Ġè¸µ": 3493,
      "Ġè¸Ĭ": 3494,
      "éĤ¹": 3495,
      "ä¹Ŀ": 3496,
      "ĠçŀĴ": 3497,
      "ĠèĶ¡": 3498,
      "åĩ¡": 3499,
      "Ġåĺ²": 3500,
      "ĠåĺŃ": 3501,
      "å¼º": 3502,
      "æ²¹": 3503,
      "æ²»": 3504,
      "ĠèĨľ": 3505,
      "æ³¢": 3506,
      "éĢł": 3507,
      "Ġåªļ": 3508,
      "åĬ³": 3509,
      "æ±ī": 3510,
      "Ġæĵħ": 3511,
      "ä¿¡": 3512,
      "æĽ´": 3513,
      "æĽ¹": 3514,
      "ĠæĩĴ": 3515,
      "ä¾¯": 3516,
      "æĢĿ": 3517,
      "çĻ»": 3518,
      "èĭ¦": 3519,
      "èĭ±": 3520,
      "éĻķ": 3521,
      "ĠçĴĥ": 3522,
      "ĠèĽ®": 3523,
      "ĠèĽĩ": 3524,
      "ĠèĽĻ": 3525,
      "è°ģ": 3526,
      "è°Ī": 3527,
      "Ġéŀį": 3528,
      "ĠéŀŃ": 3529,
      "é»Ħ": 3530,
      "é»İ": 3531,
      "é»ĳ": 3532,
      "Ġçĺ¤": 3533,
      "Ġçĺ«": 3534,
      "Ġè¹Ħ": 3535,
      "æ¸©": 3536,
      "æ¸¸": 3537,
      "æ¸ħ": 3538,
      "æĮĩ": 3539,
      "é¢ĺ": 3540,
      "éĿŀ": 3541,
      "ĠIII": 3542,
      "å¡ĳ": 3543,
      "å¡Ķ": 3544,
      "åŃĻ": 3545,
      "Ġèķ¾": 3546,
      "Ġèľļ": 3547,
      "Ġèľľ": 3548,
      "ĠéĦĻ": 3549,
      "å¢¨": 3550,
      "åĢ¼": 3551,
      "åĶ¯": 3552,
      "åĶĲ": 3553,
      "æĶ¹": 3554,
      "æĻ®": 3555,
      "æŁĲ": 3556,
      "ç©º": 3557,
      "ç©Ĩ": 3558,
      "ç®¡": 3559,
      "ç®Ģ": 3560,
      "çºª": 3561,
      "çŁ¥": 3562,
      "çŁ³": 3563,
      "è§£": 3564,
      "èī¯": 3565,
      "é¡¶": 3566,
      "Ġèĺ¸": 3567,
      "Ġèĺĳ": 3568,
      "ĠèļĢ": 3569,
      "ĠèļĬ": 3570,
      "å£®": 3571,
      "çĥŃ": 3572,
      "Ġè¤Ĥ": 3573,
      "ĠèĿ¶": 3574,
      "Ġé«ĵ": 3575,
      "åĥı": 3576,
      "æĳ©": 3577,
      "çļ®": 3578,
      "çłĶ": 3579,
      "¢«": 3580,
      "¢±": 3581,
      "¥±": 3582,
      "¦¥": 3583,
      "§½": 3584,
      "°ĩ": 3585,
      "³Į": 3586,
      "³ĸ": 3587,
      "´§": 3588,
      "´Ķ": 3589,
      "µĮ": 3590,
      "¸£": 3591,
      "¼ĵ": 3592,
      "¼Ķ": 3593,
      "½¦": 3594,
      "½Ĳ": 3595,
      "¿Ł": 3596,
      "âĸ": 3597,
      "âĹĭ": 3598,
      "åĳ": 3599,
      "åĴ": 3600,
      "åķ": 3601,
      "åĿ": 3602,
      "åł": 3603,
      "å§Ĳ": 3604,
      "å¦¥": 3605,
      "å´Ķ": 3606,
      "æĩ": 3607,
      "æĭ": 3608,
      "æİ": 3609,
      "æĲ": 3610,
      "æ¼Ķ": 3611,
      "çħ": 3612,
      "çĨ": 3613,
      "çĬ": 3614,
      "çĮ": 3615,
      "çĵ": 3616,
      "ç³»": 3617,
      "ç¢±": 3618,
      "ç´§": 3619,
      "ç¿Ł": 3620,
      "èĦ": 3621,
      "èĪ": 3622,
      "èĬ": 3623,
      "èĮ": 3624,
      "èİ": 3625,
      "èı": 3626,
      "èĵ": 3627,
      "èĹı": 3628,
      "è©¹": 3629,
      "è¢«": 3630,
      "è½¦": 3631,
      "éĶ": 3632,
      "éī´": 3633,
      "é¥±": 3634,
      "é³ĸ": 3635,
      "é¸£": 3636,
      "é¼ĵ": 3637,
      "é½Ĳ": 3638,
      "Ġ+": 3639,
      "ĠG": 3640,
      "ĠM": 3641,
      "ĠW": 3642,
      "Ġd": 3643,
      "Ġi": 3644,
      "Ġk": 3645,
      "Ġr": 3646,
      "Ġs": 3647,
      "Ģļ": 3648,
      "ļ·": 3649,
      "Ł¹": 3650,
      "ĠåµĮ": 3651,
      "Ġåļ·": 3652,
      "Ġæ§½": 3653,
      "Ġç°ĩ": 3654,
      "ĠçĢļ": 3655,
      "Ġè©¹": 3656,
      "ĠèŁ¹": 3657,
      "Ġé¥¿": 3658,
      "Ġé³Į": 3659,
      "Ġä¸¸": 3660,
      "Ġä¸ĳ": 3661,
      "ãĢĭ": 3662,
      "ãĢı": 3663,
      "ĠãĢĪ": 3664,
      "ĠãĢī": 3665,
      "Ġçļĭ": 3666,
      "Ġäº¢": 3667,
      "Ġäº¨": 3668,
      "Ġäºµ": 3669,
      "Ġåħ¹": 3670,
      "ĠåħĨ": 3671,
      "Ġåħľ": 3672,
      "Ġæľ¦": 3673,
      "ĠæľĶ": 3674,
      "Ġä»Ķ": 3675,
      "Ġä»Ļ": 3676,
      "Ġå¤·": 3677,
      "Ġåı©": 3678,
      "Ġåı®": 3679,
      "Ġåıī": 3680,
      "ĠåĪ¹": 3681,
      "ĠåĪł": 3682,
      "Ġå®¥": 3683,
      "Ġå®´": 3684,
      "Ġå®¸": 3685,
      "Ġå®ħ": 3686,
      "Ġå®ĵ": 3687,
      "Ġå®ķ": 3688,
      "Ġå®Ļ": 3689,
      "Ġå®Ľ": 3690,
      "Ġè¿¥": 3691,
      "Ġè¿¸": 3692,
      "ĠåĲ»": 3693,
      "ĠåĲ¼": 3694,
      "ĠåĲı": 3695,
      "ĠåĲĵ": 3696,
      "ĠåĲŁ": 3697,
      "ĠåĬ¾": 3698,
      "ĠåĬĿ": 3699,
      "Ġç»¢": 3700,
      "Ġç»¥": 3701,
      "Ġç»µ": 3702,
      "Ġç»¸": 3703,
      "Ġç»½": 3704,
      "Ġç»ħ": 3705,
      "Ġç»Į": 3706,
      "Ġç»ļ": 3707,
      "Ġç»Ľ": 3708,
      "Ġæĺı": 3709,
      "Ġæĺķ": 3710,
      "Ġå¹¢": 3711,
      "Ġä½£": 3712,
      "Ġä½¤": 3713,
      "Ġä½ĳ": 3714,
      "Ġä½Ŀ": 3715,
      "Ġæĸ¡": 3716,
      "Ġæĸ¥": 3717,
      "Ġæĸĭ": 3718,
      "ĠæĸĲ": 3719,
      "Ġä¼ŀ": 3720,
      "ĠæĹŃ": 3721,
      "ĠçĶ©": 3722,
      "ĠçĶ«": 3723,
      "ĠçĶ¬": 3724,
      "Ġå°¸": 3725,
      "Ġè®ª": 3726,
      "Ġè®³": 3727,
      "Ġè®´": 3728,
      "Ġä¹¾": 3729,
      "Ġä¹į": 3730,
      "Ġåįµ": 3731,
      "Ġåįī": 3732,
      "ĠæĪĬ": 3733,
      "ĠæĪĮ": 3734,
      "ĠæĪĴ": 3735,
      "Ġè¯¡": 3736,
      "Ġè¯£": 3737,
      "Ġè¯¤": 3738,
      "Ġè¯°": 3739,
      "Ġè¯²": 3740,
      "Ġè¯Ģ": 3741,
      "Ġè¯Ī": 3742,
      "Ġè¯ĭ": 3743,
      "ĠåĨ¥": 3744,
      "ĠæĿ·": 3745,
      "ĠæĿĨ": 3746,
      "ĠæĿı": 3747,
      "ĠæĿł": 3748,
      "ĠåŃ¢": 3749,
      "ĠåŃº": 3750,
      "Ġå·«": 3751,
      "Ġå··": 3752,
      "Ġå·ħ": 3753,
      "ĠåĴª": 3754,
      "ĠåĴ±": 3755,
      "ĠåĴĢ": 3756,
      "ĠåĴĨ": 3757,
      "Ġåĩ³": 3758,
      "Ġåĩ¹": 3759,
      "ĠåĩĦ": 3760,
      "Ġå¸½": 3761,
      "Ġå¸ħ": 3762,
      "ĠæĬ¨": 3763,
      "ĠæĬ¬": 3764,
      "ĠæĬ¹": 3765,
      "ĠæĬī": 3766,
      "ĠæĬĴ": 3767,
      "Ġè¡°": 3768,
      "ĠæĶ¥": 3769,
      "Ġå¼¦": 3770,
      "Ġå¼ĵ": 3771,
      "ĠèµĮ": 3772,
      "ĠèµĲ": 3773,
      "ĠèµĿ": 3774,
      "ĠèµŃ": 3775,
      "ĠåĮ®": 3776,
      "ĠåĮĪ": 3777,
      "ĠåĮł": 3778,
      "Ġå¯º": 3779,
      "Ġå¯ĵ": 3780,
      "Ġæīĩ": 3781,
      "Ġæīī": 3782,
      "ĠæīĽ": 3783,
      "Ġå±¹": 3784,
      "Ġå±¿": 3785,
      "Ġè´¤": 3786,
      "Ġè´®": 3787,
      "Ġè´±": 3788,
      "Ġè´¼": 3789,
      "Ġç§©": 3790,
      "Ġå¾ĩ": 3791,
      "Ġå¾Ĭ": 3792,
      "Ġå¾ĺ": 3793,
      "ĠéĺĲ": 3794,
      "Ġéĺĳ": 3795,
      "ĠéĺĻ": 3796,
      "Ġéĺľ": 3797,
      "ĠéĢ¸": 3798,
      "ĠéĢĬ": 3799,
      "ĠéĢŀ": 3800,
      "Ġéĥ¡": 3801,
      "Ġéĥħ": 3802,
      "Ġå¥ĳ": 3803,
      "ĠåİĮ": 3804,
      "ĠæĢª": 3805,
      "ĠæĢ¯": 3806,
      "ĠæĢĸ": 3807,
      "ĠæĢł": 3808,
      "ĠçĽ¼": 3809,
      "ĠçĽİ": 3810,
      "ĠæµĬ": 3811,
      "Ġæµľ": 3812,
      "ĠæķĽ": 3813,
      "Ġæłİ": 3814,
      "Ġæłĵ": 3815,
      "Ġæłĸ": 3816,
      "ĠéĿ¶": 3817,
      "ĠéĹ·": 3818,
      "Ġçİ«": 3819,
      "Ġçī¡": 3820,
      "ĠçīŁ": 3821,
      "ĠæŃª": 3822,
      "ĠæŃī": 3823,
      "Ġå½¤": 3824,
      "Ġå¿Į": 3825,
      "Ġå¿ı": 3826,
      "ĠéĻ¨": 3827,
      "ĠéĻ²": 3828,
      "ĠéĻµ": 3829,
      "ĠéĻĢ": 3830,
      "Ġçº¬": 3831,
      "Ġé¢ĵ": 3832,
      "Ġåī¿": 3833,
      "Ġåīĸ": 3834,
      "ĠçĲ¢": 3835,
      "ĠçĲħ": 3836,
      "Ġèĥ¥": 3837,
      "Ġèĥ§": 3838,
      "Ġèĥ«": 3839,
      "Ġèĥ³": 3840,
      "Ġèĥļ": 3841,
      "Ġæ²¦": 3842,
      "Ġæ²±": 3843,
      "Ġæ²½": 3844,
      "Ġæ²Ĥ": 3845,
      "Ġæ²Į": 3846,
      "Ġæ²ı": 3847,
      "Ġæ³µ": 3848,
      "Ġæ³·": 3849,
      "Ġæ³¾": 3850,
      "Ġæ³Ħ": 3851,
      "Ġæ³Į": 3852,
      "Ġèĩ»": 3853,
      "Ġèĩ¾": 3854,
      "Ġæŀ¢": 3855,
      "Ġæŀĩ": 3856,
      "Ġæ¯ĭ": 3857,
      "Ġæ¯Ĺ": 3858,
      "Ġéķ°": 3859,
      "Ġä¿ĺ": 3860,
      "ĠçŃ·": 3861,
      "ĠçŃĲ": 3862,
      "ĠçŃĽ": 3863,
      "Ġæĭ¦": 3864,
      "Ġæĭ§": 3865,
      "ĠæĭĤ": 3866,
      "Ġæĭĩ": 3867,
      "ĠæĭĪ": 3868,
      "ĠæĭĮ": 3869,
      "Ġæĭľ": 3870,
      "Ġæİ£": 3871,
      "Ġæİĩ": 3872,
      "Ġæİı": 3873,
      "Ġæİł": 3874,
      "Ġç¾ģ": 3875,
      "Ġç¾Į": 3876,
      "Ġç¾ļ": 3877,
      "Ġç¾ŀ": 3878,
      "Ġæ±ª": 3879,
      "Ġæ±¹": 3880,
      "Ġæ±¾": 3881,
      "Ġæ±ģ": 3882,
      "Ġæ±Ĳ": 3883,
      "Ġæ±Ľ": 3884,
      "Ġæ±ŀ": 3885,
      "Ġæ´Į": 3886,
      "Ġè¾±": 3887,
      "Ġè¾į": 3888,
      "Ġè¾Ĺ": 3889,
      "Ġè¾ľ": 3890,
      "Ġçľ¸": 3891,
      "Ġçľº": 3892,
      "Ġçľł": 3893,
      "Ġç«£": 3894,
      "Ġç«ĸ": 3895,
      "ĠæĦ¤": 3896,
      "Ġåĵ¨": 3897,
      "Ġåĵ®": 3898,
      "Ġåĵ¼": 3899,
      "Ġåĵ½": 3900,
      "ĠåĵĨ": 3901,
      "Ġåĵĩ": 3902,
      "Ġåĵĳ": 3903,
      "ĠåĵĹ": 3904,
      "ĠåĵŃ": 3905,
      "Ġæĥ§": 3906,
      "Ġæĥ°": 3907,
      "Ġæĥ¹": 3908,
      "Ġæĥķ": 3909,
      "Ġè½©": 3910,
      "Ġè½¿": 3911,
      "Ġå»ĵ": 3912,
      "Ġå§£": 3913,
      "Ġå§¨": 3914,
      "ĠèģĤ": 3915,
      "Ġèģĭ": 3916,
      "Ġè°©": 3917,
      "Ġè°ª": 3918,
      "Ġè°²": 3919,
      "Ġè°ħ": 3920,
      "Ġè°į": 3921,
      "Ġè°İ": 3922,
      "Ġè°Ĵ": 3923,
      "Ġè°Ļ": 3924,
      "Ġè°Ľ": 3925,
      "Ġè°ľ": 3926,
      "Ġè°Ń": 3927,
      "ĠéĽı": 3928,
      "ĠçķĶ": 3929,
      "Ġéģ´": 3930,
      "Ġç¨»": 3931,
      "Ġç¨¼": 3932,
      "Ġç¨½": 3933,
      "ĠèĤ´": 3934,
      "ĠèĤ¾": 3935,
      "ĠèĤĩ": 3936,
      "ĠèĤĺ": 3937,
      "ĠèĤł": 3938,
      "ĠåĿ·": 3939,
      "ĠåĿŁ": 3940,
      "Ġèīĺ": 3941,
      "Ġæ¸¤": 3942,
      "Ġæ¸į": 3943,
      "Ġæ¸İ": 3944,
      "Ġæ¸Ŀ": 3945,
      "Ġç¬Ĩ": 3946,
      "Ġå¢©": 3947,
      "ĠçĿ¨": 3948,
      "ĠçĿ«": 3949,
      "ĠçĿĲ": 3950,
      "ä¸¥": 3951,
      "ä¸´": 3952,
      "ä¸½": 3953,
      "ä¸Ī": 3954,
      "ä¸ľ": 3955,
      "Ġä¾¦": 3956,
      "Ġä¾®": 3957,
      "Ġä¾į": 3958,
      "Ġç©¹": 3959,
      "Ġçł¸": 3960,
      "Ġçłº": 3961,
      "ĠçłĤ": 3962,
      "ĠçłĿ": 3963,
      "ĠçłŃ": 3964,
      "Ġé¦Ī": 3965,
      "Ġé¦ĭ": 3966,
      "Ġè·¤": 3967,
      "Ġè··": 3968,
      "Ġè·ĭ": 3969,
      "ĠæĻ°": 3970,
      "ĠæĻķ": 3971,
      "ĠæĻŁ": 3972,
      "Ġé£Ļ": 3973,
      "ĠåĢļ": 3974,
      "ĠçŁ¶": 3975,
      "Ġç¥¸": 3976,
      "Ġç¥ī": 3977,
      "Ġç¥Ľ": 3978,
      "ĠéĤª": 3979,
      "ĠéĤ¬": 3980,
      "ĠéĤ¯": 3981,
      "ĠéĤĥ": 3982,
      "ĠéĤĿ": 3983,
      "ĠæĽ¦": 3984,
      "Ġéļ½": 3985,
      "Ġéļħ": 3986,
      "ĠéļĹ": 3987,
      "Ġåģ»": 3988,
      "Ġå¦©": 3989,
      "Ġå¦ĸ": 3990,
      "Ġæįħ": 3991,
      "Ġæįİ": 3992,
      "Ġå²Ĥ": 3993,
      "Ġå²Ĳ": 3994,
      "ĠèĲ¦": 3995,
      "ĠèĲ§": 3996,
      "ĠèĲĥ": 3997,
      "Ġæ·¦": 3998,
      "Ġæ·Ģ": 3999,
      "Ġæ·ĳ": 4000,
      "ĠçĤ«": 4001,
      "ĠçĤ¬": 4002,
      "ĠçĤĬ": 4003,
      "ĠçĤĸ": 4004,
      "Ġèĭ¹": 4005,
      "Ġèĭĩ": 4006,
      "Ġèĭİ": 4007,
      "Ġèĭĳ": 4008,
      "ĠæŁ¯": 4009,
      "ĠæŁļ": 4010,
      "Ġç²ķ": 4011,
      "Ġç²ĺ": 4012,
      "Ġèį¼": 4013,
      "ĠèįŁ": 4014,
      "Ġç´Ĭ": 4015,
      "Ġçģ¸": 4016,
      "Ġé©®": 4017,
      "Ġé©³": 4018,
      "Ġé©·": 4019,
      "Ġé©¼": 4020,
      "Ġé©Ń": 4021,
      "Ġç¡«": 4022,
      "è¿ģ": 4023,
      "è¿Ħ": 4024,
      "Ġè¢ľ": 4025,
      "ĠéĶ¤": 4026,
      "ĠéĶ²": 4027,
      "ĠéĶĦ": 4028,
      "ĠèĪµ": 4029,
      "ĠèĪ¶": 4030,
      "ĠèĪĮ": 4031,
      "Ġæ¶¡": 4032,
      "Ġæ¶¤": 4033,
      "Ġæ¶§": 4034,
      "Ġæ¶¯": 4035,
      "Ġæ¶¿": 4036,
      "Ġæ¶ĳ": 4037,
      "Ġæ¶ķ": 4038,
      "Ġæ¶Ŀ": 4039,
      "Ġèİº": 4040,
      "Ġéľľ": 4041,
      "Ġæģ¤": 4042,
      "Ġæģ¸": 4043,
      "Ġæģĥ": 4044,
      "Ġæģĭ": 4045,
      "æľ±": 4046,
      "æľĿ": 4047,
      "ĠèĬ¥": 4048,
      "ĠèĬ¦": 4049,
      "ĠèĬ®": 4050,
      "ĠèĬ¯": 4051,
      "ĠèĬ½": 4052,
      "ĠèĬĻ": 4053,
      "ĠèĬŃ": 4054,
      "Ġéĵ¬": 4055,
      "Ġéĵ±": 4056,
      "ĠéĵĨ": 4057,
      "ĠéĴ¤": 4058,
      "ĠéĴ§": 4059,
      "ĠéĴ¬": 4060,
      "ĠéĴĻ": 4061,
      "ĠéĴĿ": 4062,
      "Ġç¼°": 4063,
      "Ġç¼³": 4064,
      "Ġç¼ī": 4065,
      "Ġç¼ł": 4066,
      "Ġçĥ«": 4067,
      "Ġçĥģ": 4068,
      "ĠçĥĻ": 4069,
      "ĠçĥĽ": 4070,
      "Ġæ¡¦": 4071,
      "Ġæ¡Ķ": 4072,
      "Ġéħ¬": 4073,
      "Ġéħ®": 4074,
      "Ġéħ¶": 4075,
      "Ġåķ¡": 4076,
      "Ġåķľ": 4077,
      "Ġæ»Ĥ": 4078,
      "Ġæ»Ķ": 4079,
      "Ġæ£µ": 4080,
      "Ġæ£ķ": 4081,
      "Ġæ®¡": 4082,
      "Ġæ®¿": 4083,
      "Ġæ®ĥ": 4084,
      "Ġèº¯": 4085,
      "Ġèº²": 4086,
      "Ġèºģ": 4087,
      "Ġè£¤": 4088,
      "Ġåĸ·": 4089,
      "Ġåĸī": 4090,
      "Ġåĸĺ": 4091,
      "ĠéªĤ": 4092,
      "Ġéªı": 4093,
      "Ġéªŀ": 4094,
      "ĠçĪµ": 4095,
      "ĠçĪ¸": 4096,
      "ĠçĪ»": 4097,
      "Ġæ¼³": 4098,
      "Ġæ¼Ĩ": 4099,
      "Ġæĳ§": 4100,
      "Ġæĳ¹": 4101,
      "ĠèĮ¬": 4102,
      "ĠèĮµ": 4103,
      "ĠèĮĦ": 4104,
      "ĠèĮĶ": 4105,
      "ĠèĮĹ": 4106,
      "Ġçĸ¡": 4107,
      "Ġçĸı": 4108,
      "ĠçĹª": 4109,
      "ĠçĹ°": 4110,
      "Ġèŀĥ": 4111,
      "ĠèĦ¾": 4112,
      "Ġçı²": 4113,
      "ĠçıĬ": 4114,
      "Ġçıı": 4115,
      "Ġçıŀ": 4116,
      "ĠçªĦ": 4117,
      "ĠçªĴ": 4118,
      "ĠçĮĸ": 4119,
      "ĠçĮĹ": 4120,
      "ĠçĮĿ": 4121,
      "Ġå¡¬": 4122,
      "Ġæº¥": 4123,
      "Ġæºº": 4124,
      "Ġæºĥ": 4125,
      "Ġæºī": 4126,
      "Ġæºľ": 4127,
      "Ġç¦Ħ": 4128,
      "åħ°": 4129,
      "åħ·": 4130,
      "åħ»": 4131,
      "åħī": 4132,
      "æį¢": 4133,
      "æįķ": 4134,
      "Ġå¨±": 4135,
      "Ġå¨¶": 4136,
      "Ġå¨Ĩ": 4137,
      "Ġå¨ĩ": 4138,
      "Ġç¯±": 4139,
      "Ġç¯Ŀ": 4140,
      "Ġçĭ°": 4141,
      "ĠçĭĦ": 4142,
      "ĠçĭĪ": 4143,
      "ĠçĭĹ": 4144,
      "Ġçĭŀ": 4145,
      "Ġçĭł": 4146,
      "Ġèĳ«": 4147,
      "ĠèĳĨ": 4148,
      "ĠèĻĲ": 4149,
      "ĠèĻĶ": 4150,
      "ĠèĻŀ": 4151,
      "ä½¿": 4152,
      "ä½į": 4153,
      "ä½ĵ": 4154,
      "ä½Ļ": 4155,
      "ä½ł": 4156,
      "åĽĬ": 4157,
      "åĽŀ": 4158,
      "åĽŃ": 4159,
      "ĠæĴĩ": 4160,
      "Ġçħİ": 4161,
      "Ġçħŀ": 4162,
      "ĠæĲģ": 4163,
      "ĠæĲħ": 4164,
      "åı°": 4165,
      "åı¶": 4166,
      "åıĪ": 4167,
      "åıĺ": 4168,
      "Ġæ½¸": 4169,
      "Ġæ½į": 4170,
      "Ġæ½ŀ": 4171,
      "Ġé¾ĥ": 4172,
      "Ġé¾ī": 4173,
      "æĪ´": 4174,
      "æĪĺ": 4175,
      "ĠæĤ¼": 4176,
      "Ġæħµ": 4177,
      "Ġæħ·": 4178,
      "Ġèı±": 4179,
      "Ġåĭ°": 4180,
      "Ġåĭ¾": 4181,
      "Ġåĭĭ": 4182,
      "Ġåĥ§": 4183,
      "Ġåĥ³": 4184,
      "Ġåĥļ": 4185,
      "Ġé²ħ": 4186,
      "Ġæ¢¨": 4187,
      "Ġæ¢¯": 4188,
      "Ġæ¢Ń": 4189,
      "Ġé¥²": 4190,
      "Ġé¥¼": 4191,
      "Ġæ¿¡": 4192,
      "Ġæ¿ĳ": 4193,
      "Ġæ¾¡": 4194,
      "Ġæ¾Ī": 4195,
      "Ġæ¾ľ": 4196,
      "Ġåł¤": 4197,
      "Ġèħĭ": 4198,
      "Ġèħł": 4199,
      "Ġæļĩ": 4200,
      "äº¤": 4201,
      "äº«": 4202,
      "äºļ": 4203,
      "æĸ¤": 4204,
      "å½¢": 4205,
      "åĲ¦": 4206,
      "åĲ¸": 4207,
      "åĲĥ": 4208,
      "åĲĪ": 4209,
      "åĲī": 4210,
      "åĲĽ": 4211,
      "ĠèĴ²": 4212,
      "çĶ¨": 4213,
      "çĶ°": 4214,
      "çĶ³": 4215,
      "çĶµ": 4216,
      "Ġç¢¾": 4217,
      "Ġç¢ī": 4218,
      "Ġç¢Į": 4219,
      "Ġç¢ĺ": 4220,
      "ĠåĤĪ": 4221,
      "ĠåĤį": 4222,
      "Ġæ¤°": 4223,
      "Ġæ¤½": 4224,
      "Ġæ¤¿": 4225,
      "Ġæ¤ħ": 4226,
      "Ġæ¤İ": 4227,
      "æĹ¶": 4228,
      "æĹħ": 4229,
      "Ġç¿İ": 4230,
      "Ġç¿Ł": 4231,
      "Ġçĳ¶": 4232,
      "ĠçĳĻ": 4233,
      "Ġçĳļ": 4234,
      "ĠçĳĽ": 4235,
      "ĠçĳŁ": 4236,
      "ç¾ļ": 4237,
      "ç¾ŀ": 4238,
      "çĽ´": 4239,
      "çĽĳ": 4240,
      "å¤ª": 4241,
      "å¤±": 4242,
      "å¤ļ": 4243,
      "Ġå³Ń": 4244,
      "å®Ŀ": 4245,
      "è¯ī": 4246,
      "è¯ļ": 4247,
      "åĪĩ": 4248,
      "ç»§": 4249,
      "ç»´": 4250,
      "ç»Ħ": 4251,
      "ç»Ī": 4252,
      "Ġé¸¦": 4253,
      "Ġé¸½": 4254,
      "Ġé¸¿": 4255,
      "æĿ¾": 4256,
      "æĿľ": 4257,
      "Ġé¹³": 4258,
      "Ġé¹ĥ": 4259,
      "Ġé¹Ĭ": 4260,
      "Ġé¹ļ": 4261,
      "Ġé¹ŀ": 4262,
      "ĠéŃģ": 4263,
      "ĠéŃĦ": 4264,
      "å°ĳ": 4265,
      "å¯Į": 4266,
      "åį¡": 4267,
      "åį¤": 4268,
      "åįĬ": 4269,
      "åįı": 4270,
      "åįļ": 4271,
      "åİĦ": 4272,
      "åĨ¥": 4273,
      "åĨ¬": 4274,
      "åĨ¯": 4275,
      "åĨµ": 4276,
      "åĨ·": 4277,
      "æī§": 4278,
      "Ġå´İ": 4279,
      "Ġå´Ķ": 4280,
      "ç¬Ķ": 4281,
      "æĬ½": 4282,
      "Ġå«ģ": 4283,
      "ä¼°": 4284,
      "ä¼¼": 4285,
      "å¸ķ": 4286,
      "æ¯¡": 4287,
      "æ¯«": 4288,
      "æ¯į": 4289,
      "æ¯Ĵ": 4290,
      "æĺ¥": 4291,
      "æĺ¾": 4292,
      "æĺĶ": 4293,
      "Ġå©·": 4294,
      "Ġå©ī": 4295,
      "ĠçĨ¹": 4296,
      "ĠçĨı": 4297,
      "ĠçĨĶ": 4298,
      "ĠçĨĻ": 4299,
      "Ġèĵĵ": 4300,
      "éĤ®": 4301,
      "éĤµ": 4302,
      "éĤ»": 4303,
      "éĤĵ": 4304,
      "ä¹¦": 4305,
      "ä¹ī": 4306,
      "ä¹ĭ": 4307,
      "ä¹Ĳ": 4308,
      "ä¹Ķ": 4309,
      "å¥¥": 4310,
      "å¥½": 4311,
      "Ġçŀ§": 4312,
      "Ġçŀª": 4313,
      "Ġçŀ¬": 4314,
      "Ġçŀħ": 4315,
      "Ġçŀİ": 4316,
      "Ġçŀł": 4317,
      "ĠèĶ½": 4318,
      "åĩ¤": 4319,
      "åĩŃ": 4320,
      "Ġåĺ±": 4321,
      "Ġåĺ¹": 4322,
      "å¼ķ": 4323,
      "æ²Ī": 4324,
      "æ²Ļ": 4325,
      "è®²": 4326,
      "è®º": 4327,
      "ĠèĨ¨": 4328,
      "ĠèĨ»": 4329,
      "ĠèĨĤ": 4330,
      "ĠèĨĬ": 4331,
      "ĠèĨĿ": 4332,
      "æł¼": 4333,
      "Ġåª³": 4334,
      "Ġæ¦·": 4335,
      "Ġæ¦»": 4336,
      "Ġæ¦Ħ": 4337,
      "Ġæ¦ķ": 4338,
      "å·²": 4339,
      "åĬ¨": 4340,
      "åĬ«": 4341,
      "åĬŀ": 4342,
      "æ±ł": 4343,
      "ĠæĵĤ": 4344,
      "ä¿®": 4345,
      "ä¿Ŀ": 4346,
      "ä¿Ń": 4347,
      "å¾Ī": 4348,
      "å¾Ĳ": 4349,
      "æĽ¼": 4350,
      "æĽĻ": 4351,
      "ç§¦": 4352,
      "ç§§": 4353,
      "ç§į": 4354,
      "éĥ¨": 4355,
      "éĥŃ": 4356,
      "éĹŃ": 4357,
      "ĠæĨĭ": 4358,
      "å¹²": 4359,
      "å¹¸": 4360,
      "å¹ķ": 4361,
      "æ¬¡": 4362,
      "æ¬£": 4363,
      "æĢķ": 4364,
      "è´¢": 4365,
      "è´¤": 4366,
      "è´§": 4367,
      "è´¨": 4368,
      "è´©": 4369,
      "è´º": 4370,
      "èĭ¥": 4371,
      "éĻ¢": 4372,
      "éĻ¤": 4373,
      "éĻª": 4374,
      "ĠçĴĲ": 4375,
      "ĠèĽ³": 4376,
      "ĠèĽĬ": 4377,
      "ĠèĽŁ": 4378,
      "ĠéĨĩ": 4379,
      "ĠéĨĽ": 4380,
      "åģ¥": 4381,
      "æµģ": 4382,
      "æµİ": 4383,
      "æµı": 4384,
      "çīµ": 4385,
      "çīĽ": 4386,
      "è°ĥ": 4387,
      "éĺ²": 4388,
      "åºĦ": 4389,
      "åºĵ": 4390,
      "èģĮ": 4391,
      "èĥ¶": 4392,
      "èĥ½": 4393,
      "èĥľ": 4394,
      "é»Ŀ": 4395,
      "Ġçĺ¦": 4396,
      "Ġçĺ¾": 4397,
      "Ġçĺģ": 4398,
      "Ġè¹²": 4399,
      "Ġèĸª": 4400,
      "æ··": 4401,
      "æĮª": 4402,
      "æķ£": 4403,
      "æķ¦": 4404,
      "æķ°": 4405,
      "æķ´": 4406,
      "æķĳ": 4407,
      "æķĻ": 4408,
      "é¢ľ": 4409,
      "éĿĴ": 4410,
      "Ġç³Ĭ": 4411,
      "Ġç³Ļ": 4412,
      "Ġç³Ł": 4413,
      "å¡ŀ": 4414,
      "å±ħ": 4415,
      "å±Ĭ": 4416,
      "åĵª": 4417,
      "åŃ©": 4418,
      "åŃķ": 4419,
      "åŃĺ": 4420,
      "æĦ¿": 4421,
      "æĦĪ": 4422,
      "æŀĹ": 4423,
      "èµµ": 4424,
      "èµĦ": 4425,
      "é©»": 4426,
      "é²į": 4427,
      "éĩĩ": 4428,
      "éĩĬ": 4429,
      "éĩĮ": 4430,
      "éĩį": 4431,
      "éĩĳ": 4432,
      "éĴ±": 4433,
      "éĴŁ": 4434,
      "Ġèľĩ": 4435,
      "å¢Ļ": 4436,
      "å¢ŀ": 4437,
      "åĢĴ": 4438,
      "åĢĺ": 4439,
      "æ¢¦": 4440,
      "æĶ¶": 4441,
      "æĶ¿": 4442,
      "æĻĭ": 4443,
      "æĻļ": 4444,
      "æŁ¬": 4445,
      "æŁ¯": 4446,
      "çº¢": 4447,
      "çº½": 4448,
      "çĲĥ": 4449,
      "è§Ħ": 4450,
      "è§ī": 4451,
      "èī°": 4452,
      "èīº": 4453,
      "é¡·": 4454,
      "é¡¾": 4455,
      "å£°": 4456,
      "æ´ª": 4457,
      "æ´»": 4458,
      "æ´ģ": 4459,
      "ç«ĭ": 4460,
      "ç«Ļ": 4461,
      "ç«ŀ": 4462,
      "çĥĪ": 4463,
      "çıį": 4464,
      "çıł": 4465,
      "çıŃ": 4466,
      "èį¯": 4467,
      "èį·": 4468,
      "èįī": 4469,
      "Ġè¤¥": 4470,
      "ĠèĿ´": 4471,
      "Ġé«¦": 4472,
      "å¿Ĺ": 4473,
      "å¿ĺ": 4474,
      "æģ°": 4475,
      "æģŃ": 4476,
      "ç¥ĸ": 4477,
      "ç¥Ŀ": 4478,
      "ç¨ĭ": 4479,
      "ç¨İ": 4480,
      "ç²¾": 4481,
      "ç²ī": 4482,
      "çĩĥ": 4483,
      "çĩķ": 4484,
      "çŃ¹": 4485,
      "çŃĶ": 4486,
      "è¶³": 4487,
      "è¶ħ": 4488,
      "èĤĨ": 4489,
      "èĤĸ": 4490,
      "èĲ¥": 4491,
      "èĲ¨": 4492,
      "èĳ¡": 4493,
      "èĳ£": 4494,
      "é£ŀ": 4495,
      "é£Ł": 4496,
      "ĠèĹ¤": 4497,
      "ĠèĹī": 4498,
      "âĸ²": 4499,
      "åĳ¨": 4500,
      "åĴĸ": 4501,
      "åķĨ": 4502,
      "åĿĲ": 4503,
      "åłµ": 4504,
      "æĩĤ": 4505,
      "æĭī": 4506,
      "æİ¥": 4507,
      "æĲŀ": 4508,
      "çħ§": 4509,
      "çĨĬ": 4510,
      "çĬ¶": 4511,
      "çĮİ": 4512,
      "çĵ¦": 4513,
      "èĦ±": 4514,
      "èĪĨ": 4515,
      "èĬ¬": 4516,
      "èĮĥ": 4517,
      "èİ«": 4518,
      "èı²": 4519,
      "èĵ¬": 4520,
      "éĶĢ": 4521
    },
    "merges": [
      "Ġ å",
      "Ġ æ",
      "Ġ ä",
      "Ġ ç",
      "Ġ è",
      "Ġ é",
      "Ġä ¸",
      "Ġ ,",
      "ã Ģ",
      "Ġ ãĢ",
      "Ġç ļ",
      "Ġçļ Ħ",
      "Ġä º",
      "ĠãĢ Ĥ",
      "Ġå ħ",
      "Ġæ ľ",
      "Ġä »",
      "Ġå ¤",
      "Ġå ı",
      "Ġå Ľ",
      "Ġå ľ",
      "Ġå Ī",
      "Ġå ®",
      "Ġè ¿",
      "Ġå Ĳ",
      "ĠåĽ ½",
      "Ġå Ĭ",
      "Ġç »",
      "Ġæ ĺ",
      "Ġå ¹",
      "ĠãĢ ģ",
      "Ġä ½",
      "Ġæ ĸ",
      "â Ģ",
      "Ġä¸ Ģ",
      "Ġä ¼",
      "Ġæ Ĺ",
      "Ġç Ķ",
      "Ġå °",
      "Ġè ®",
      "Ġä ¹",
      "Ġ âĢ",
      "Ġå į",
      "Ġæ Ī",
      "Ġåľ ¨",
      "Ġä¸ Ń",
      "Ġè ¯",
      "Ġå Ĩ",
      "Ġæ Ŀ",
      "Ġäº Ĩ",
      "Ġæĺ ¯",
      "Ġå Ń",
      "Ġäº º",
      "Ġå ·",
      "Ġå Ĵ",
      "Ġé ĩ",
      "ĠåĴ Į",
      "Ġæľ ī",
      "Ġå ĩ",
      "Ġå ¸",
      "Ġæ Ĭ",
      "Ġè ¡",
      "Ġæ Ķ",
      "Ġå¤ §",
      "Ġå ¼",
      "Ġè µ",
      "Ġå Į",
      "Ġå º",
      "Ġå ¯",
      "Ġæ ī",
      "Ġå ±",
      "Ġ 1",
      "Ġè Ģ",
      "Ġä¸ į",
      "Ġè ´",
      "Ġç §",
      "Ġå¹ ´",
      "Ġ 0",
      "Ġä¼ ļ",
      "Ġæ °",
      "Ġä¸ º",
      "Ġå ¾",
      "Ġé ĺ",
      "Ġé Ģ",
      "Ġé ĥ",
      "Ġå ¥",
      "Ġå ĳ",
      "Ġå İ",
      "Ġæ Ģ",
      "Ġè §",
      "Ġç Ľ",
      "Ġæ µ",
      "Ġæ ķ",
      "Ġæ ł",
      "Ġé Ŀ",
      "Ġé Ĺ",
      "Ġç İ",
      "Ġåĩ º",
      "Ġä¸ Ĭ",
      "ĠåŃ ¦",
      "Ġç ī",
      "Ġæ Ń",
      "Ġåı ĳ",
      "Ġä¸ ļ",
      "¦ ģ",
      "ĠâĢ ľ",
      "Ġå ½",
      "Ġå® ¶",
      "Ġåľ °",
      "Ġå ¿",
      "ĠâĢ Ŀ",
      "Ġä½ ľ",
      "Ġé Ļ",
      "Ġç º",
      "Ġä¸ ª",
      "Ġé ¢",
      "Ġè¡ Į",
      "ĠæĹ ¥",
      "Ġè ¦ģ",
      "Ġå ī",
      "Ġä» ¥",
      "ĠçĶ Ł",
      "Ġ 2",
      "Ġç Ĳ",
      "ĠåĪ °",
      "Ġè ĥ",
      "Ġæ ²",
      "Ġå¯ ¹",
      "Ġæ ³",
      "Ġ 9",
      "Ġè ĩ",
      "Ġè¿ Ļ",
      "Ġæ ŀ",
      "ĠæĪ Ĳ",
      "Ġç» ı",
      "ĠæĹ ¶",
      "Ġå¤ ļ",
      "ĠæĿ ¥",
      "Ġæ ¯",
      "Ġå· ¥",
      "Ġæ Į",
      "Ġé ķ",
      "Ġä ¿",
      "Ġç Ń",
      "Ġä» ¬",
      "Ġéĥ ¨",
      "Ġå Ł",
      "Ġæ ĭ",
      "Ġè¿ Ľ",
      "Ġæ İ",
      "Ġç ¾",
      "Ġæ ±",
      "Ġæ ´",
      "Ġè ¾",
      "Ġä¸ ĭ",
      "Ġæ ¬",
      "ĠæĶ ¿",
      "Ġåħ ¨",
      "Ġå¸ Ĥ",
      "Ġäº İ",
      "Ġéĺ Ł",
      "Ġæ° ĳ",
      "Ġç ľ",
      "ĠåĬ Ľ",
      "Ġæĸ ¹",
      "Ġç «",
      "Ġç ¤",
      "Ġä¸ »",
      "Ġéķ ¿",
      "Ġå° ±",
      "Ġæ Ħ",
      "Ġæĸ °",
      "Ġ 5",
      "Ġçİ °",
      "Ġåī į",
      "Ġåĳ ĺ",
      "Ġèĥ ½",
      "Ġå® ŀ",
      "« ĺ",
      "Ġå ĵ",
      "Ġæ ĥ",
      "Ġè ½",
      "ĠæĪ ĳ",
      "ĠçĲ Ĩ",
      "Ġé «ĺ",
      "ĠåĲ Į",
      "ĠèĢ ħ",
      "Ġå »",
      "Ġå¤ ©",
      "Ġå §",
      "ĠçĶ ¨",
      "Ġäº §",
      "Ġè ģ",
      "Ġæľ Ī",
      "Ġåľ º",
      "ĠæĬ ¥",
      "Ġè¯ ´",
      "Ġä» ĸ",
      "Ġ 3",
      "Ġè °",
      "Ġåħ ¬",
      "Ġèĩ ª",
      "ĠåĪ Ĩ",
      "Ġæ ı",
      "ĠåĬ ¨",
      "ĠåĲ İ",
      "Ġå± ķ",
      "Ġé Ľ",
      "Ġç¾ İ",
      "Ġæ³ ķ",
      "Ġéĩ į",
      "Ġç ķ",
      "Ġæľ ¬",
      "ĠåĬ ł",
      "Ġå° Ĩ",
      "Ġé ģ",
      "Ġå¼ Ģ",
      "Ġæĸ ĩ",
      "Ġåħ ³",
      "Ġä¹ ĭ",
      "Ġå® ļ",
      "Ġä¸ İ",
      "ĠåĲ Ī",
      "ĠçŃ ī",
      "Ġä¹ Ł",
      "Ġç ¨",
      "Ġå¾ Ĺ",
      "Ġè¿ ĩ",
      "Ġç§ ĳ",
      "ĠéĿ ¢",
      "Ġè Ĥ",
      "Ġæľ º",
      "ĠåĮ º",
      "ĠèĢ Į",
      "Ġå Ŀ",
      "Ġè ī",
      "Ġ 4",
      "Ġå¹ ³",
      "Ġæµ İ",
      "Ġæ ¸",
      "Ġå» º",
      "Ġä½ ĵ",
      "Ġé ¡",
      "Ġç ¬",
      "Ġäº ĭ",
      "Ġä» £",
      "Ġå ¢",
      "ĠéĹ ®",
      "ĠåĨ ħ",
      "Ġ 6",
      "Ġä¸ ¤",
      "ĠåĮ ĸ",
      "Ġç¤ ¾",
      "Ġç Ŀ",
      "Ġèµ Ľ",
      "ä ¸",
      "ĠåĪ ¶",
      "Ġè¡ ¨",
      "Ġé¢ ĺ",
      "Ġåº ¦",
      "Ġæı Ĳ",
      "Ġå° ı",
      "Ġä ¾",
      "ĠåŃ Ĳ",
      "Ġç ©",
      "Ġ :",
      "¥ ¿",
      "Ġåı ¯",
      "Ġç ł",
      "ĠåĪ ©",
      "Ġå¥ ½",
      "Ġé ¦",
      "Ġåħ ¥",
      "Ġå¿ ĥ",
      "Ġæ¬ ¡",
      "Ġç§ į",
      "Ġè ¥¿",
      "Ġç ®",
      "Ġè ·",
      "Ġ 8",
      "Ġæ Ļ",
      "Ġç ½",
      "Ġé £",
      "Ġå§ Ķ",
      "Ġæľ ¯",
      "Ġè ¶",
      "Ġå Ģ",
      "Ġæľ Ģ",
      "Ġæĺ İ",
      "Ġç Ł",
      "Ġæ¯ Ķ",
      "³ »",
      "ĠãĢ Ĭ",
      "ĠãĢ ĭ",
      "Ġåħ ĥ",
      "ĠçĶ µ",
      "Ġéĥ ½",
      "Ġä¸ ĸ",
      "Ġéĩ ĳ",
      "ĠæĢ »",
      "Ġ 7",
      "Ġç ¥",
      "Ġé Ĥ",
      "Ġæī Ģ",
      "Ġæ Ľ",
      "Ġç ³»",
      "Ġä¸ ĩ",
      "Ġçī ¹",
      "ĠâĢ Ķ",
      "Ġèµ ·",
      "ĠåĮ Ĺ",
      "Ġé ļ",
      "Ġå ģ",
      "Ġè¿ ĺ",
      "Ġç¬ ¬",
      "Ġåħ ļ",
      "Ġéĩ Į",
      "Ġå ¦",
      "Ġåį ģ",
      "Ġæ į",
      "Ġå½ ĵ",
      "Ġå ²",
      "Ġåħ ¶",
      "Ġä» İ",
      "ĠåĲ į",
      "Ġå¹ ¶",
      "Ġè Ĳ",
      "ĠåĬ ¡",
      "ĠæĬ Ģ",
      "Ġä» »",
      "ĠæĦ ı",
      "ĠçĿ Ģ",
      "Ġä» Ĭ",
      "Ġå¤ ĸ",
      "ĠåĲ ĳ",
      "Ġä¼ ģ",
      "ä »",
      "Ġä¸ ī",
      "Ġæ ·",
      "Ġç Ĥ",
      "Ġå¼ º",
      "Ġä¿ Ŀ",
      "Ġ ;",
      "Ġæķ Ļ",
      "Ġè ĭ",
      "Ġäº Ľ",
      "Ġå· ²",
      "Ġèµ Ħ",
      "ĠçĽ ®",
      "Ġä¹ ¦",
      "Ġç Ļ",
      "ĠåĲ Ħ",
      "Ġéĩ ı",
      "ĠæĢ §",
      "Ġåĵ ģ",
      "Ġä½ ¿",
      "Ġæ Ł",
      "Ġç» Ħ",
      "Ġè® º",
      "Ġçķ Į",
      "ĠåĨ ľ",
      "Ġä½ į",
      "Ġç ²",
      "Ġè į",
      "ĠåŁ º",
      "ĠåĨ ³",
      "Ġç ´",
      "Ġåı Ĭ",
      "Ġç ģ",
      "Ġæĸ ¯",
      "ĠåĨ Ľ",
      "Ġç« ĭ",
      "Ġé ©",
      "Ġè® °",
      "Ġå £",
      "Ġå® ī",
      "Ġç» Ł",
      "Ġå¹ ²",
      "ĠéĻ ħ",
      "Ġæľ Ł",
      "Ġè® ¾",
      "ĠæŃ £",
      "Ġç ¡",
      "Ġé¢ Ĩ",
      "Ġè® ®",
      "ĠæĪ ĺ",
      "ĠéĢ ļ",
      "Ġçł Ķ",
      "Ġäº ¬",
      "è ¿",
      "Ġæ° ´",
      "Ġæµ ·",
      "Ġéģ ĵ",
      "Ġåº ľ",
      "Ġä¸ ¾",
      "ĠçĲ ĥ",
      "Ġ .",
      "Ġè ¢",
      "Ġåį İ",
      "ĠéĹ ¨",
      "Ġåħ ĭ",
      "Ġèģ Ķ",
      "Ġé Ķ",
      "Ġåº Ķ",
      "Ġè Ī",
      "Ġæ´ »",
      "Ġäº ļ",
      "ĠæĶ ¹",
      "Ġçī ©",
      "Ġæ ¶",
      "ĠæĹ ł",
      "Ġå¯ ¼",
      "Ġåİ Ł",
      "Ġ Â",
      "ĠéĹ ´",
      "ĠæĮ ģ",
      "Ġ (",
      "Ġ )",
      "ĠçĶ ±",
      "ĠæŃ ¤",
      "ĠåĽ ł",
      "Ġè® ¡",
      "Ġåİ »",
      "Ġç ±",
      "Ġå¦ Ĥ",
      "Ġåı ¸",
      "Ġè¾ ¾",
      "Ġè¿ ĳ",
      "Ġæĥ ħ",
      "Ġè´ ¨",
      "Ġè İ",
      "Ġé ľ",
      "Ġäº Į",
      "Ġå± Ģ",
      "Ġè§ £",
      "Ġç¨ ĭ",
      "ĠçĤ ¹",
      "Ġæ ģ",
      "Ġå¤ Ħ",
      "æ ľ",
      "Ġåħ Ī",
      "ĠæĿ ĳ",
      "Ġå¢ ŀ",
      "Ġè Ĭ",
      "Ġé ĵ",
      "Ġåį Ĺ",
      "Ġèģ Į",
      "ĠèĤ ²",
      "ĠåĬ ŀ",
      "Ġç Ħ",
      "Ġåı Ĥ",
      "Ġæ² »",
      "Ġé Ĵ",
      "Ġè® ¤",
      "Ġè§ Ĥ",
      "Ġè¢ «",
      "Ġåħ ±",
      "ĠéĢ ī",
      "Ġäº ¤",
      "Ġæĥ ³",
      "ĠéĽ Ĩ",
      "Ġé£ İ",
      "Ġç ¼",
      "Ġç ĥ",
      "Ġç» ĵ",
      "Ġæī ĭ",
      "Ġå¥ ³",
      "ĠæĬ Ĭ",
      "Ġæ ¡",
      "Ġç© ¶",
      "Ġç® ¡",
      "Ġåı Ĺ",
      "Ġæ± Ĥ",
      "Ġè° ĥ",
      "ĠæĽ ´",
      "Ġå° ĳ",
      "Ġæ² ¡",
      "ĠåĽ ¢",
      "ĠéĿ ©",
      "Ġé© ¬",
      "Ġé ħ",
      "Ġåı ª",
      "Ġæķ °",
      "Ġæŀ ľ",
      "ĠæĮ ĩ",
      "Ġè½ ¦",
      "ĠæĶ ¶",
      "Ġç² ¾",
      "è¿ Ļ",
      "Ġä¹ ī",
      "Ġå¸ ¸",
      "ĠéĢ ł",
      "Ġå ķ",
      "ĠèĢ ģ",
      "Ġæĭ ī",
      "ĠçĦ ¶",
      "Ġä» ¶",
      "Ġåı ĸ",
      "ĠåĪ Ľ",
      "Ġå° Ķ",
      "Ġå± ±",
      "Ġä¿ ¡",
      "Ġçľ ĭ",
      "å ľ",
      "ĠåĽ Ľ",
      "Ġè¯ Ĩ",
      "Ġå½ ¢",
      "Ġæ »",
      "Ġå¼ ł",
      "åľ ¨",
      "ĠçĽ ¸",
      "Ġæŀ Ĺ",
      "Ġéļ ¾",
      "Ġæ· ±",
      "Ġæ £",
      "Ġä¸ ĵ",
      "ĠåĪ «",
      "Ġä½ Ĩ",
      "ĠæĶ ¯",
      "Ġå¼ ı",
      "Ġæł ·",
      "ĠåŁ İ",
      "ĠçŁ ¥",
      "Ġåı ĺ",
      "Ġæł ĩ",
      "Ġè½ ¬",
      "Ġæ ®",
      "Ġç» ĩ",
      "ĠæĢ Ŀ",
      "Ġæł ¡",
      "ĠéĿ ŀ",
      "Ġæİ ¥",
      "Ġè ±",
      "Ġæ° Ķ",
      "Ġæµ ģ",
      "Ġé¦ ĸ",
      "Ġè· ¯",
      "Ġäº Ķ",
      "Ġç» Ļ",
      "Ġåĩ ł",
      "Ġçº §",
      "ä» ĸ",
      "Ġè º",
      "Ġå· ±",
      "ĠæŃ ¥",
      "ĠéĤ £",
      "Ġè £",
      "Ġé »",
      "Ġä¸ ľ",
      "Ġåı ²",
      "Ġåį °",
      "ĠçĻ ¾",
      "Ġå ĸ",
      "Ġåı £",
      "Ġä¼ Ĺ",
      "Ġçľ Ł",
      "ĠåĽ ¾",
      "Ġåį ı",
      "Ġè§ Ħ",
      "Ġå½ ±",
      "Ġçľ ģ",
      "ĠÂ °",
      "Ġé ª",
      "Ġæĸ ½",
      "Ġè¯ Ŀ",
      "ĠéĻ ¢",
      "ĠèĲ ¥",
      "Ġåķ Ĩ",
      "Ġèº «",
      "Ġ %",
      "Ġåı į",
      "Ġåİ Ĩ",
      "Ġç¾ ¤",
      "Ġé¡ ¹",
      "Ġç Ī",
      "Ġåı Ī",
      "Ġå± Ĭ",
      "Ġå¾ Ī",
      "ĠæĬ ķ",
      "Ġè§ ģ",
      "Ġå¿ Ĺ",
      "Ġèĩ ³",
      "Ġç¤ º",
      "Ġæ ¼",
      "Ġæ ĳ",
      "Ġè Į",
      "ĠåĨ į",
      "Ġç§ ¯",
      "Ġåī ¯",
      "Ġç¥ ŀ",
      "Ġä¹ ¡",
      "Ġå· ´",
      "Ġåİ ¿",
      "Ġçº ª",
      "ĠæĦ Ł",
      "Ġå Ħ",
      "Ġç ĸ",
      "ĠåĽ ŀ",
      "Ġè¿ Ĳ",
      "Ġè® ¿",
      "ĠæĿ ¡",
      "Ġå² Ĺ",
      "Ġç Ĺ",
      "Ġæľ į",
      "ĠæĶ ¾",
      "Ġè´ ¹",
      "æľ ¬",
      "Ġå ŀ",
      "Ġå¹ ¿",
      "Ġæŀ ģ",
      "Ġæİ ¨",
      "ĠåĦ ¿",
      "Ġè ŀ",
      "Ġé Ł",
      "Ġå° ¼",
      "Ġå¸ ĥ",
      "Ġåĳ ½",
      "Ġèī º",
      "Ġåģ ļ",
      "Ġæ± Ł",
      "Ġèī ²",
      "Ġç¡ ®",
      "Ġè Ħ",
      "Ġå¤ ´",
      "Ġè¶ ³",
      "Ġè± ¡",
      "Ġåħ ·",
      "Ġä» ·",
      "ĠåĪ Ļ",
      "Ġä¹ ł",
      "Ġè¯ ¥",
      "Ġè§ Ĩ",
      "Ġçī Ī",
      "Ġèŀ į",
      "Ġå¸ Ń",
      "Ġçİ ¯",
      "Ġéľ Ģ",
      "ĠåĬ ¿",
      "Ġæį ®",
      "Ġç ı",
      "Ġå¤ ĩ",
      "Ġä¼ ł",
      "Ġåħ ī",
      "ĠåĨ µ",
      "Ġéĩ ĩ",
      "Ġå¥ ¹",
      "Ġæł ¼",
      "Ġä¾ Ľ",
      "Ġç ª",
      "Ġç Į",
      "Ġäº ī",
      "Ġæī į",
      "Ġåĳ ¨",
      "ĠçĽ Ĭ",
      "Ġè° Ī",
      "Ġå ¡",
      "Ġæ º",
      "Ġç Ĭ",
      "Ġä» ħ",
      "Ġå¤ ±",
      "ĠæĹ ı",
      "Ġåį ķ",
      "Ġèµ °",
      "ĠçŃ ĸ",
      "Ġç ¦",
      "Ġæķ Ī",
      "Ġæł ¸",
      "Ġçº ¦",
      "Ġæ´ ²",
      "å ħ",
      "Ġä¸ ¥",
      "Ġæī ĵ",
      "Ġæŀ Ħ",
      "Ġæ¯ ı",
      "Ġèİ ·",
      "æ į",
      "Ġ /",
      "Ġå ¨",
      "Ġæł ¹",
      "ĠæŃ ¦",
      "Ġåħ »",
      "Ġç» Ń",
      "ĠæĪ ĸ",
      "Ġè¯ Ħ",
      "ĠåĮ ħ",
      "Ġç© º",
      "ĠæŁ ¥",
      "Ġçģ «",
      "Ġæ ¹",
      "Ġç ¯",
      "Ġç ĭ",
      "Ġåı ĭ",
      "Ġä½ ķ",
      "Ġè¯ ģ",
      "Ġåĩ Ĩ",
      "Ġåĳ Ĭ",
      "Ġåĵ į",
      "Ġå¢ ĥ",
      "æį ®",
      "Ġæĺ Ł",
      "ĠæĿ ĥ",
      "Ġçİ ĩ",
      "Ġç± ³",
      "Ġéĵ ¶",
      "Ġå Ķ",
      "Ġæľ Ľ",
      "Ġåı °",
      "Ġå® Į",
      "ĠåĬ Ł",
      "Ġæĸ Ń",
      "Ġè® ©",
      "ĠæĿ ¯",
      "Ġå¯ Į",
      "Ġå¾ ·",
      "ĠéĢ Ł",
      "Ġèĭ ±",
      "Ġè ĳ",
      "ĠåĽ °",
      "ĠçĽ ´",
      "ĠéĿ Ĵ",
      "Ġçİ ĭ",
      "Ġçī ĩ",
      "ĠåĿ ļ",
      "Ġå¤ ®",
      "Ġå® ĥ",
      "Ġä¼ ĺ",
      "Ġå¸ ¦",
      "Ġè´ £",
      "Ġéĺ ²",
      "Ġæķ ´",
      "Ġè¾ ĥ",
      "Ġç´ ł",
      "Ġè Ļ",
      "Ġåħ °",
      "Ġåı Į",
      "ĠåĪ Ĺ",
      "Ġæĺ ĵ",
      "ĠçĶ »",
      "Ġåį ³",
      "Ġå£ «",
      "ä ½",
      "å Ľ",
      "Ġæ Ĵ",
      "Ġç ħ",
      "ĠåĪ Ĵ",
      "Ġè® ¯",
      "Ġæģ ¯",
      "Ń ¦",
      "ĠåĬ ©",
      "Ġå¿ «",
      "Ġæ² ³",
      "ĠéĽ ¨",
      "Ġè¿ ľ",
      "Ġè¿ ŀ",
      "ĠæĿ İ",
      "Ġå¼ ķ",
      "Ġåİ Ĥ",
      "Ġéķ ĩ",
      "Ġè¾ ¹",
      "Ġç½ Ĺ",
      "Ġæ¶ Ī",
      "Ġçĥ Ń",
      "Ġåŀ ĭ",
      "Ġå Ļ",
      "ĠåĿ ĩ",
      "Ġæ¸ ħ",
      "¨ Ģ",
      "Ġè ¨Ģ",
      "Ġäº ¿",
      "Ġå® ¢",
      "Ġè´ ¸",
      "ĠéĻ ©",
      "Ġçº ¿",
      "Ġæ¸ ¯",
      "Ġç± »",
      "Ġè£ ħ",
      "Ġæº Ĳ",
      "Ġæ Ĳ",
      "Ġåħ ´",
      "Ġå· ŀ",
      "ĠåĢ ¼",
      "Ġéª Į",
      "ĠçĹ ħ",
      "å ı",
      "Ġæ ¨",
      "ĠæĢ ģ",
      "Ġå¿ ħ",
      "Ġèĩ ´",
      "Ġäº ĳ",
      "Ġå¤ į",
      "Ġå® ¹",
      "Ġä¹ Ī",
      "Ġåį ĥ",
      "Ġéĺ ¿",
      "Ġç¥ ¨",
      "ĠåĻ ¨",
      "Ġæ ½",
      "Ġé ¾",
      "Ġå® £",
      "Ġè® ¸",
      "ĠåĮ »",
      "Ġå¾ Ģ",
      "ĠåŁ ¹",
      "Ġå§ ĭ",
      "Ġç¨ ³",
      "Ġè¶ Ĭ",
      "ĠèĬ ±",
      "Ġæ® µ",
      "ĠçĪ ±",
      "æ Ī",
      "Ĺ ı",
      "Ġå¤ ª",
      "Ġåį «",
      "ĠåŃ ĺ",
      "ĠæĬ ¤",
      "Ġæī ¹",
      "Ġè´ Ł",
      "ä¸ Ń",
      "Ġé¦ Ļ",
      "Ġèį ¯",
      "Ġå£ °",
      "Ġæ» ¡",
      "Ġæ Ĥ",
      "Ġæ ħ",
      "Ġè ı",
      "Ġè Ń¦",
      "Ġç» Ī",
      "Ġè® ²",
      "Ġåį ł",
      "Ġå¿ µ",
      "ĠéĻ į",
      "Ġä¾ ¿",
      "Ġé¦ Ĩ",
      "ĠèĲ ½",
      "Ġç¡ Ģ",
      "Ġå ĭ",
      "ĠåĪ ĩ",
      "Ġè´ ¢",
      "Ġå¥ ĸ",
      "Ġæİ Ĵ",
      "ĠèĮ ĥ",
      "ĠçĮ ®",
      "Ġå ĥ",
      "Ġå¤ «",
      "Ġå¸ Į",
      "Ġéĺ ³",
      "Ġæĭ ħ",
      "Ġæ¼ Ķ",
      "Ġæľ ª",
      "Ġç» ´",
      "Ġæĺ ¾",
      "âĢ Ŀ",
      "Ġè¯ ķ",
      "Ġæĭ ¬",
      "Ġç® Ĺ",
      "Ġéħ į",
      "Ġå¨ ģ",
      "Ġé ²",
      "ĠåĽ ´",
      "Ġä½ İ",
      "Ġæĸ Ļ",
      "Ġè® Ń",
      "Ġåį ±",
      "ĠæĪ ·",
      "ĠèĢ ĥ",
      "ĠåŁ Ł",
      "ĠæĦ ¿",
      "ĠçŁ ³",
      "ĠÂ ·",
      "Ġæ ¢",
      "Ġè Ĺı",
      "Ġé ¥",
      "Ġå¸ Ī",
      "Ġéĺ ¶",
      "ĠæŃ ¢",
      "Ġæ¬ §",
      "Ġç« ¥",
      "ä¸ Ģ",
      "Ġçı Ń",
      "ĠçĬ ¶",
      ". .",
      "Ġä¸ Ķ",
      "Ġäº ²",
      "Ġåº §",
      "Ġç§ °",
      "Ġèĥ ľ",
      "Ġæ¬ ¾",
      "ĠæĻ ®",
      "Ġ. ..",
      "Ġåĸ Ħ",
      "Ġæ ¿",
      "Ġåħ «",
      "Ġä½ ı",
      "Ġä¹ Ĳ",
      "ĠåŃ Ĺ",
      "Ġåĩ »",
      "Ġæī §",
      "Ġæķ ĳ",
      "Ġçº ¢",
      "Ġé¢ Ħ",
      "Ġæ² ¹",
      "Ġæ± ī",
      "ĠèĬ Ĥ",
      "Ġæ¡ Ī",
      "Ġæ ¾",
      "Ġåħ Ń",
      "ĠåĬ ª",
      "Ġåį Ĭ",
      "Ġçº ·",
      "Ġç« ŀ",
      "ĠåĢ Ļ",
      "Ġçª ģ",
      "Ġå¤ Ł",
      "Ġç» §",
      "Ġç» ĥ",
      "Ġåĩ ı",
      "ĠéĢ ģ",
      "Ġç¨ İ",
      "Ġé¡ ¿",
      "Ġçł ´",
      "æĪ ĳ",
      "Ġå ł",
      "Ġè ħ",
      "Ġä» į",
      "Ġè¯ »",
      "ĠåŃ ©",
      "Ġå± ħ",
      "Ġå¾ ĭ",
      "Ġæł ĳ",
      "ĠèĤ ¡",
      "Ġé£ Ł",
      "ĠçĻ ½",
      "Ġçħ §",
      "Ġæ¨ ¡",
      "Ġä» ¤",
      "ĠåĬ ³",
      "Ġä½ Ļ",
      "Ġä¼ Ĭ",
      "ĠæĹ ©",
      "Ġè® ¨",
      "Ġä¹ Ŀ",
      "Ġè´ «",
      "Ġæ³ ¨",
      "Ġçķ Ļ",
      "Ġå² ģ",
      "Ġçģ ¾",
      "Ġåĥ ı",
      "Ġæ¾ ³",
      "Ġæ ļ",
      "Ġç ĵ",
      "Ġé º",
      "ĠåĪ Ŀ",
      "Ġåį Ī",
      "ĠæĪ ¿",
      "ĠåĨ ²",
      "Ġå± Ĥ",
      "ĠçĽ ĳ",
      "ĠæĮ ī",
      "Ġåĵ ¥",
      "Ġæ¿ Ģ",
      "Ġä¸ ´",
      "Ġåı ¤",
      "Ġå® ĺ",
      "Ġè¯ ¾",
      "Ġåī §",
      "Ġé£ ŀ",
      "ä º",
      "æ ĸ",
      "æ Ń",
      "Ġæī ©",
      "Ġçº ³",
      "Ġæ¯ Ĵ",
      "Ġä¿ ĥ",
      "Ġçľ ¼",
      "Ġèī ¯",
      "Ġæ¸ ¸",
      "Ġé¡ ¾",
      "ä¸ º",
      "Ġç´ §",
      "ĠéĴ ±",
      "ä½ Ĩ",
      "Ġåı ·",
      "ĠçĶ °",
      "Ġå° ½",
      "Ġæī ¿",
      "ĠéĿ ł",
      "ĠéĻ ¤",
      "Ġä¾ Ŀ",
      "Ġç½ ĳ",
      "Ġèį ī",
      "Ġæ£ Ģ",
      "Ġé» Ħ",
      "Ġé» ĳ",
      "å ½",
      "å Ĳ",
      "Ġ ?",
      "Ġè Ĵ",
      "Ġä» ĭ",
      "Ġå® Ī",
      "Ġä¹ °",
      "Ġå¾ ħ",
      "Ġæİ ª",
      "Ġæ± ĩ",
      "Ġæ´ ¾",
      "Ġèĭ ¦",
      "ĠéŁ ©",
      "Ġç¦ »",
      "ç Ķ",
      "Ġç ¢",
      "Ġç ¦ģ",
      "Ġé ¼",
      "Ġåľ Ł",
      "Ġç» į",
      "âĢ ľ",
      "Ġåį ¡",
      "ĠåĨ Ļ",
      "Ġå· ®",
      "Ġåº ·",
      "Ġç§ Ģ",
      "Ġå¥ ĩ",
      "Ġéģ ĩ",
      "Ġæ¸ ©",
      "ĠæĻ º",
      "Ġç½ ®",
      "Ġèĭ ı",
      "ĠæŁ ĵ",
      "Ġç´ ¢",
      "ĠéĶ Ģ",
      "Ġå Ĥ",
      "Ġæ ¤",
      "Ġåħ ħ",
      "Ġä» ½",
      "Ġè¯ ·",
      "Ġåº ķ",
      "Ġè§ ī",
      "ĠçĽ Ł",
      "Ġä¿ Ħ",
      "Ġå» ¶",
      "ĠæĻ ¯",
      "Ġè¶ ħ",
      "Ġåģ ¥",
      "ĠèĪ ª",
      "Ġçĥ Ī",
      "ĠéŁ ³",
      "æ Ĺ",
      "Ġåħ į",
      "Ġä» Ģ",
      "Ġè¿ İ",
      "ĠæĹ ħ",
      "Ġè¯ Ń",
      "Ġè´ §",
      "Ġæķ ħ",
      "ĠåĿ ¦",
      "ĠéĤ ĵ",
      "ĠæĽ ¾",
      "ä» Ĭ",
      "Ġéĵ ģ",
      "Ġçĭ ¬",
      "Ġèĳ Ĺ",
      "Ġé¾ Ļ",
      "å½ ĵ",
      "Ġç ¿",
      "Ġç ĳ",
      "ĠåĪ »",
      "ĠåĪ ĺ",
      "Ġåį ´",
      "Ġåº Ĩ",
      "ĠéĢ Ĥ",
      "Ġæ± ¡",
      "Ġæį ¢",
      "ĠæŁ Ĳ",
      "ç İ",
      "Ġ D",
      "ĠåĪ ļ",
      "Ġå® ³",
      "Ġå¹ ħ",
      "Ġä¹ ±",
      "Ġå¾ ģ",
      "Ġæµ ĭ",
      "Ġé¢ Ŀ",
      "ĠæĮ ¥",
      "Ġæĭ ¿",
      "Ġæ¬ ¢",
      "Ġç« ł",
      "Ġé¡ »",
      "Ġä¾ ĭ",
      "ä» İ",
      "ç ¾",
      "ç Ľ",
      "Ġ !",
      "Ġæ ¥",
      "Ġå® Ŀ",
      "ĠåĲ ¦",
      "ĠåĲ ¬",
      "Ġç» ©",
      "Ġæĸ Ĺ",
      "Ġä¹ ħ",
      "Ġåį ļ",
      "Ġæ° ¸",
      "Ġå½ ©",
      "ĠéĻ Ĳ",
      "Ġæ² Ļ",
      "Ġè½ »",
      "Ġçķ ¥",
      "ĠéĴ Ī",
      "Ġéħ Ĵ",
      "Ġå¡ Ķ",
      "¦ Ĥ",
      "å ¤",
      "Ġå ³",
      "Ġä¸ ĥ",
      "ĠåĽ º",
      "ĠåĬ ±",
      "ĠæĬ ĵ",
      "Ġè¡ Ģ",
      "Ġå¯ Ł",
      "Ġéĺ µ",
      "ĠéĹ »",
      "Ġå½ Ĵ",
      "Ġæ³ ¢",
      "Ġæ³ ½",
      "Ġæİ Ī",
      "æľ ī",
      "Ġç¼ ĸ",
      "Ġæ£ ĭ",
      "åħ ¶",
      "Ġé¼ ĵ",
      "Ġæ¤ į",
      "å ®",
      "è ¯",
      "ĠãĢ ı",
      "Ġè¿ ·",
      "Ġç» Ĩ",
      "Ġå° ¤",
      "Ġå¯ Ĩ",
      "Ġè´ ¥",
      "Ġç« Ļ",
      "Ġåģ ľ",
      "ĠèĦ ĳ",
      "Ġç¦ ı",
      "Ġæ¹ ĸ",
      "Ġç¯ ĩ",
      "Ġé² ľ",
      "æĸ °",
      "å Ī",
      "ç »",
      "Ġé ¸",
      "Ġçļ ®",
      "Ġç» Ŀ",
      "Ġä¼ ¤",
      "Ġå° Ħ",
      "ĠæĿ Ĥ",
      "ĠæĿ Ł",
      "Ġå± ŀ",
      "Ġè´ Ń",
      "ĠéĢ Ĳ",
      "Ġåİ ĭ",
      "Ġå½ ķ",
      "Ġä¿ ®",
      "ĠçŃ ¾",
      "ĠåŁ ĥ",
      "Ġè½ ®",
      "ĠæĻ ļ",
      "ĠèĪ ŀ",
      "Ġæ½ ®",
      "çĶ ±",
      "æ Ŀ",
      "Ġ C",
      "Ġ â",
      "ĠãĢ İ",
      "Ġäº Ī",
      "Ġäº Ĵ",
      "Ġåħ ¼",
      "ĠåĪ Ĭ",
      "ĠåĲ ¸",
      "Ġæĺ ¥",
      "Ġå° ģ",
      "Ġåį ĩ",
      "ĠæĿ Ĳ",
      "Ġå¸ ģ",
      "Ġåº Ĺ",
      "Ġå¥ ĭ",
      "Ġæķ £",
      "ĠéĻ Ī",
      "Ġæĭ Ľ",
      "Ġæİ §",
      "ĠçĿ £",
      "ĠæĻ ´",
      "Ġéļ ı",
      "ĠçĻ »",
      "Ġç¯ ®",
      "Ġåł Ĥ",
      "ç¾ İ",
      "Ġé ¹",
      "Ġé Ń",
      "Ġä¸ °",
      "ĠåĲ ĥ",
      "ĠåĲ ī",
      "Ġå¸ ®",
      "ĠæĶ »",
      "Ġå¥ ¥",
      "Ġåİ ļ",
      "Ġæ´ ĭ",
      "ĠéĽ ·",
      "Ġç¬ Ķ",
      "Ġæ¡ ¥",
      "åĽ ł",
      "çĽ ®",
      "å °",
      "å Į",
      "è Ģ",
      "Ġä¸ ½",
      "Ġåħ µ",
      "ĠåĪ ¤",
      "Ġå® ģ",
      "Ġè¿ Ŀ",
      "ĠæĹ ¢",
      "Ġå° ļ",
      "Ġåº Ń",
      "ĠæĢ Ģ",
      "Ġå½ »",
      "Ġèĥ ¡",
      "Ġæ¯ ķ",
      "Ġæ´ Ľ",
      "Ġéģ Ĺ",
      "Ġç½ ª",
      "Ġç¥ ĸ",
      "ĠèĪ ¹",
      "ĠçĬ ¯",
      "ĠèĻ ½",
      "ĠæĲ ŀ",
      "Ġçĵ ¦",
      "å ¯",
      "å į",
      "Ī ¶",
      "ĠåĲ ¯",
      "Ġå¹ ķ",
      "Ġä½ ł",
      "Ġä¼ ¼",
      "ĠçĶ ·",
      "ĠçĶ ļ",
      "Ġè¯ º",
      "Ġè¡ ¥",
      "Ġæī ¾",
      "Ġè´ ¯",
      "Ġè§ Ĵ",
      "Ġæ³ °",
      "Ġæ¯ ģ",
      "Ġæ¯ į",
      "Ġå² ¸",
      "Ġèį £",
      "Ġç¼ º",
      "åĽ ½",
      "Ġéº ¦",
      "Ġçĳ ŀ",
      "çİ °",
      "Ġâ Ī¶",
      "å İ",
      "Ġ A",
      "Ġ E",
      "Ġåħ ¸",
      "Ġæľ ¨",
      "Ġä» ĺ",
      "Ġæĺ ł",
      "Ġä¼ į",
      "ĠåĨ ł",
      "Ġè´ ¡",
      "Ġå¾ Ħ",
      "Ġçī Ļ",
      "Ġèĥ ģ",
      "Ġå¢ ¨",
      "Ġè· Į",
      "ĠåĢ º",
      "ĠåĢ Ĵ",
      "ĠéĶ ¦",
      "ĠèĪ ¬",
      "Ġèİ «",
      "Ġåĸ ľ",
      "Ġçĸ ¾",
      "ĠåĶ ®",
      "å¯ ¹",
      "¹ ģ",
      "å Ĩ",
      "æ ī",
      "Ġå ´",
      "Ġç ¹ģ",
      "Ġäº ©",
      "Ġå¤ ľ",
      "Ġè¿ ħ",
      "ĠåŃ £",
      "Ġå¼ ¹",
      "ĠçĽ Ľ",
      "Ġèī ¾",
      "Ġæį Ł",
      "Ġèĭ ¥",
      "Ġè£ ģ",
      "æŃ ¤",
      "ç ¬",
      "Ġåı ¬",
      "Ġå® ¡",
      "Ġå® ¤",
      "Ġè¿ °",
      "Ġç» ¼",
      "Ġç» ¿",
      "Ġä¼ Ł",
      "ĠåĨ Į",
      "ĠæĿ ¾",
      "Ġå· ¨",
      "ĠæĬ Ĺ",
      "Ġè¡ Ĺ",
      "Ġèµ ŀ",
      "Ġè´ µ",
      "Ġç§ ģ",
      "Ġå¾ ®",
      "ĠéĻ Ħ",
      "Ġçº ¸",
      "ĠéĽ Ħ",
      "ĠèĲ ¨",
      "Ġç² ®",
      "Ġæ¶ ī",
      "ĠéĴ Ł",
      "Ġçĸ Ĺ",
      "ĠçĹ Ľ",
      "Ġèı ľ",
      "è¯ ¥",
      "æ Ĭ",
      "Ġå «",
      "Ġç ĩ",
      "Ġä¸ ¹",
      "Ġäº ¡",
      "ĠåĨ ·",
      "ĠæĿ ľ",
      "Ġæī ¬",
      "Ġè´ ·",
      "Ġå¥ Ĺ",
      "Ġåĳ ³",
      "Ġåĳ ¼",
      "Ġè§ Ī",
      "Ġçİ ī",
      "ĠæŃ »",
      "ĠæĮ ĳ",
      "ĠçŃ ¹",
      "Ġæ± ½",
      "Ġæ´ ¥",
      "Ġè¾ ĵ",
      "Ġè½ ¯",
      "Ġç½ ²",
      "ĠçŁ Ń",
      "Ġå¦ ĩ",
      "ĠéĶ ®",
      "Ġèİ ±",
      "Ġæ£ ®",
      "Ġé² ģ",
      "ĠèĴ Ļ",
      "èĢ Į",
      "ç¬ ¬",
      "± ¼",
      "ä ¼",
      "å ¸",
      "æ ¯",
      "æ ĺ",
      "Ġå ©",
      "Ġç Ĩ",
      "Ġè ĵ",
      "Ġé ±¼",
      "Ġä» ª",
      "Ġå¤ ı",
      "Ġä¼ ¯",
      "Ġä¼ ´",
      "Ġå· Ŀ",
      "Ġæī ĺ",
      "Ġç§ »",
      "Ġåİ ħ",
      "ĠçĽ ĺ",
      "ĠéĻ Ĩ",
      "Ġæİ ¢",
      "Ġç¤ ¼",
      "Ġè° ģ",
      "Ġæı ¡",
      "Ġéģ į",
      "ĠåĿ Ĺ",
      "Ġç¥ Ŀ",
      "ĠæĽ ²",
      "Ġéľ ²",
      "Ġæ» ĭ",
      "Ġæ® ĭ",
      "Ġæĳ Ħ",
      "Ġèı ²",
      "Ġé¥ Ń",
      "æĹ ¥",
      "Ġè ¸",
      "Ġé ½",
      "Ġæľ Ĺ",
      "Ġæľ Ŀ",
      "Ġåı ¶",
      "Ġè¿ ª",
      "Ġè¿ ½",
      "Ġä¼ Ļ",
      "Ġä¹ İ",
      "Ġä¹ ı",
      "Ġè¯ Ĺ",
      "Ġéĩ İ",
      "ĠæĬ ¢",
      "Ġå¼ ±",
      "Ġèµ ´",
      "Ġåº ĵ",
      "ĠæĢ ¥",
      "ĠçĽ ĸ",
      "Ġæķ ı",
      "Ġæ² ī",
      "ĠçŃ ĳ",
      "Ġæ´ ģ",
      "Ġæĥ ł",
      "Ġå» ·",
      "Ġèī °",
      "Ġè· Ł",
      "Ġè¶ ĭ",
      "Ġéļ ľ",
      "Ġåģ ¿",
      "Ġå² Ľ",
      "Ġèį Ĵ",
      "Ġç´ ¯",
      "Ġçģ µ",
      "è¿ ĳ",
      "ĠéĶ Ļ",
      "Ġæģ ¶",
      "Ġç¼ ĵ",
      "Ġæĳ Ĩ",
      "Ġçĸ ĳ",
      "ĠèĦ ±",
      "Ġçı į",
      "Ġå¡ ŀ",
      "ĠèĻ ĳ",
      "ĠæĴ Ń",
      "Ġæħ ¢",
      "ĠåĤ ¨",
      "åĮ Ĺ",
      "å ¦Ĥ",
      "é Ĥ",
      "Ġç £",
      "Ġè ª",
      "Ġæľ ĭ",
      "ĠåĽ Ń",
      "Ġå® ¾",
      "Ġè¿ «",
      "Ġä¼ ¦",
      "ĠæĹ ¦",
      "ĠçĶ ³",
      "Ġä¹ ĺ",
      "Ġåį ĸ",
      "ĠæĪ ´",
      "ĠæĪ ı",
      "ĠåŃ Ļ",
      "Ġå¼ Ĥ",
      "Ġèµ ¢",
      "Ġæī ¶",
      "ĠéĢ ı",
      "Ġçī Į",
      "Ġèĥ ŀ",
      "Ġæ¯ Ľ",
      "Ġæĭ ©",
      "Ġåĵ Ī",
      "ĠéĽ ħ",
      "ä¸ į",
      "Ġç½ ļ",
      "ĠåĢ Ł",
      "ĠéĤ »",
      "Ġç¡ ¬",
      "Ġé» İ",
      "ĠåĶ Ĳ",
      "Ġæļ ´",
      "ç» ı",
      "ä ¹",
      "å ¥",
      "è ĩ",
      "Ġç ŀ",
      "Ġè Ķ",
      "Ġäº ®",
      "Ġæľ «",
      "Ġå® ½",
      "Ġè¿ ¹",
      "Ġè¯ ļ",
      "ĠæĿ ¨",
      "ĠæĿ ¿",
      "Ġå¼ ĥ",
      "Ġåº ı",
      "Ġåº Ł",
      "ĠæĢ ķ",
      "Ġæķ ¬",
      "Ġçī §",
      "Ġæ² ¿",
      "Ġæ¯ «",
      "Ġèģ ļ",
      "Ġçķ ª",
      "Ġç¬ ¦",
      "Ġç® Ń",
      "Ġè· Ŀ",
      "Ġéļ Ĩ",
      "Ġæį Ĳ",
      "Ġçģ ¯",
      "Ġé© »",
      "ĠéĶ ĭ",
      "Ġæ¶ Ľ",
      "Ġéħ ¸",
      "Ġæ¹ ¾",
      "ĠåĶ ±",
      "ĠæĴ ¤",
      "Ġåĭ Ĵ",
      "Ġæ¢ ħ",
      "æŃ £",
      "Ġæ¥ ¼",
      "² Į",
      "å ĩ",
      "Ġå ĺ",
      "Ġè ²Į",
      "Ġæľ ±",
      "Ġæľ ´",
      "Ġåı ¦",
      "Ġåľ ³",
      "Ġæĸ ¤",
      "ĠæĹ §",
      "ĠçĶ ²",
      "Ġè¯ ¯",
      "Ġè¡ £",
      "Ġå¯ »",
      "ĠéĢ Ģ",
      "ĠæĢ İ",
      "ĠçĽ ¾",
      "Ġå½ ¦",
      "Ġå¿ ĺ",
      "Ġèĥ Į",
      "Ġæĭ ¥",
      "Ġæ± ¤",
      "Ġæ´ Ĺ",
      "Ġè° ĭ",
      "Ġéģ ¿",
      "ĠåĿ ı",
      "Ġç® Ģ",
      "Ġè· µ",
      "ĠéĤ ¦",
      "ĠéĤ Ģ",
      "Ġæ· ®",
      "Ġæ¡ Ĥ",
      "Ġæĳ ©",
      "Ġå¡ ĳ",
      "Ġé¾ Ħ",
      "Ġæ¢ ģ",
      "Ġé½ Ĳ",
      "å ¼",
      "æ ²",
      "è ®",
      "è ¦ģ",
      "Ġæ ¦Ĥ",
      "Ġè Ĩ",
      "Ġäº ķ",
      "Ġåı «",
      "Ġå® Ĺ",
      "ĠåĲ ¨",
      "Ġç» ķ",
      "Ġç» ľ",
      "Ġä½ ³",
      "Ġå° Ĭ",
      "Ġè¯ ¸",
      "Ġåĩ Ģ",
      "ĠæĬ µ",
      "Ġå¼ Ł",
      "Ġèµ ¶",
      "Ġæī İ",
      "ĠéĢ Ķ",
      "ĠéĹ Ń",
      "ĠæŃ Į",
      "Ġå¿ §",
      "Ġæ² Ī",
      "Ġæŀ ¶",
      "Ġæ¯ ħ",
      "Ġæĭ į",
      "Ġæĭ ĵ",
      "Ġæİ Į",
      "Ġæ± ł",
      "Ġæı ´",
      "Ġæı Ń",
      "Ġç¨ ¿",
      "Ġé¡ º",
      "Ġè¶ £",
      "ĠåĢ į",
      "ĠçŁ ¿",
      "ĠçŁ Ľ",
      "Ġåģ ĩ",
      "ĠçĤ ¼",
      "Ġå£ ģ",
      "Ġéľ ŀ",
      "ĠçĪ ¶",
      "Ġçĸ Ĩ",
      "åħ ¨",
      "Ġèĳ £",
      "ä½ ľ",
      "Ġçĵ ľ",
      "åĲ Į",
      "æī Ģ",
      "Ġèª ī",
      "æ ³",
      "æ ł",
      "é Ģ",
      "Ġ P",
      "Ġå ª",
      "Ġæ ¦",
      "Ġåľ £",
      "Ġå® ı",
      "Ġå® ľ",
      "ĠåĲ ´",
      "Ġä¼ ĳ",
      "Ġè® ¢",
      "Ġåį ·",
      "Ġå· ¦",
      "Ġè¡ ¡",
      "Ġè´ ´",
      "Ġè´ Ŀ",
      "Ġç§ Ł",
      "Ġæ° §",
      "Ġéĥ ĳ",
      "Ġåĳ Ī",
      "Ġæµ ª",
      "Ġçī Ľ",
      "Ġé¢ ĩ",
      "Ġé¢ ĳ",
      "Ġæ³ ī",
      "Ġæ³ Ľ",
      "Ġæŀ Ĳ",
      "Ġæŀ ļ",
      "ĠæĮ ª",
      "ĠæĮ Ĥ",
      "Ġæĭ ¼",
      "Ġæİ ī",
      "Ġè¾ Ĩ",
      "Ġè¾ ī",
      "Ġè¾ ŀ",
      "Ġæ¬ £",
      "Ġç« ¯",
      "Ġå» ī",
      "Ġå§ ĵ",
      "ĠèĤ ¯",
      "ĠåĿ Ľ",
      "Ġæ¸ ¡",
      "ä¸ İ",
      "Ġç® ±",
      "ĠæĻ ĵ",
      "ĠæĽ ¼",
      "Ġæį ķ",
      "Ġå£ ®",
      "ĠéĴ ¢",
      "ĠçĪ Ĩ",
      "Ġæĳ ĩ",
      "åı ¯",
      "Ġåĭ ¤",
      "Ġé¥ ®",
      "Ġéº »",
      "Ġç¿ »",
      "å¤ §",
      "Ġå³ ¡",
      "Ġå³ °",
      "Ġçĩ ĥ",
      "å ·",
      "å Ĭ",
      "æ ±",
      "é ¦",
      "Ġ R",
      "Ġæ ĵ",
      "Ġä¸ Ŀ",
      "Ġçļ ĩ",
      "Ġå¤ º",
      "Ġåı ¥",
      "Ġåľ Ī",
      "ĠåĪ ¸",
      "Ġå® «",
      "Ġè¿ Ł",
      "ĠåĲ «",
      "ĠåĬ ²",
      "Ġç» ĺ",
      "Ġæĺ Į",
      "ĠæĹ Ĺ",
      "Ġè¯ ¢",
      "Ġè¯ į",
      "Ġè¯ ŀ",
      "ĠåĨ °",
      "Ġåĩ Ń",
      "ĠæĬ ½",
      "Ġè¡ ·",
      "Ġèµ µ",
      "Ġèµ ł",
      "Ġç§ ĭ",
      "Ġç§ ĺ",
      "Ġå¾ Ĵ",
      "Ġéĺ ´",
      "Ġå¿ ł",
      "Ġçº ¯",
      "Ġåī Ĥ",
      "Ġåī ĳ",
      "Ġæŀ ª",
      "Ġæĭ Ĵ",
      "Ġæĭ ĸ",
      "Ġæ´ ª",
      "Ġè¾ ĳ",
      "Ġè° ĵ",
      "ĠèĤ ¥",
      "ĠåĿ ¡",
      "Ġè· ¨",
      "Ġè· ĥ",
      "ĠåĢ ¡",
      "Ġèį ¡",
      "ĠéĶ Ĳ",
      "ĠèĪ Ĩ",
      "Ġæ¶ ²",
      "Ġæģ ¢",
      "æľ Ģ",
      "Ġç¼ ĺ",
      "Ġæ® Ĭ",
      "Ġæ® ĸ",
      "Ġè± Ĩ",
      "ĠèĮ ¶",
      "Ġæ¹ ¿",
      "Ġæ¨ ª",
      "Ġèħ Ĳ",
      "äº º",
      "å® ĥ",
      "æł ¹",
      "ä ¿",
      "å ¾",
      "æ Ľ",
      "ç §",
      "ç Ħ",
      "ç ľ",
      "é ĥ",
      "é Ĺ",
      "é ļ",
      "Ġæ Ĩ",
      "Ġæ ĩ",
      "ĠåĪ ĳ",
      "Ġå® ĩ",
      "Ġæĺ ¨",
      "Ġå¹ ¸",
      "ĠæĹ ±",
      "Ġä¹ Į",
      "Ġåį ¢",
      "Ġè¯ ī",
      "ĠåĨ Ī",
      "ĠåŃ Ķ",
      "Ġéĩ Ĭ",
      "Ġåĩ ¡",
      "Ġèµ ı",
      "Ġèµ ĸ",
      "Ġåº Ħ",
      "Ġè´ ¦",
      "Ġéĺ »",
      "Ġå¥ ī",
      "Ġæµ ®",
      "Ġæķ ¦",
      "Ġæł ı",
      "Ġé¢ ĸ",
      "Ġåī ©",
      "ĠçĲ ´",
      "Ġæ² Ł",
      "Ġæ´ ŀ",
      "Ġæ¬ º",
      "Ġç« Ł",
      "Ġæĥ ľ",
      "Ġè° Ĭ",
      "Ġæı ı",
      "ĠèĤ ĥ",
      "Ġé¡ ¶",
      "Ġç© ¿",
      "ĠéĤ ®",
      "ä» ¥",
      "Ġæ· ¡",
      "Ġæģ Ĳ",
      "Ġæ¡ ĳ",
      "Ġéª ¨",
      "Ġæ¼ «",
      "ĠèĦ ļ",
      "Ġçª Ĺ",
      "Ġæ¹ ĺ",
      "Ġç¯ ·",
      "Ġçħ ¤",
      "åı ¦",
      "Ġæ½ ľ",
      "ĠæĤ £",
      "Ġæļ ĸ",
      "Ġæ¥ ļ",
      "Ġé¸ Ł",
      "æ¯ ı",
      "éĤ £",
      "èĩ ª",
      "éĢ ļ",
      "çĦ ¶",
      "éļ ı",
      "¤ Ĳ",
      "ä ¾",
      "å ¹",
      "æ ¬",
      "æ Ģ",
      "ç Ļ",
      "è ´",
      "è ĭ",
      "é Ļ",
      "Ġ O",
      "Ġ X",
      "Ġç Ĵ",
      "Ġè Ľ",
      "Ġé Ĩ",
      "Ġä¸ Ī",
      "Ġä¸ Ľ",
      "Ġäº «",
      "Ġäº ı",
      "Ġåı ¹",
      "ĠåĲ Ĺ",
      "ĠæĹ ¬",
      "ĠæĹ ĭ",
      "ĠæĪ Ī",
      "ĠæĿ °",
      "ĠæĿ Ģ",
      "Ġèµ Ķ",
      "Ġæī Ń",
      "ĠèĢ ¶",
      "Ġè´ ©",
      "Ġè´ ª",
      "Ġæ° Ľ",
      "Ġéĥ Ń",
      "Ġå¥ Ī",
      "Ġåĳ ¢",
      "ĠçĽ ²",
      "Ġå½ ¬",
      "Ġå½ Ń",
      "Ġçº µ",
      "Ġæ² ĥ",
      "Ġæ± Ĺ",
      "Ġè¾ ½",
      "Ġè¾ Ľ",
      "Ġæĥ Ĭ",
      "Ġè° ¢",
      "ĠèĤ ī",
      "ĠåĿ Ĳ",
      "Ġç© ·",
      "Ġé¦ ¨",
      "ĠæĻ ¨",
      "ĠåĢ ¾",
      "Ġæ· ·",
      "ĠçĤ ¸",
      "ĠèĪ į",
      "Ġç± į",
      "ĠèĬ ³",
      "Ġç¼ ©",
      "Ġçĥ Ł",
      "Ġæ¡ £",
      "Ġåķ ¤",
      "Ġæ» ©",
      "Ġæ£ ļ",
      "ĠèĮ Ĥ",
      "Ġçĭ ¼",
      "ĠåĶ ¯",
      "Ġèĳ ¡",
      "ĠæĴ °",
      "ĠæĲ ı",
      "Ġåĭ ĥ",
      "Ġæ¢ ¦",
      "ĠèĴ Ĥ",
      "åĪ ĺ",
      "æĿ İ",
      "ĠéŃ ı",
      "å° ½",
      "åį °",
      "åİ »",
      "Ġå´ ĩ",
      "ĠçĨ Ł",
      "å¥ ¹",
      "Ġåª Ĵ",
      "éĹ ®",
      "å ģ",
      "å Ł",
      "æ µ",
      "ç ī",
      "è °",
      "é ĺ",
      "Ġ \"",
      "Ġ <",
      "Ġ >",
      "Ġ B",
      "Ġ F",
      "Ġ T",
      "ī ´",
      "Ġé ŀ",
      "Ġçļ Ĩ",
      "Ġä» ģ",
      "Ġå¤ ķ",
      "Ġåı ³",
      "ĠåĪ º",
      "ĠåĪ Ģ",
      "Ġå® ¿",
      "Ġå® ĭ",
      "Ġè¿ Ī",
      "ĠåĲ ģ",
      "ĠåĲ Ľ",
      "ĠåĲ ŀ",
      "Ġå¹ ¼",
      "Ġæĸ Į",
      "Ġä¼ °",
      "Ġä¼ Ĳ",
      "Ġä¹ ĥ",
      "Ġä¹ Ĵ",
      "ĠåŃ ¤",
      "ĠæĬ ±",
      "Ġèµ ¤",
      "Ġå± Ī",
      "Ġå± ĭ",
      "ĠèĢ ķ",
      "Ġå¾ ª",
      "Ġå¾ Ĳ",
      "Ġå¥ ı",
      "Ġæµ ©",
      "Ġæµ ĵ",
      "Ġæķ ¢",
      "ĠéĿ Ļ",
      "Ġå¿ ½",
      "Ġå¿ Ļ",
      "Ġçº º",
      "Ġçº ł",
      "Ġé¢ Ĺ",
      "Ġæ³ ¥",
      "Ġæ³ ª",
      "ĠæĮ ĸ",
      "ĠçŃ Ķ",
      "Ġåĵ ª",
      "Ġè½ °",
      "Ġè½ ½",
      "Ġè° ·",
      "Ġçķ ľ",
      "Ġéģ ¥",
      "Ġéģ Ń",
      "Ġç© Ĩ",
      "Ġè· ĳ",
      "Ġå¦ ¥",
      "Ġæ· ¤",
      "Ġç² ī",
      "è¿ ĺ",
      "ĠéĶ »",
      "Ġæ¶ ¦",
      "Ġèİ ²",
      "Ġéľ ĩ",
      "Ġç¼ ´",
      "Ġçĥ §",
      "Ġæ¼ Ĥ",
      "Ġæĳ ĺ",
      "Ġçı ł",
      "ĠçĮ ª",
      "åĽ ¾",
      "Ġçħ Į",
      "ĠæĲ Ń",
      "ĠæĤ ī",
      "Ġæħ §",
      "Ġæħ °",
      "Ġåĭ ĩ",
      "Ġèħ °",
      "çİ ĭ",
      "æĿ ¥",
      "ä¼ ļ",
      "æĺ İ",
      "Ġæ¦ ľ",
      "æ± Ł",
      "é¦ ĸ",
      "Ġæĵ į",
      "éĥ ĳ",
      "å º",
      "è ģ",
      "è ĥ",
      "è ¥¿",
      "é »",
      "Ġç ĺ",
      "Ġè ¹",
      "Ġè ĸ",
      "Ġé ¤Ĳ",
      "Ġé ī´",
      "Ġä» °",
      "Ġåľ Ĩ",
      "Ġæĺ Ĥ",
      "Ġå¹ »",
      "Ġä½ ©",
      "âĢ Ķ",
      "ĠæĹ º",
      "Ġä¹ ĵ",
      "ĠâĢ ĺ",
      "ĠâĢ Ļ",
      "ĠåĨ ¬",
      "ĠæĿ Ń",
      "ĠåĴ ¨",
      "Ġåĩ Ŀ",
      "Ġå¸ Ĳ",
      "ĠæĬ Ľ",
      "Ġå¯ ¨",
      "Ġå± ¥",
      "Ġè´ ¬",
      "Ġéĺ ħ",
      "ĠéĢ ¼",
      "Ġåİ Ħ",
      "Ġè§ ¦",
      "ĠçĽ Ĩ",
      "ĠéĹ ²",
      "ĠéĻ ·",
      "Ġé¢ ģ",
      "Ġæŀ Ŀ",
      "ĠæĮ ¯",
      "Ġä¿ Ĭ",
      "Ġæĭ Ķ",
      "Ġè¾ Ł",
      "Ġçľ ī",
      "Ġæĥ ¯",
      "Ġå§ Ĩ",
      "Ġå§ Ĳ",
      "Ġç¨ Ģ",
      "ĠèĤ Ŀ",
      "Ġæ¸ Ĳ",
      "Ġå¢ ĵ",
      "Ġå¢ Ļ",
      "ĠçĿ ¦",
      "ĠçĿ Ľ",
      "ä¸ ¤",
      "ä¸ »",
      "ä¸ Ĭ",
      "Ġä¾ µ",
      "ĠæĻ ĭ",
      "Ġå¦ »",
      "Ġæį §",
      "ĠèĲ Ħ",
      "Ġæ· ĺ",
      "ĠæŁ ³",
      "Ġçģ Ń",
      "Ġè¢ Ń",
      "Ġæģ °",
      "Ġç¼ ħ",
      "Ġéħ ·",
      "Ġè± ª",
      "Ġåĸ Ŀ",
      "Ġéª ĳ",
      "Ġæ¼ ı",
      "Ġæ¼ ł",
      "Ġæĳ Ĭ",
      "Ġçĭ ±",
      "ĠæĴ ĳ",
      "ĠæĴ ŀ",
      "Ġæħ ķ",
      "Ġé¥ ±",
      "Ġç¢ °",
      "Ġç¢ ĳ",
      "Ġç¿ °",
      "åĪ °",
      "ĠéŃ ħ",
      "åĨ į",
      "æĬ ¥",
      "Ġå« ©",
      "Ġçĩ ķ",
      "å¸ Ĥ",
      "åĩ ł",
      "å· ´",
      "ç§ ĳ",
      "çľ ĭ",
      "æ¬ §",
      "¦ Ĩ",
      "§ Ĳ",
      "å ī",
      "å Ń¦",
      "æ ·",
      "æ ¸",
      "æ Į",
      "æ ķ",
      "é ¢",
      "é ķ",
      "é Ŀ",
      "é Ł",
      "Ġ I",
      "Ġ S",
      "Ġ V",
      "Ġ Y",
      "Ġå ³»",
      "Ġç ³",
      "Ġè ¦Ĩ",
      "ĠåĬ £",
      "ĠåĬ «",
      "Ġç» ĳ",
      "Ġæĺ Ĩ",
      "ĠæĹ ¨",
      "Ġå° ĸ",
      "Ġè¯ ±",
      "Ġè¯ ĳ",
      "ĠåĨ »",
      "Ġå· §",
      "Ġå¸ ľ",
      "ĠæĬ ĺ",
      "Ġå¼ ĺ",
      "Ġåº Ĭ",
      "Ġåº Ļ",
      "Ġå¯ ¿",
      "Ġå¯ Ĵ",
      "Ġæī £",
      "Ġè´ ¿",
      "Ġå¾ ¡",
      "Ġéĺ ģ",
      "ĠéĻ ķ",
      "Ġçº ²",
      "Ġèĥ ¶",
      "Ġèĩ £",
      "Ġä¿ ±",
      "Ġæİ ĺ",
      "Ġç¾ Ĭ",
      "Ġæ± °",
      "Ġæ´ Ĵ",
      "Ġæ¬ ł",
      "Ġè½ ¨",
      "ĠéĽ ª",
      "ĠéĽ ķ",
      "Ġéģ µ",
      "ĠèĤ ĸ",
      "Ġæ¸ Ķ",
      "Ġæ¸ ł",
      "Ġç¬ ĳ",
      "ä¸ ¹",
      "ä¸ ī",
      "ä¸ ĵ",
      "Ġä¾ §",
      "Ġä¾ ¯",
      "Ġçł ģ",
      "Ġè· ³",
      "Ġç½ ķ",
      "Ġç¥ ¥",
      "Ġéļ Ĳ",
      "Ġéļ Ķ",
      "Ġå¦ ¹",
      "Ġå² ³",
      "Ġæ· »",
      "Ġèį ·",
      "Ġå£ ³",
      "ĠèĪ Ł",
      "Ġæ¶ ¨",
      "Ġæģ ©",
      "ĠèĬ ¬",
      "Ġæ¡ Į",
      "Ġæ£ ī",
      "Ġåĸ Ĭ",
      "Ġåŀ ¦",
      "ĠéŁ ¦",
      "ĠèĦ ¸",
      "ĠèĦ ı",
      "Ġçª ĥ",
      "Ġæº ª",
      "åħ ¬",
      "Ġå¨ ĺ",
      "Ġå¨ ľ",
      "Ġçĭ Ĥ",
      "Ġèĳ Ľ",
      "ĠèĻ İ",
      "ĠèĻ ļ",
      "ĠæĴ Ĵ",
      "ĠæĲ º",
      "åı ª",
      "ĠæĤ ¬",
      "Ġèı Į",
      "Ġæ¢ °",
      "æĸ ĩ",
      "åĲ Ħ",
      "ĠåĤ ¬",
      "æĹ ł",
      "å¤ ©",
      "Ġé¹ ı",
      "å° ±",
      "Ġå« Į",
      "Ġå© ´",
      "Ġèĵ ¬",
      "Ġè¸ ı",
      "Ġç£ ¨",
      "Ġç£ ĭ",
      "è® °",
      "ĠèĨ ı",
      "æ³ ķ",
      "åĬ ł",
      "æĢ »",
      "ĠçĴ ĩ",
      "çī ¹",
      "èģ Ķ",
      "åī į",
      "éķ ¿",
      "éŁ ©",
      "â Ĺı",
      "å ¡",
      "å ±",
      "å ĵ",
      "å Ń",
      "æ Ħ",
      "æ ŀ",
      "è µ",
      "è Ļ",
      "é ©",
      "é ²",
      "é ĩ",
      "é Ĵ",
      "é «ĺ",
      "Ġ N",
      "Ġæ §Ĳ",
      "Ġè ķ",
      "Ġè ľ",
      "Ġé Ħ",
      "Ġä¸ ¢",
      "Ġä¸ ģ",
      "Ġäº ¦",
      "Ġåħ ģ",
      "Ġä» ĵ",
      "Ġåľ ¾",
      "ĠåĪ ·",
      "ĠåĪ ĥ",
      "Ġå® ª",
      "Ġè¿ ģ",
      "Ġè¿ Ħ",
      "Ġè¿ Ķ",
      "ĠåĲ §",
      "ĠåĲ ķ",
      "Ġä½ Ľ",
      "Ġä¼ ¸",
      "Ġä¼ ı",
      "ĠçĶ ¸",
      "ĠçĶ ĺ",
      "ĠçĶ ľ",
      "Ġå° º",
      "Ġå° ĺ",
      "Ġå° Ŀ",
      "Ġä¹ Ļ",
      "ĠæĪ ª",
      "Ġå· ¡",
      "Ġåĩ ¤",
      "Ġåĩ Į",
      "Ġåº Ĳ",
      "Ġå± ¡",
      "ĠéĢ Ĩ",
      "Ġéĥ Ĭ",
      "Ġéĥ İ",
      "Ġå¥ ¶",
      "Ġåİ ¦",
      "ĠæĢ ¨",
      "Ġæµ Ļ",
      "Ġæł ½",
      "ĠéĹ ¯",
      "Ġçī µ",
      "ĠéĻ ¶",
      "Ġçº ½",
      "Ġåī ¥",
      "ĠçĲ Ľ",
      "Ġèĥ Ĩ",
      "Ġæŀ ¯",
      "ĠæĮ £",
      "Ġéķ ľ",
      "Ġæĭ ¨",
      "Ġæİ Ģ",
      "Ġç¾ ½",
      "ĠæĦ Ī",
      "Ġæĥ ¨",
      "Ġå§ ¿",
      "Ġèģ ĺ",
      "ĠéĽ ģ",
      "Ġçķ ħ",
      "ĠèĤ ¤",
      "ĠåĿ ª",
      "ĠåĿ Ģ",
      "Ġé¡ ½",
      "ä¸ ĭ",
      "ä¸ ĸ",
      "Ġçł ĸ",
      "ĠæĻ ¤",
      "Ġéļ §",
      "Ġåģ ·",
      "Ġæį ŀ",
      "Ġæ· Į",
      "ĠçĤ ¯",
      "Ġèĭ Ĺ",
      "ĠæŁ ±",
      "Ġç² Ĵ",
      "Ġèį Ĳ",
      "Ġç´ «",
      "Ġé© ±",
      "Ġé© ¾",
      "Ġè¢ ĭ",
      "Ġæ¶ Į",
      "Ġéľ ¸",
      "ĠçĦ ¦",
      "ĠéĴ ¦",
      "Ġç¼ Ķ",
      "Ġéħ µ",
      "Ġæ» ¥",
      "Ġè£ Ķ",
      "Ġé» ĺ",
      "Ġéª ¤",
      "ĠèĮ ħ",
      "Ġçĸ «",
      "ĠçĹ ĩ",
      "Ġåŀ ĥ",
      "ĠèĦ ī",
      "Ġçª ĳ",
      "Ġå¡ ĺ",
      "Ġç¦ ½",
      "åħ ĭ",
      "ĠèĻ «",
      "åı Ĥ",
      "Ġæ½ Ń",
      "ĠæĤ ¦",
      "ĠæĤ ²",
      "ĠæĤ Ķ",
      "Ġèı ĩ",
      "Ġé¥ °",
      "Ġåł ª",
      "Ġèħ ¾",
      "Ġèħ ¿",
      "Ġéº Ł",
      "äº ĭ",
      "äº Į",
      "äº İ",
      "ĠèĴ ĭ",
      "Ġç¢ į",
      "ĠåĤ ħ",
      "Ġç¿ ¼",
      "å® ī",
      "å® ŀ",
      "Ġé¸ ¡",
      "Ġé¸ £",
      "èĢ ģ",
      "åİ Ĩ",
      "åİ Ł",
      "Ġå´ Ľ",
      "æĬ Ĭ",
      "Ġå« Ĥ",
      "å¸ ĥ",
      "Ġå© ļ",
      "Ġèĵ Ħ",
      "èĩ ³",
      "å¼ Ģ",
      "å¼ ł",
      "è® ¸",
      "ä¿ Ħ",
      "å¾ ·",
      "ĠæĨ ¾",
      "Ġæĩ Ī",
      "åŁ º",
      "æµ ·",
      "åº Ķ",
      "æ· ±",
      "èĻ ½",
      "» º",
      "å ¢",
      "å Ģ",
      "å Ķ",
      "å »º",
      "æ ¢",
      "æ Ķ",
      "æ Ļ",
      "æ Ł",
      "ç ©",
      "ç ®",
      "ç º",
      "ç Ĳ",
      "ç Ł",
      "è §",
      "è ī",
      "é ¡",
      "Ġ -",
      "Ġ =",
      "Ġ H",
      "Ġ o",
      "Ĺ ĭ",
      "Ġè ĺ",
      "Ġè ļ",
      "Ġä¸ §",
      "Ġåħ ®",
      "Ġåħ Ħ",
      "Ġä» ²",
      "Ġä» ¿",
      "ĠåĲ Ĭ",
      "Ġç» ª",
      "Ġæĸ ľ",
      "ĠæĹ ģ",
      "Ġå° ¾",
      "Ġä¹ Ķ",
      "ĠåĨ Ģ",
      "ĠåŃ ķ",
      "Ġå· ©",
      "Ġåĩ ¯",
      "Ġåĩ ¿",
      "Ġå¸ ķ",
      "ĠæĬ «",
      "Ġè¡ «",
      "Ġè¡ ¬",
      "Ġå¼ ¥",
      "Ġå¼ Ĭ",
      "Ġåº ¸",
      "Ġå¯ ħ",
      "Ġæī °",
      "Ġæī ĳ",
      "ĠèĢ ³",
      "Ġè´ ¾",
      "Ġç§ ¦",
      "Ġç§ Ĵ",
      "Ġæ° ¢",
      "Ġæ° ı",
      "ĠéĢ ĥ",
      "ĠéĢ Ĵ",
      "ĠéĢ Ŀ",
      "Ġå¥ ¢",
      "Ġå¥ Ķ",
      "Ġå¥ ł",
      "ĠçĽ Ī",
      "ĠçĽ Ĵ",
      "Ġæµ ħ",
      "Ġæķ Į",
      "ĠéĿ ĸ",
      "Ġçİ ©",
      "Ġçİ Ľ",
      "Ġçī ²",
      "Ġå½ °",
      "Ġå½ ¹",
      "Ġå¿ į",
      "ĠéĻ ª",
      "Ġçº ¹",
      "Ġåī Ĭ",
      "Ġèĥ İ",
      "Ġæ³ ¡",
      "ĠæĮ ¤",
      "ĠæĮ º",
      "ĠæĮ ½",
      "Ġè¾ Ī",
      "Ġè¾ ĸ",
      "Ġç« ¹",
      "ĠæĦ ģ",
      "Ġåĵ ²",
      "Ġæĥ ĳ",
      "Ġè° ±",
      "Ġè° ´",
      "ĠéĽ ¾",
      "Ġæ¸ Ĭ",
      "Ġæ¸ Ń",
      "Ġé¡ µ",
      "Ġé¡ ·",
      "ĠçĿ ¡",
      "Ġçł į",
      "Ġè· »",
      "ĠæĽ ¹",
      "ĠæĽ ¿",
      "Ġåģ ı",
      "Ġå¦ Ī",
      "Ġæ· ¹",
      "ĠçĤ İ",
      "ĠçĻ Į",
      "ĠæŁ ı",
      "Ġç² ¹",
      "Ġé© ¶",
      "Ġè¢ ģ",
      "Ġéľ ĸ",
      "Ġæģ ª",
      "Ġæģ ¼",
      "Ġéĵ ²",
      "Ġéĵ ľ",
      "ĠçĦ ī",
      "Ġæ¡ ¶",
      "Ġåķ Ĭ",
      "Ġæ» ¨",
      "Ġæ» ĳ",
      "Ġæ» ŀ",
      "Ġè£ Ĥ",
      "Ġè£ ķ",
      "Ġæĳ ¸",
      "ĠèĮ ¨",
      "Ġåŀ Ħ",
      "Ġåŀ Ĵ",
      "ĠçĮ ľ",
      "åħ Ī",
      "Ġæ¹ Ľ",
      "Ġçĭ Ń",
      "ĠåĶ ¤",
      "ä½ ķ",
      "ĠæĲ ¬",
      "ĠæĲ ľ",
      "åı Į",
      "åı ĳ",
      "åı Ĺ",
      "Ġæ½ ĺ",
      "æĪ ª",
      "æĪ Ĳ",
      "ĠæĤ ł",
      "Ġæħ ¨",
      "Ġåĥ µ",
      "Ġåł ¡",
      "Ġåł Ĩ",
      "Ġèħ Ķ",
      "Ġæļ ĳ",
      "Ġæļ Ĺ",
      "äº ¬",
      "Ġç¢ Ĺ",
      "Ġé¼ ł",
      "å¤ ĸ",
      "å® ¶",
      "åĪ Ľ",
      "Ġé¸ Ń",
      "æĿ ĳ",
      "Ġé¹ ¤",
      "ĠéŃ Ĥ",
      "å° ı",
      "åį ģ",
      "ä¼ Ĭ",
      "æĺ ¯",
      "Ġèĵ Ŀ",
      "Ġè¸ ª",
      "Ġç£ ģ",
      "ä¹ ¡",
      "ä¹ Ł",
      "å¥ ³",
      "Ġçŀ ©",
      "ĠèĶ ¬",
      "ĠèĶ ĵ",
      "ĠèĶ ļ",
      "Ġåĺ ´",
      "Ġåĺ ī",
      "æ² ¡",
      "æ³ °",
      "æĽ ¾",
      "ĠæĨ ¨",
      "ä¾ ĭ",
      "çĻ ½",
      "èĭ ı",
      "éĻ Ī",
      "ĠéĨ Ĵ",
      "åģ ĩ",
      "éĺ ¿",
      "Ġéŀ ĭ",
      "èĥ ¡",
      "Ġè¹ Ī",
      "åĵ Ī",
      "æŀ ľ",
      "é© ¬",
      "é² ģ",
      "¤ ¾",
      "¦ ı",
      "§ Ķ",
      "© ¡",
      "¬ ¼",
      "° ĳ",
      "µ ®",
      "½ Ĺ",
      "å £",
      "å §Ķ",
      "æ ´",
      "æ ı",
      "æ Ń¦",
      "æ °ĳ",
      "ç «",
      "ç ĥ",
      "ç ı",
      "ç ¤¾",
      "ç ¦ı",
      "ç ½Ĺ",
      "è į",
      "Ġ w",
      "Ġæ ©¡",
      "Ġç µ®",
      "Ġè ¤",
      "Ġè Ŀ",
      "Ġé «",
      "Ġé ¬¼",
      "ãĢ İ",
      "Ġåħ Ķ",
      "Ġæľ µ",
      "Ġä» ĳ",
      "Ġä» Ĺ",
      "Ġå¤ ¹",
      "Ġåı ł",
      "ĠåĲ ¹",
      "Ġæĺ ¼",
      "Ġå¹ ½",
      "Ġä¼ ª",
      "ĠçĶ º",
      "Ġåį ¤",
      "Ġåį §",
      "Ġåį ¸",
      "Ġåį ¿",
      "Ġåį ĵ",
      "Ġåį ľ",
      "Ġè¯ Ĭ",
      "ĠåĨ ¯",
      "ĠåĴ ¬",
      "ĠåĴ ¸",
      "Ġåĩ ½",
      "Ġåĩ ĳ",
      "Ġå¸ Ŀ",
      "ĠæĬ ¼",
      "ĠæĬ ļ",
      "Ġå¼ Ī",
      "Ġå¼ Ĺ",
      "Ġèµ «",
      "ĠåĮ ¹",
      "Ġå¯ ĩ",
      "Ġæī «",
      "Ġæī ¯",
      "Ġæī Ķ",
      "ĠèĢ Ģ",
      "ĠèĢ Ĳ",
      "Ġè´ º",
      "Ġæ° ¨",
      "Ġæ° ®",
      "Ġéĺ Ķ",
      "ĠéĢ ¢",
      "Ġå¥ ´",
      "Ġåĳ Ĩ",
      "Ġåİ ī",
      "ĠæĢ Ĵ",
      "ĠçĽ ¯",
      "ĠçĽ Ĳ",
      "ĠçĽ Ĺ",
      "Ġæµ ¦",
      "Ġæµ ı",
      "Ġæł ª",
      "Ġçī ¢",
      "ĠæŃ §",
      "ĠæŃ ¹",
      "ĠæŃ ĩ",
      "Ġå½ ¼",
      "Ġå¿ Ĩ",
      "ĠéĻ ¡",
      "Ġé¢ Ī",
      "Ġé¢ ľ",
      "ĠçĲ ª",
      "ĠçĲ ³",
      "ĠçĲ ¼",
      "Ġèĥ ĸ",
      "Ġæ² §",
      "Ġæ² ª",
      "Ġæ² ¼",
      "Ġæ² Ľ",
      "Ġæ³ ¼",
      "Ġèĩ Ń",
      "ĠæĮ ¨",
      "ĠæĮ «",
      "Ġéķ Ģ",
      "Ġä¿ ı",
      "Ġä¿ ŀ",
      "ĠçŃ ĭ",
      "ĠåŁ Ķ",
      "Ġæĭ ³",
      "Ġæĭ Ĩ",
      "Ġæĭ ĺ",
      "Ġæĭ Ł",
      "Ġæ± Ŀ",
      "Ġè¾ °",
      "Ġè¾ ħ",
      "Ġè¾ Ĳ",
      "Ġç« Ń",
      "ĠæĦ §",
      "ĠæĦ ī",
      "ĠæĦ ļ",
      "Ġæĥ ©",
      "Ġå» Ĭ",
      "Ġå§ ĳ",
      "Ġèģ ª",
      "Ġè° £",
      "Ġæı ½",
      "Ġæı Ĵ",
      "ĠéĽ ¶",
      "ĠéĽ ¹",
      "ĠéĽ Ģ",
      "ĠéĽ ĩ",
      "Ġçķ ı",
      "Ġéģ £",
      "Ġéģ ı",
      "Ġç¨ į",
      "ĠèĤ ¢",
      "ĠèĤ ©",
      "ĠèĤ º",
      "ĠèĤ ¿",
      "ĠèĤ ļ",
      "Ġèī ĩ",
      "Ġæ¸ Ĺ",
      "Ġç¬ ¼",
      "Ġä¾ ¨",
      "Ġç© ´",
      "Ġç½ ¢",
      "Ġç½ ©",
      "Ġç½ Ĳ",
      "Ġé£ ĺ",
      "ĠéĤ µ",
      "Ġéļ ¶",
      "Ġåģ ¶",
      "Ġå¦ Ļ",
      "Ġæį Ĩ",
      "Ġå² ©",
      "Ġå² ļ",
      "ĠèĲ į",
      "ĠèĲ İ",
      "ä» ħ",
      "ĠçĤ Ĵ",
      "Ġèĭ Ł",
      "ĠæŁ ¬",
      "ĠæŁ ´",
      "ĠæŁ Ķ",
      "ĠæŁ ľ",
      "Ġç² Ĺ",
      "Ġèį §",
      "Ġèį Ķ",
      "Ġçģ °",
      "Ġçģ Į",
      "Ġå£ ¤",
      "Ġå£ ĳ",
      "Ġç¡ ķ",
      "è¿ ŀ",
      "Ġè¢ į",
      "ĠéĶ ¡",
      "ĠéĶ ¯",
      "ĠèĪ Ĵ",
      "Ġæ¶ µ",
      "Ġæ¶ Ĥ",
      "Ġèİ ī",
      "Ġèİ İ",
      "Ġæģ Ń",
      "æľ º",
      "ĠèĬ Ĵ",
      "Ġéĵ ¾",
      "Ġéĵ ħ",
      "Ġéĵ Ń",
      "ĠéĴ ī",
      "ĠéĴ Ĭ",
      "åľ °",
      "Ġæ» ´",
      "Ġæ» ļ",
      "Ġåĸ »",
      "Ġéª Ħ",
      "ĠçĪ ¬",
      "Ġæ¼ ĵ",
      "Ġæĳ Ĵ",
      "ĠéŁ §",
      "ĠéŁ µ",
      "ĠèĦ Ĩ",
      "Ġçª Ŀ",
      "ĠçĮ İ",
      "ĠçĮ Ľ",
      "Ġå¡ «",
      "Ġå¡ Į",
      "åħ ±",
      "åħ ļ",
      "Ġå¨ ĥ",
      "Ġçĭ ®",
      "åĽ Ľ",
      "åı ¸",
      "Ġæ¨ ±",
      "Ġæ½ ĩ",
      "Ġé¾ ļ",
      "ĠæĤ ¨",
      "ĠæĤ Ł",
      "Ġé¥ ¶",
      "Ġæ¿ Ĵ",
      "Ġèħ Ĭ",
      "Ġæļ Ĥ",
      "Ġçĵ ¶",
      "äº ĳ",
      "æĸ ¹",
      "åĲ ¬",
      "åĲ İ",
      "åĲ ĳ",
      "Ġç¢ §",
      "Ġç¢ ³",
      "æĹ ©",
      "çĽ ¸",
      "Ġæ¥ ·",
      "ç» ĵ",
      "æĿ ¨",
      "Ġâ Ĺĭ",
      "Ġé¹ °",
      "Ġé¹ ¿",
      "ĠéŃ Ķ",
      "åĮ º",
      "åį Ĺ",
      "åĨ ³",
      "åĨ ħ",
      "åĨ ľ",
      "æī ĵ",
      "Ġå´ Ń",
      "å¸ Į",
      "æĺ ¨",
      "Ġå© Ĩ",
      "ĠçĨ Ĭ",
      "Ġè¸ ¢",
      "Ġé½ ¿",
      "Ġèª ĵ",
      "Ġçŀ »",
      "åĩ º",
      "æ² ³",
      "å· ¥",
      "é¦ Ļ",
      "å¾ Ĺ",
      "çľ ģ",
      "Ġæĩ Ĥ",
      "ä¾ Ŀ",
      "å¹ ³",
      "å¹ ¿",
      "çĻ ¾",
      "è´ Ŀ",
      "ĠéĨ ī",
      "åģ ļ",
      "åŁ ĥ",
      "è° ¢",
      "éĺ ³",
      "Ġèĸ Ħ",
      "Ġèĸ Ľ",
      "æĮ ī",
      "é¢ Ħ",
      "éĿ ¢",
      "Ġç³ ĸ",
      "å± ±",
      "æĦ ı",
      "èµ °",
      "éĴ Ī",
      "Ġèķ ´",
      "ĠéĦ Ĥ",
      "æ¢ ģ",
      "çĲ Ĩ",
      "æı Ĳ",
      "I I",
      "¡ Ĥ",
      "¨ ģ",
      "© ¹",
      "¶ Ī",
      "· ¯",
      "¹ ĸ",
      "º ¦",
      "¼ ĸ",
      "½ ĺ",
      "¾ ³",
      "¾ ½",
      "¾ Ļ",
      "å ¿",
      "å ĥ",
      "å ¨ģ",
      "æ ģ",
      "æ ĳ",
      "æ ¡Ĥ",
      "æ ¶Ī",
      "æ ¹ĸ",
      "æ ½ĺ",
      "æ ¾³",
      "ç ¥",
      "ç ¨",
      "ç ²",
      "ç ĩ",
      "ç ļ",
      "ç ł",
      "ç Ń",
      "ç ¼ĸ",
      "è ¶",
      "è Ĥ",
      "è Ĳ",
      "è ĳ",
      "è ·¯",
      "è ¾½",
      "é £",
      "é º¦",
      "é ¾Ļ",
      "Ġ L",
      "Ġ h",
      "Ġ n",
      "ĳ «",
      "ł ķ",
      "Ġè Ĺ",
      "Ġè ¤Ĳ",
      "Ġè łķ",
      "Ġé ĳ«",
      "Ġä¸ ²",
      "Ġä¸ Ļ",
      "Ġäº Ń",
      "Ġåħ ½",
      "Ġåħ ĳ",
      "Ġæľ ½",
      "Ġä» Ĩ",
      "Ġä» ĩ",
      "Ġä» ķ",
      "Ġå¤ ¸",
      "Ġåı Ļ",
      "Ġåı Ľ",
      "Ġåı Ń",
      "ĠåĽ Ĭ",
      "ĠåĽ ļ",
      "Ġåľ Ń",
      "ĠåĪ ®",
      "Ġè¿ Ń",
      "ĠåĲ ¾",
      "ĠåĲ Ĳ",
      "Ġç» °",
      "Ġç» ³",
      "Ġæĺ §",
      "Ġæĺ Ģ",
      "Ġæĺ Ĭ",
      "Ġæĺ Ń",
      "Ġæĸ ĳ",
      "Ġæĸ ĵ",
      "Ġå° ¹",
      "Ġå° ¿",
      "Ġè® ¼",
      "Ġåį ¦",
      "ĠæĪ İ",
      "ĠæĪ ļ",
      "Ġè¯ ¦",
      "Ġè¯ «",
      "ĠåĨ Ĵ",
      "ĠåĨ ķ",
      "ĠæĿ ī",
      "ĠåŃ ļ",
      "ĠåŃ ľ",
      "ĠåŃ Ŀ",
      "ĠåŃ Ł",
      "Ġå· ¢",
      "Ġå· ¾",
      "ĠåĴ ½",
      "ĠåĴ ı",
      "Ġåĩ ¸",
      "Ġåĩ ī",
      "Ġå¸ Ĩ",
      "Ġå¸ ĸ",
      "ĠæĬ ĳ",
      "Ġè¡ į",
      "Ġè¡ Ķ",
      "ĠæĶ Ģ",
      "Ġå¼ Ħ",
      "Ġèµ £",
      "Ġèµ ģ",
      "Ġèµ Ĥ",
      "Ġèµ ĥ",
      "Ġèµ ĭ",
      "Ġèµ ļ",
      "ĠåĮ ª",
      "ĠåĮ Ģ",
      "Ġåº ŀ",
      "Ġå¯ ¥",
      "Ġå¯ ¸",
      "Ġå¯ Ħ",
      "Ġæī ®",
      "Ġæī ³",
      "Ġæī ¼",
      "ĠèĢ Ĺ",
      "Ġç§ ī",
      "Ġå¾ ½",
      "Ġéĺ ®",
      "Ġéĺ Ģ",
      "Ġéĺ İ",
      "ĠéĢ ®",
      "ĠéĢ »",
      "ĠéĢ ¾",
      "Ġéĥ ģ",
      "Ġå¥ ¸",
      "Ġåĳ Ģ",
      "Ġåĳ Ĳ",
      "Ġåİ ¢",
      "Ġåİ ķ",
      "Ġåİ ĺ",
      "ĠæĢ ¡",
      "ĠæĢ ľ",
      "Ġè§ ħ",
      "Ġæµ ´",
      "Ġæµ Ĩ",
      "Ġæµ ĩ",
      "Ġæµ ĳ",
      "Ġæķ ĸ",
      "Ġæł ĭ",
      "ĠéĹ ª",
      "ĠéĹ ¹",
      "ĠéĹ ½",
      "Ġçİ ²",
      "Ġçİ º",
      "Ġçİ »",
      "Ġçī º",
      "ĠéĻ ĭ",
      "Ġçº ¤",
      "Ġçº ±",
      "Ġåī ²",
      "Ġèĥ ¸",
      "Ġèĥ Ģ",
      "Ġèĥ ĥ",
      "Ġæ² «",
      "Ġæ² ¾",
      "Ġæ² Ń",
      "Ġæ³ £",
      "Ġæ³ ³",
      "Ġæ³ Ĭ",
      "Ġèĩ Ĥ",
      "Ġæŀ ī",
      "Ġæ¯ Ļ",
      "ĠæĮ ¡",
      "ĠæĮ ļ",
      "ĠæĮ ł",
      "Ġéķ ĳ",
      "Ġéķ ķ",
      "Ġä¿ ©",
      "Ġä¿ Ĺ",
      "Ġä¿ Ń",
      "ĠåŁ ĭ",
      "Ġæĭ £",
      "Ġæĭ ¯",
      "Ġæĭ ¾",
      "Ġæĭ Ĺ",
      "Ġæİ ©",
      "Ġæİ ·",
      "Ġæİ º",
      "Ġç¾ ¡",
      "Ġç¾ Ķ",
      "Ġæ± ²",
      "Ġè¾ ¨",
      "Ġæ¬ ²",
      "Ġçľ ¶",
      "Ġç« ¿",
      "Ġç¤ ģ",
      "Ġåĵ Ģ",
      "Ġåĵ Ħ",
      "Ġå§ ¥",
      "Ġå§ »",
      "Ġå§ ļ",
      "Ġå§ ľ",
      "Ġèģ Ĭ",
      "Ġè° ¦",
      "Ġè° ¨",
      "Ġè° ¶",
      "Ġçķ ´",
      "Ġçķ ¹",
      "ĠèĤ Į",
      "ĠåĿ Ĥ",
      "ĠåĿ Ĭ",
      "ĠåĿ İ",
      "ĠåĿ ĳ",
      "ĠåĿ Ŀ",
      "ĠåĿ ł",
      "Ġèī ³",
      "Ġæ¸ £",
      "Ġæ¸ ²",
      "Ġæ¸ ´",
      "ĠçĿ ¹",
      "ĠçĿ ģ",
      "ä¸ ª",
      "ä¸ °",
      "ä¸ ģ",
      "ä¸ ĥ",
      "Ġä¾ Ī",
      "Ġç© Ĺ",
      "ĠæĻ ĥ",
      "ĠæĻ ĸ",
      "Ġç½ Ĥ",
      "Ġè¶ ģ",
      "Ġè¶ Ł",
      "ĠåĢ ª",
      "ĠåĢ ĺ",
      "ĠçŁ ®",
      "ĠéĤ ¹",
      "Ġéļ ĺ",
      "Ġæį ¡",
      "Ġæį £",
      "Ġæį ·",
      "Ġæį Ĥ",
      "Ġæį ī",
      "Ġå² Ń",
      "ĠèĲ Į",
      "ä» »",
      "Ġæ· Ħ",
      "Ġæ· ĭ",
      "ĠçĤ ®",
      "ĠçĤ ī",
      "ĠçĤ ľ",
      "Ġèĭ į",
      "ĠçĻ ľ",
      "Ġç² ¤",
      "Ġç² ¥",
      "Ġç² Ł",
      "Ġèį Ĩ",
      "Ġçģ ¿",
      "Ġé© °",
      "Ġé© ¹",
      "Ġé© ¿",
      "Ġå£ ¶",
      "è¿ ĩ",
      "è¿ Ĳ",
      "è¿ Ľ",
      "Ġè¢ Ĵ",
      "ĠéĶ £",
      "ĠéĶ °",
      "ĠéĶ ģ",
      "ĠéĶ ħ",
      "ĠèĪ °",
      "ĠèĪ ±",
      "Ġæ¶ ©",
      "Ġç± ½",
      "Ġèİ Ĵ",
      "Ġèİ ŀ",
      "Ġéľ į",
      "Ġéľ ı",
      "Ġæģ Ĵ",
      "ĠèĬ ľ",
      "ĠèĬ Ŀ",
      "Ġéĵ ¢",
      "Ġéĵ ¸",
      "Ġéĵ º",
      "Ġéĵ Ŀ",
      "ĠçĦ °",
      "ĠçĦ ķ",
      "ĠéĴ »",
      "ĠéĴ ĵ",
      "ĠéĴ ŀ",
      "ĠéĴ ł",
      "Ġç¼ Ģ",
      "Ġç¼ ķ",
      "Ġç¼ ļ",
      "Ġç¼ Ŀ",
      "Ġçĥ ¦",
      "Ġçĥ ½",
      "Ġçĥ Ĥ",
      "Ġæ¡ ĥ",
      "Ġæ¡ Ĩ",
      "Ġéħ ±",
      "Ġéħ ½",
      "Ġéħ ļ",
      "Ġåķ ¥",
      "Ġåķ ¦",
      "Ġåķ §",
      "Ġæ» ķ",
      "Ġæ£ į",
      "Ġæ® ī",
      "Ġèº º",
      "Ġè£ ¸",
      "Ġåĸ §",
      "Ġåĸ Ģ",
      "Ġåĸ ĩ",
      "Ġéª ¼",
      "Ġéª Ĩ",
      "Ġéª Ĺ",
      "ĠçĪ ·",
      "ĠçĪ ½",
      "Ġæĳ Ķ",
      "ĠèĮ «",
      "ĠåĦ Ĵ",
      "Ġçĸ ²",
      "Ġçĸ ¼",
      "Ġçĸ Ł",
      "Ġåŀ £",
      "Ġåŀ Ĥ",
      "Ġèŀ º",
      "ĠèĦ Ĥ",
      "ĠèĦ Ĭ",
      "Ġçª į",
      "Ġçª Ł",
      "ĠçĮ ©",
      "Ġæº ¢",
      "Ġæº ¶",
      "ĠçĬ ¹",
      "Ġç¦ ħ",
      "åħ «",
      "åħ Ń",
      "Ġå¨ Ł",
      "Ġç¯ Ĩ",
      "Ġèĳ ¬",
      "ĠèĻ ¹",
      "ä½ Ľ",
      "ĠåĻ ª",
      "ĠåĻ ¬",
      "åı ¤",
      "åı į",
      "Ġæ½ ¢",
      "Ġé¾ Ł",
      "ĠæĤ Ħ",
      "Ġæħ Ī",
      "Ġæħ Į",
      "Ġæħ İ",
      "Ġèı Ĭ",
      "Ġåĭ ī",
      "Ġåĭ ĺ",
      "Ġåĥ »",
      "Ġåł µ",
      "Ġèħ ¹",
      "Ġèħ »",
      "Ġæļ ¨",
      "äº Ķ",
      "æŃ ¹",
      "å½ Ń",
      "åĲ ´",
      "ĠèĴ ľ",
      "çĶ »",
      "çĶ Ł",
      "Ġç¢ İ",
      "Ġé¼ »",
      "ĠåĤ £",
      "ĠåĤ ²",
      "æĹ ¢",
      "æĹ §",
      "Ġç¿ ģ",
      "Ġç¿ Ķ",
      "Ġç¿ ł",
      "Ġçĳ °",
      "Ġçĳ ¾",
      "ç¾ ¤",
      "Ġæ¥ ł",
      "å¤ «",
      "å¤ į",
      "Ġå³ ¦",
      "Ġå³ ¨",
      "å® ĭ",
      "è¯ ´",
      "è¯ ·",
      "è¯ »",
      "åĪ ©",
      "åĪ ļ",
      "åĪ Ŀ",
      "ç» ¼",
      "ç» Ł",
      "Ġé¹ ħ",
      "Ġé¹ Ń",
      "å° ¤",
      "å° ¼",
      "åĮ »",
      "åĮ ħ",
      "åį İ",
      "åİ ¿",
      "æī ¶",
      "æī İ",
      "Ġå´ ĸ",
      "æĬ ±",
      "æĬ ķ",
      "æĬ Ĺ",
      "ä¼ ´",
      "ä¼ ģ",
      "å¸ ¸",
      "æ¯ Ķ",
      "æ¯ Ľ",
      "Ġå© ¿",
      "ĠçĨ ¬",
      "Ġèĵ ī",
      "Ġè¸ µ",
      "Ġè¸ Ĭ",
      "éĤ ¹",
      "ä¹ Ŀ",
      "Ġçŀ Ĵ",
      "ĠèĶ ¡",
      "åĩ ¡",
      "Ġåĺ ²",
      "Ġåĺ Ń",
      "å¼ º",
      "æ² ¹",
      "æ² »",
      "ĠèĨ ľ",
      "æ³ ¢",
      "éĢ ł",
      "Ġåª ļ",
      "åĬ ³",
      "æ± ī",
      "Ġæĵ ħ",
      "ä¿ ¡",
      "æĽ ´",
      "æĽ ¹",
      "Ġæĩ Ĵ",
      "ä¾ ¯",
      "æĢ Ŀ",
      "çĻ »",
      "èĭ ¦",
      "èĭ ±",
      "éĻ ķ",
      "ĠçĴ ĥ",
      "ĠèĽ ®",
      "ĠèĽ ĩ",
      "ĠèĽ Ļ",
      "è° ģ",
      "è° Ī",
      "Ġéŀ į",
      "Ġéŀ Ń",
      "é» Ħ",
      "é» İ",
      "é» ĳ",
      "Ġçĺ ¤",
      "Ġçĺ «",
      "Ġè¹ Ħ",
      "æ¸ ©",
      "æ¸ ¸",
      "æ¸ ħ",
      "æĮ ĩ",
      "é¢ ĺ",
      "éĿ ŀ",
      "ĠI II",
      "å¡ ĳ",
      "å¡ Ķ",
      "åŃ Ļ",
      "Ġèķ ¾",
      "Ġèľ ļ",
      "Ġèľ ľ",
      "ĠéĦ Ļ",
      "å¢ ¨",
      "åĢ ¼",
      "åĶ ¯",
      "åĶ Ĳ",
      "æĶ ¹",
      "æĻ ®",
      "æŁ Ĳ",
      "ç© º",
      "ç© Ĩ",
      "ç® ¡",
      "ç® Ģ",
      "çº ª",
      "çŁ ¥",
      "çŁ ³",
      "è§ £",
      "èī ¯",
      "é¡ ¶",
      "Ġèĺ ¸",
      "Ġèĺ ĳ",
      "Ġèļ Ģ",
      "Ġèļ Ĭ",
      "å£ ®",
      "çĥ Ń",
      "Ġè¤ Ĥ",
      "ĠèĿ ¶",
      "Ġé« ĵ",
      "åĥ ı",
      "æĳ ©",
      "çļ ®",
      "çł Ķ",
      "¢ «",
      "¢ ±",
      "¥ ±",
      "¦ ¥",
      "§ ½",
      "° ĩ",
      "³ Į",
      "³ ĸ",
      "´ §",
      "´ Ķ",
      "µ Į",
      "¸ £",
      "¼ ĵ",
      "¼ Ķ",
      "½ ¦",
      "½ Ĳ",
      "¿ Ł",
      "â ĸ",
      "â Ĺĭ",
      "å ĳ",
      "å Ĵ",
      "å ķ",
      "å Ŀ",
      "å ł",
      "å §Ĳ",
      "å ¦¥",
      "å ´Ķ",
      "æ ĩ",
      "æ ĭ",
      "æ İ",
      "æ Ĳ",
      "æ ¼Ķ",
      "ç ħ",
      "ç Ĩ",
      "ç Ĭ",
      "ç Į",
      "ç ĵ",
      "ç ³»",
      "ç ¢±",
      "ç ´§",
      "ç ¿Ł",
      "è Ħ",
      "è Ī",
      "è Ĭ",
      "è Į",
      "è İ",
      "è ı",
      "è ĵ",
      "è Ĺı",
      "è ©¹",
      "è ¢«",
      "è ½¦",
      "é Ķ",
      "é ī´",
      "é ¥±",
      "é ³ĸ",
      "é ¸£",
      "é ¼ĵ",
      "é ½Ĳ",
      "Ġ +",
      "Ġ G",
      "Ġ M",
      "Ġ W",
      "Ġ d",
      "Ġ i",
      "Ġ k",
      "Ġ r",
      "Ġ s",
      "Ģ ļ",
      "ļ ·",
      "Ł ¹",
      "Ġå µĮ",
      "Ġå ļ·",
      "Ġæ §½",
      "Ġç °ĩ",
      "Ġç Ģļ",
      "Ġè ©¹",
      "Ġè Ł¹",
      "Ġé ¥¿",
      "Ġé ³Į",
      "Ġä¸ ¸",
      "Ġä¸ ĳ",
      "ãĢ ĭ",
      "ãĢ ı",
      "ĠãĢ Ī",
      "ĠãĢ ī",
      "Ġçļ ĭ",
      "Ġäº ¢",
      "Ġäº ¨",
      "Ġäº µ",
      "Ġåħ ¹",
      "Ġåħ Ĩ",
      "Ġåħ ľ",
      "Ġæľ ¦",
      "Ġæľ Ķ",
      "Ġä» Ķ",
      "Ġä» Ļ",
      "Ġå¤ ·",
      "Ġåı ©",
      "Ġåı ®",
      "Ġåı ī",
      "ĠåĪ ¹",
      "ĠåĪ ł",
      "Ġå® ¥",
      "Ġå® ´",
      "Ġå® ¸",
      "Ġå® ħ",
      "Ġå® ĵ",
      "Ġå® ķ",
      "Ġå® Ļ",
      "Ġå® Ľ",
      "Ġè¿ ¥",
      "Ġè¿ ¸",
      "ĠåĲ »",
      "ĠåĲ ¼",
      "ĠåĲ ı",
      "ĠåĲ ĵ",
      "ĠåĲ Ł",
      "ĠåĬ ¾",
      "ĠåĬ Ŀ",
      "Ġç» ¢",
      "Ġç» ¥",
      "Ġç» µ",
      "Ġç» ¸",
      "Ġç» ½",
      "Ġç» ħ",
      "Ġç» Į",
      "Ġç» ļ",
      "Ġç» Ľ",
      "Ġæĺ ı",
      "Ġæĺ ķ",
      "Ġå¹ ¢",
      "Ġä½ £",
      "Ġä½ ¤",
      "Ġä½ ĳ",
      "Ġä½ Ŀ",
      "Ġæĸ ¡",
      "Ġæĸ ¥",
      "Ġæĸ ĭ",
      "Ġæĸ Ĳ",
      "Ġä¼ ŀ",
      "ĠæĹ Ń",
      "ĠçĶ ©",
      "ĠçĶ «",
      "ĠçĶ ¬",
      "Ġå° ¸",
      "Ġè® ª",
      "Ġè® ³",
      "Ġè® ´",
      "Ġä¹ ¾",
      "Ġä¹ į",
      "Ġåį µ",
      "Ġåį ī",
      "ĠæĪ Ĭ",
      "ĠæĪ Į",
      "ĠæĪ Ĵ",
      "Ġè¯ ¡",
      "Ġè¯ £",
      "Ġè¯ ¤",
      "Ġè¯ °",
      "Ġè¯ ²",
      "Ġè¯ Ģ",
      "Ġè¯ Ī",
      "Ġè¯ ĭ",
      "ĠåĨ ¥",
      "ĠæĿ ·",
      "ĠæĿ Ĩ",
      "ĠæĿ ı",
      "ĠæĿ ł",
      "ĠåŃ ¢",
      "ĠåŃ º",
      "Ġå· «",
      "Ġå· ·",
      "Ġå· ħ",
      "ĠåĴ ª",
      "ĠåĴ ±",
      "ĠåĴ Ģ",
      "ĠåĴ Ĩ",
      "Ġåĩ ³",
      "Ġåĩ ¹",
      "Ġåĩ Ħ",
      "Ġå¸ ½",
      "Ġå¸ ħ",
      "ĠæĬ ¨",
      "ĠæĬ ¬",
      "ĠæĬ ¹",
      "ĠæĬ ī",
      "ĠæĬ Ĵ",
      "Ġè¡ °",
      "ĠæĶ ¥",
      "Ġå¼ ¦",
      "Ġå¼ ĵ",
      "Ġèµ Į",
      "Ġèµ Ĳ",
      "Ġèµ Ŀ",
      "Ġèµ Ń",
      "ĠåĮ ®",
      "ĠåĮ Ī",
      "ĠåĮ ł",
      "Ġå¯ º",
      "Ġå¯ ĵ",
      "Ġæī ĩ",
      "Ġæī ī",
      "Ġæī Ľ",
      "Ġå± ¹",
      "Ġå± ¿",
      "Ġè´ ¤",
      "Ġè´ ®",
      "Ġè´ ±",
      "Ġè´ ¼",
      "Ġç§ ©",
      "Ġå¾ ĩ",
      "Ġå¾ Ĭ",
      "Ġå¾ ĺ",
      "Ġéĺ Ĳ",
      "Ġéĺ ĳ",
      "Ġéĺ Ļ",
      "Ġéĺ ľ",
      "ĠéĢ ¸",
      "ĠéĢ Ĭ",
      "ĠéĢ ŀ",
      "Ġéĥ ¡",
      "Ġéĥ ħ",
      "Ġå¥ ĳ",
      "Ġåİ Į",
      "ĠæĢ ª",
      "ĠæĢ ¯",
      "ĠæĢ ĸ",
      "ĠæĢ ł",
      "ĠçĽ ¼",
      "ĠçĽ İ",
      "Ġæµ Ĭ",
      "Ġæµ ľ",
      "Ġæķ Ľ",
      "Ġæł İ",
      "Ġæł ĵ",
      "Ġæł ĸ",
      "ĠéĿ ¶",
      "ĠéĹ ·",
      "Ġçİ «",
      "Ġçī ¡",
      "Ġçī Ł",
      "ĠæŃ ª",
      "ĠæŃ ī",
      "Ġå½ ¤",
      "Ġå¿ Į",
      "Ġå¿ ı",
      "ĠéĻ ¨",
      "ĠéĻ ²",
      "ĠéĻ µ",
      "ĠéĻ Ģ",
      "Ġçº ¬",
      "Ġé¢ ĵ",
      "Ġåī ¿",
      "Ġåī ĸ",
      "ĠçĲ ¢",
      "ĠçĲ ħ",
      "Ġèĥ ¥",
      "Ġèĥ §",
      "Ġèĥ «",
      "Ġèĥ ³",
      "Ġèĥ ļ",
      "Ġæ² ¦",
      "Ġæ² ±",
      "Ġæ² ½",
      "Ġæ² Ĥ",
      "Ġæ² Į",
      "Ġæ² ı",
      "Ġæ³ µ",
      "Ġæ³ ·",
      "Ġæ³ ¾",
      "Ġæ³ Ħ",
      "Ġæ³ Į",
      "Ġèĩ »",
      "Ġèĩ ¾",
      "Ġæŀ ¢",
      "Ġæŀ ĩ",
      "Ġæ¯ ĭ",
      "Ġæ¯ Ĺ",
      "Ġéķ °",
      "Ġä¿ ĺ",
      "ĠçŃ ·",
      "ĠçŃ Ĳ",
      "ĠçŃ Ľ",
      "Ġæĭ ¦",
      "Ġæĭ §",
      "Ġæĭ Ĥ",
      "Ġæĭ ĩ",
      "Ġæĭ Ī",
      "Ġæĭ Į",
      "Ġæĭ ľ",
      "Ġæİ £",
      "Ġæİ ĩ",
      "Ġæİ ı",
      "Ġæİ ł",
      "Ġç¾ ģ",
      "Ġç¾ Į",
      "Ġç¾ ļ",
      "Ġç¾ ŀ",
      "Ġæ± ª",
      "Ġæ± ¹",
      "Ġæ± ¾",
      "Ġæ± ģ",
      "Ġæ± Ĳ",
      "Ġæ± Ľ",
      "Ġæ± ŀ",
      "Ġæ´ Į",
      "Ġè¾ ±",
      "Ġè¾ į",
      "Ġè¾ Ĺ",
      "Ġè¾ ľ",
      "Ġçľ ¸",
      "Ġçľ º",
      "Ġçľ ł",
      "Ġç« £",
      "Ġç« ĸ",
      "ĠæĦ ¤",
      "Ġåĵ ¨",
      "Ġåĵ ®",
      "Ġåĵ ¼",
      "Ġåĵ ½",
      "Ġåĵ Ĩ",
      "Ġåĵ ĩ",
      "Ġåĵ ĳ",
      "Ġåĵ Ĺ",
      "Ġåĵ Ń",
      "Ġæĥ §",
      "Ġæĥ °",
      "Ġæĥ ¹",
      "Ġæĥ ķ",
      "Ġè½ ©",
      "Ġè½ ¿",
      "Ġå» ĵ",
      "Ġå§ £",
      "Ġå§ ¨",
      "Ġèģ Ĥ",
      "Ġèģ ĭ",
      "Ġè° ©",
      "Ġè° ª",
      "Ġè° ²",
      "Ġè° ħ",
      "Ġè° į",
      "Ġè° İ",
      "Ġè° Ĵ",
      "Ġè° Ļ",
      "Ġè° Ľ",
      "Ġè° ľ",
      "Ġè° Ń",
      "ĠéĽ ı",
      "Ġçķ Ķ",
      "Ġéģ ´",
      "Ġç¨ »",
      "Ġç¨ ¼",
      "Ġç¨ ½",
      "ĠèĤ ´",
      "ĠèĤ ¾",
      "ĠèĤ ĩ",
      "ĠèĤ ĺ",
      "ĠèĤ ł",
      "ĠåĿ ·",
      "ĠåĿ Ł",
      "Ġèī ĺ",
      "Ġæ¸ ¤",
      "Ġæ¸ į",
      "Ġæ¸ İ",
      "Ġæ¸ Ŀ",
      "Ġç¬ Ĩ",
      "Ġå¢ ©",
      "ĠçĿ ¨",
      "ĠçĿ «",
      "ĠçĿ Ĳ",
      "ä¸ ¥",
      "ä¸ ´",
      "ä¸ ½",
      "ä¸ Ī",
      "ä¸ ľ",
      "Ġä¾ ¦",
      "Ġä¾ ®",
      "Ġä¾ į",
      "Ġç© ¹",
      "Ġçł ¸",
      "Ġçł º",
      "Ġçł Ĥ",
      "Ġçł Ŀ",
      "Ġçł Ń",
      "Ġé¦ Ī",
      "Ġé¦ ĭ",
      "Ġè· ¤",
      "Ġè· ·",
      "Ġè· ĭ",
      "ĠæĻ °",
      "ĠæĻ ķ",
      "ĠæĻ Ł",
      "Ġé£ Ļ",
      "ĠåĢ ļ",
      "ĠçŁ ¶",
      "Ġç¥ ¸",
      "Ġç¥ ī",
      "Ġç¥ Ľ",
      "ĠéĤ ª",
      "ĠéĤ ¬",
      "ĠéĤ ¯",
      "ĠéĤ ĥ",
      "ĠéĤ Ŀ",
      "ĠæĽ ¦",
      "Ġéļ ½",
      "Ġéļ ħ",
      "Ġéļ Ĺ",
      "Ġåģ »",
      "Ġå¦ ©",
      "Ġå¦ ĸ",
      "Ġæį ħ",
      "Ġæį İ",
      "Ġå² Ĥ",
      "Ġå² Ĳ",
      "ĠèĲ ¦",
      "ĠèĲ §",
      "ĠèĲ ĥ",
      "Ġæ· ¦",
      "Ġæ· Ģ",
      "Ġæ· ĳ",
      "ĠçĤ «",
      "ĠçĤ ¬",
      "ĠçĤ Ĭ",
      "ĠçĤ ĸ",
      "Ġèĭ ¹",
      "Ġèĭ ĩ",
      "Ġèĭ İ",
      "Ġèĭ ĳ",
      "ĠæŁ ¯",
      "ĠæŁ ļ",
      "Ġç² ķ",
      "Ġç² ĺ",
      "Ġèį ¼",
      "Ġèį Ł",
      "Ġç´ Ĭ",
      "Ġçģ ¸",
      "Ġé© ®",
      "Ġé© ³",
      "Ġé© ·",
      "Ġé© ¼",
      "Ġé© Ń",
      "Ġç¡ «",
      "è¿ ģ",
      "è¿ Ħ",
      "Ġè¢ ľ",
      "ĠéĶ ¤",
      "ĠéĶ ²",
      "ĠéĶ Ħ",
      "ĠèĪ µ",
      "ĠèĪ ¶",
      "ĠèĪ Į",
      "Ġæ¶ ¡",
      "Ġæ¶ ¤",
      "Ġæ¶ §",
      "Ġæ¶ ¯",
      "Ġæ¶ ¿",
      "Ġæ¶ ĳ",
      "Ġæ¶ ķ",
      "Ġæ¶ Ŀ",
      "Ġèİ º",
      "Ġéľ ľ",
      "Ġæģ ¤",
      "Ġæģ ¸",
      "Ġæģ ĥ",
      "Ġæģ ĭ",
      "æľ ±",
      "æľ Ŀ",
      "ĠèĬ ¥",
      "ĠèĬ ¦",
      "ĠèĬ ®",
      "ĠèĬ ¯",
      "ĠèĬ ½",
      "ĠèĬ Ļ",
      "ĠèĬ Ń",
      "Ġéĵ ¬",
      "Ġéĵ ±",
      "Ġéĵ Ĩ",
      "ĠéĴ ¤",
      "ĠéĴ §",
      "ĠéĴ ¬",
      "ĠéĴ Ļ",
      "ĠéĴ Ŀ",
      "Ġç¼ °",
      "Ġç¼ ³",
      "Ġç¼ ī",
      "Ġç¼ ł",
      "Ġçĥ «",
      "Ġçĥ ģ",
      "Ġçĥ Ļ",
      "Ġçĥ Ľ",
      "Ġæ¡ ¦",
      "Ġæ¡ Ķ",
      "Ġéħ ¬",
      "Ġéħ ®",
      "Ġéħ ¶",
      "Ġåķ ¡",
      "Ġåķ ľ",
      "Ġæ» Ĥ",
      "Ġæ» Ķ",
      "Ġæ£ µ",
      "Ġæ£ ķ",
      "Ġæ® ¡",
      "Ġæ® ¿",
      "Ġæ® ĥ",
      "Ġèº ¯",
      "Ġèº ²",
      "Ġèº ģ",
      "Ġè£ ¤",
      "Ġåĸ ·",
      "Ġåĸ ī",
      "Ġåĸ ĺ",
      "Ġéª Ĥ",
      "Ġéª ı",
      "Ġéª ŀ",
      "ĠçĪ µ",
      "ĠçĪ ¸",
      "ĠçĪ »",
      "Ġæ¼ ³",
      "Ġæ¼ Ĩ",
      "Ġæĳ §",
      "Ġæĳ ¹",
      "ĠèĮ ¬",
      "ĠèĮ µ",
      "ĠèĮ Ħ",
      "ĠèĮ Ķ",
      "ĠèĮ Ĺ",
      "Ġçĸ ¡",
      "Ġçĸ ı",
      "ĠçĹ ª",
      "ĠçĹ °",
      "Ġèŀ ĥ",
      "ĠèĦ ¾",
      "Ġçı ²",
      "Ġçı Ĭ",
      "Ġçı ı",
      "Ġçı ŀ",
      "Ġçª Ħ",
      "Ġçª Ĵ",
      "ĠçĮ ĸ",
      "ĠçĮ Ĺ",
      "ĠçĮ Ŀ",
      "Ġå¡ ¬",
      "Ġæº ¥",
      "Ġæº º",
      "Ġæº ĥ",
      "Ġæº ī",
      "Ġæº ľ",
      "Ġç¦ Ħ",
      "åħ °",
      "åħ ·",
      "åħ »",
      "åħ ī",
      "æį ¢",
      "æį ķ",
      "Ġå¨ ±",
      "Ġå¨ ¶",
      "Ġå¨ Ĩ",
      "Ġå¨ ĩ",
      "Ġç¯ ±",
      "Ġç¯ Ŀ",
      "Ġçĭ °",
      "Ġçĭ Ħ",
      "Ġçĭ Ī",
      "Ġçĭ Ĺ",
      "Ġçĭ ŀ",
      "Ġçĭ ł",
      "Ġèĳ «",
      "Ġèĳ Ĩ",
      "ĠèĻ Ĳ",
      "ĠèĻ Ķ",
      "ĠèĻ ŀ",
      "ä½ ¿",
      "ä½ į",
      "ä½ ĵ",
      "ä½ Ļ",
      "ä½ ł",
      "åĽ Ĭ",
      "åĽ ŀ",
      "åĽ Ń",
      "ĠæĴ ĩ",
      "Ġçħ İ",
      "Ġçħ ŀ",
      "ĠæĲ ģ",
      "ĠæĲ ħ",
      "åı °",
      "åı ¶",
      "åı Ī",
      "åı ĺ",
      "Ġæ½ ¸",
      "Ġæ½ į",
      "Ġæ½ ŀ",
      "Ġé¾ ĥ",
      "Ġé¾ ī",
      "æĪ ´",
      "æĪ ĺ",
      "ĠæĤ ¼",
      "Ġæħ µ",
      "Ġæħ ·",
      "Ġèı ±",
      "Ġåĭ °",
      "Ġåĭ ¾",
      "Ġåĭ ĭ",
      "Ġåĥ §",
      "Ġåĥ ³",
      "Ġåĥ ļ",
      "Ġé² ħ",
      "Ġæ¢ ¨",
      "Ġæ¢ ¯",
      "Ġæ¢ Ń",
      "Ġé¥ ²",
      "Ġé¥ ¼",
      "Ġæ¿ ¡",
      "Ġæ¿ ĳ",
      "Ġæ¾ ¡",
      "Ġæ¾ Ī",
      "Ġæ¾ ľ",
      "Ġåł ¤",
      "Ġèħ ĭ",
      "Ġèħ ł",
      "Ġæļ ĩ",
      "äº ¤",
      "äº «",
      "äº ļ",
      "æĸ ¤",
      "å½ ¢",
      "åĲ ¦",
      "åĲ ¸",
      "åĲ ĥ",
      "åĲ Ī",
      "åĲ ī",
      "åĲ Ľ",
      "ĠèĴ ²",
      "çĶ ¨",
      "çĶ °",
      "çĶ ³",
      "çĶ µ",
      "Ġç¢ ¾",
      "Ġç¢ ī",
      "Ġç¢ Į",
      "Ġç¢ ĺ",
      "ĠåĤ Ī",
      "ĠåĤ į",
      "Ġæ¤ °",
      "Ġæ¤ ½",
      "Ġæ¤ ¿",
      "Ġæ¤ ħ",
      "Ġæ¤ İ",
      "æĹ ¶",
      "æĹ ħ",
      "Ġç¿ İ",
      "Ġç¿ Ł",
      "Ġçĳ ¶",
      "Ġçĳ Ļ",
      "Ġçĳ ļ",
      "Ġçĳ Ľ",
      "Ġçĳ Ł",
      "ç¾ ļ",
      "ç¾ ŀ",
      "çĽ ´",
      "çĽ ĳ",
      "å¤ ª",
      "å¤ ±",
      "å¤ ļ",
      "Ġå³ Ń",
      "å® Ŀ",
      "è¯ ī",
      "è¯ ļ",
      "åĪ ĩ",
      "ç» §",
      "ç» ´",
      "ç» Ħ",
      "ç» Ī",
      "Ġé¸ ¦",
      "Ġé¸ ½",
      "Ġé¸ ¿",
      "æĿ ¾",
      "æĿ ľ",
      "Ġé¹ ³",
      "Ġé¹ ĥ",
      "Ġé¹ Ĭ",
      "Ġé¹ ļ",
      "Ġé¹ ŀ",
      "ĠéŃ ģ",
      "ĠéŃ Ħ",
      "å° ĳ",
      "å¯ Į",
      "åį ¡",
      "åį ¤",
      "åį Ĭ",
      "åį ı",
      "åį ļ",
      "åİ Ħ",
      "åĨ ¥",
      "åĨ ¬",
      "åĨ ¯",
      "åĨ µ",
      "åĨ ·",
      "æī §",
      "Ġå´ İ",
      "Ġå´ Ķ",
      "ç¬ Ķ",
      "æĬ ½",
      "Ġå« ģ",
      "ä¼ °",
      "ä¼ ¼",
      "å¸ ķ",
      "æ¯ ¡",
      "æ¯ «",
      "æ¯ į",
      "æ¯ Ĵ",
      "æĺ ¥",
      "æĺ ¾",
      "æĺ Ķ",
      "Ġå© ·",
      "Ġå© ī",
      "ĠçĨ ¹",
      "ĠçĨ ı",
      "ĠçĨ Ķ",
      "ĠçĨ Ļ",
      "Ġèĵ ĵ",
      "éĤ ®",
      "éĤ µ",
      "éĤ »",
      "éĤ ĵ",
      "ä¹ ¦",
      "ä¹ ī",
      "ä¹ ĭ",
      "ä¹ Ĳ",
      "ä¹ Ķ",
      "å¥ ¥",
      "å¥ ½",
      "Ġçŀ §",
      "Ġçŀ ª",
      "Ġçŀ ¬",
      "Ġçŀ ħ",
      "Ġçŀ İ",
      "Ġçŀ ł",
      "ĠèĶ ½",
      "åĩ ¤",
      "åĩ Ń",
      "Ġåĺ ±",
      "Ġåĺ ¹",
      "å¼ ķ",
      "æ² Ī",
      "æ² Ļ",
      "è® ²",
      "è® º",
      "ĠèĨ ¨",
      "ĠèĨ »",
      "ĠèĨ Ĥ",
      "ĠèĨ Ĭ",
      "ĠèĨ Ŀ",
      "æł ¼",
      "Ġåª ³",
      "Ġæ¦ ·",
      "Ġæ¦ »",
      "Ġæ¦ Ħ",
      "Ġæ¦ ķ",
      "å· ²",
      "åĬ ¨",
      "åĬ «",
      "åĬ ŀ",
      "æ± ł",
      "Ġæĵ Ĥ",
      "ä¿ ®",
      "ä¿ Ŀ",
      "ä¿ Ń",
      "å¾ Ī",
      "å¾ Ĳ",
      "æĽ ¼",
      "æĽ Ļ",
      "ç§ ¦",
      "ç§ §",
      "ç§ į",
      "éĥ ¨",
      "éĥ Ń",
      "éĹ Ń",
      "ĠæĨ ĭ",
      "å¹ ²",
      "å¹ ¸",
      "å¹ ķ",
      "æ¬ ¡",
      "æ¬ £",
      "æĢ ķ",
      "è´ ¢",
      "è´ ¤",
      "è´ §",
      "è´ ¨",
      "è´ ©",
      "è´ º",
      "èĭ ¥",
      "éĻ ¢",
      "éĻ ¤",
      "éĻ ª",
      "ĠçĴ Ĳ",
      "ĠèĽ ³",
      "ĠèĽ Ĭ",
      "ĠèĽ Ł",
      "ĠéĨ ĩ",
      "ĠéĨ Ľ",
      "åģ ¥",
      "æµ ģ",
      "æµ İ",
      "æµ ı",
      "çī µ",
      "çī Ľ",
      "è° ĥ",
      "éĺ ²",
      "åº Ħ",
      "åº ĵ",
      "èģ Į",
      "èĥ ¶",
      "èĥ ½",
      "èĥ ľ",
      "é» Ŀ",
      "Ġçĺ ¦",
      "Ġçĺ ¾",
      "Ġçĺ ģ",
      "Ġè¹ ²",
      "Ġèĸ ª",
      "æ· ·",
      "æĮ ª",
      "æķ £",
      "æķ ¦",
      "æķ °",
      "æķ ´",
      "æķ ĳ",
      "æķ Ļ",
      "é¢ ľ",
      "éĿ Ĵ",
      "Ġç³ Ĭ",
      "Ġç³ Ļ",
      "Ġç³ Ł",
      "å¡ ŀ",
      "å± ħ",
      "å± Ĭ",
      "åĵ ª",
      "åŃ ©",
      "åŃ ķ",
      "åŃ ĺ",
      "æĦ ¿",
      "æĦ Ī",
      "æŀ Ĺ",
      "èµ µ",
      "èµ Ħ",
      "é© »",
      "é² į",
      "éĩ ĩ",
      "éĩ Ĭ",
      "éĩ Į",
      "éĩ į",
      "éĩ ĳ",
      "éĴ ±",
      "éĴ Ł",
      "Ġèľ ĩ",
      "å¢ Ļ",
      "å¢ ŀ",
      "åĢ Ĵ",
      "åĢ ĺ",
      "æ¢ ¦",
      "æĶ ¶",
      "æĶ ¿",
      "æĻ ĭ",
      "æĻ ļ",
      "æŁ ¬",
      "æŁ ¯",
      "çº ¢",
      "çº ½",
      "çĲ ĥ",
      "è§ Ħ",
      "è§ ī",
      "èī °",
      "èī º",
      "é¡ ·",
      "é¡ ¾",
      "å£ °",
      "æ´ ª",
      "æ´ »",
      "æ´ ģ",
      "ç« ĭ",
      "ç« Ļ",
      "ç« ŀ",
      "çĥ Ī",
      "çı į",
      "çı ł",
      "çı Ń",
      "èį ¯",
      "èį ·",
      "èį ī",
      "Ġè¤ ¥",
      "ĠèĿ ´",
      "Ġé« ¦",
      "å¿ Ĺ",
      "å¿ ĺ",
      "æģ °",
      "æģ Ń",
      "ç¥ ĸ",
      "ç¥ Ŀ",
      "ç¨ ĭ",
      "ç¨ İ",
      "ç² ¾",
      "ç² ī",
      "çĩ ĥ",
      "çĩ ķ",
      "çŃ ¹",
      "çŃ Ķ",
      "è¶ ³",
      "è¶ ħ",
      "èĤ Ĩ",
      "èĤ ĸ",
      "èĲ ¥",
      "èĲ ¨",
      "èĳ ¡",
      "èĳ £",
      "é£ ŀ",
      "é£ Ł",
      "ĠèĹ ¤",
      "ĠèĹ ī",
      "âĸ ²",
      "åĳ ¨",
      "åĴ ĸ",
      "åķ Ĩ",
      "åĿ Ĳ",
      "åł µ",
      "æĩ Ĥ",
      "æĭ ī",
      "æİ ¥",
      "æĲ ŀ",
      "çħ §",
      "çĨ Ĭ",
      "çĬ ¶",
      "çĮ İ",
      "çĵ ¦",
      "èĦ ±",
      "èĪ Ĩ",
      "èĬ ¬",
      "èĮ ĥ",
      "èİ «",
      "èı ²",
      "èĵ ¬",
      "éĶ Ģ"
    ]
  }
}